{
  "version": "1.0",
  "truncation": null,
  "padding": null,
  "added_tokens": [
    {
      "id": 0,
      "content": "<unk>",
      "single_word": false,
      "lstrip": false,
      "rstrip": false,
      "normalized": false,
      "special": true
    },
    {
      "id": 1,
      "content": "<s>",
      "single_word": false,
      "lstrip": false,
      "rstrip": false,
      "normalized": false,
      "special": true
    },
    {
      "id": 2,
      "content": "</s>",
      "single_word": false,
      "lstrip": false,
      "rstrip": false,
      "normalized": false,
      "special": true
    },
    {
      "id": 3,
      "content": "[PAD]",
      "single_word": false,
      "lstrip": false,
      "rstrip": false,
      "normalized": false,
      "special": true
    },
    {
      "id": 4,
      "content": "<|im_start|>",
      "single_word": false,
      "lstrip": false,
      "rstrip": false,
      "normalized": false,
      "special": true
    },
    {
      "id": 5,
      "content": "<|im_end|>",
      "single_word": false,
      "lstrip": false,
      "rstrip": false,
      "normalized": false,
      "special": true
    }
  ],
  "normalizer": {
    "type": "Sequence",
    "normalizers": [
      {
        "type": "Prepend",
        "prepend": "_"
      },
      {
        "type": "Replace",
        "pattern": {
          "String": " "
        },
        "content": "__"
      }
    ]
  },
  "pre_tokenizer": null,
  "post_processor": {
    "type": "TemplateProcessing",
    "single": [
      {
        "SpecialToken": {
          "id": "<s>",
          "type_id": 0
        }
      },
      {
        "Sequence": {
          "id": "A",
          "type_id": 0
        }
      },
      {
        "SpecialToken": {
          "id": "</s>",
          "type_id": 0
        }
      }
    ],
    "pair": [
      {
        "SpecialToken": {
          "id": "<s>",
          "type_id": 0
        }
      },
      {
        "Sequence": {
          "id": "A",
          "type_id": 0
        }
      },
      {
        "SpecialToken": {
          "id": "</s>",
          "type_id": 0
        }
      },
      {
        "SpecialToken": {
          "id": "<s>",
          "type_id": 0
        }
      },
      {
        "Sequence": {
          "id": "B",
          "type_id": 0
        }
      },
      {
        "SpecialToken": {
          "id": "</s>",
          "type_id": 1
        }
      }
    ],
    "special_tokens": {
      "</s>": {
        "id": "</s>",
        "ids": [
          2
        ],
        "tokens": [
          "</s>"
        ]
      },
      "<s>": {
        "id": "<s>",
        "ids": [
          1
        ],
        "tokens": [
          "<s>"
        ]
      }
    }
  },
  "decoder": null,
  "model": {
    "type": "BPE",
    "dropout": null,
    "unk_token": "<unk>",
    "continuing_subword_prefix": null,
    "end_of_word_suffix": null,
    "fuse_unk": false,
    "byte_fallback": false,
    "ignore_merges": false,
    "vocab": {
      "<unk>": 0,
      "<s>": 1,
      "</s>": 2,
      "[PAD]": 3,
      "<|im_start|>": 4,
      "<|im_end|>": 5,
      "\t": 6,
      "\n": 7,
      "!": 8,
      "\"": 9,
      "#": 10,
      "$": 11,
      "%": 12,
      "&": 13,
      "'": 14,
      "(": 15,
      ")": 16,
      "*": 17,
      "+": 18,
      ",": 19,
      "-": 20,
      ".": 21,
      "/": 22,
      "0": 23,
      "1": 24,
      "2": 25,
      "3": 26,
      "4": 27,
      "5": 28,
      "6": 29,
      "7": 30,
      "8": 31,
      "9": 32,
      ":": 33,
      ";": 34,
      "<": 35,
      "=": 36,
      ">": 37,
      "?": 38,
      "A": 39,
      "B": 40,
      "C": 41,
      "D": 42,
      "E": 43,
      "F": 44,
      "G": 45,
      "H": 46,
      "I": 47,
      "J": 48,
      "K": 49,
      "L": 50,
      "M": 51,
      "N": 52,
      "O": 53,
      "P": 54,
      "Q": 55,
      "R": 56,
      "S": 57,
      "T": 58,
      "U": 59,
      "V": 60,
      "W": 61,
      "X": 62,
      "Y": 63,
      "Z": 64,
      "[": 65,
      "\\": 66,
      "]": 67,
      "^": 68,
      "_": 69,
      "a": 70,
      "b": 71,
      "c": 72,
      "d": 73,
      "e": 74,
      "f": 75,
      "g": 76,
      "h": 77,
      "i": 78,
      "j": 79,
      "k": 80,
      "l": 81,
      "m": 82,
      "n": 83,
      "o": 84,
      "p": 85,
      "q": 86,
      "r": 87,
      "s": 88,
      "t": 89,
      "u": 90,
      "v": 91,
      "w": 92,
      "x": 93,
      "y": 94,
      "z": 95,
      "{": 96,
      "}": 97,
      "~": 98,
      " ": 99,
      "£": 100,
      "¥": 101,
      "§": 102,
      "«": 103,
      "®": 104,
      "°": 105,
      "±": 106,
      "·": 107,
      "»": 108,
      "½": 109,
      "Á": 110,
      "Ä": 111,
      "Å": 112,
      "Æ": 113,
      "È": 114,
      "É": 115,
      "Î": 116,
      "Ó": 117,
      "Ô": 118,
      "Ö": 119,
      "×": 120,
      "Ø": 121,
      "Ú": 122,
      "Ü": 123,
      "ß": 124,
      "à": 125,
      "á": 126,
      "â": 127,
      "ã": 128,
      "ä": 129,
      "å": 130,
      "æ": 131,
      "ç": 132,
      "è": 133,
      "é": 134,
      "ê": 135,
      "ë": 136,
      "ì": 137,
      "í": 138,
      "î": 139,
      "ï": 140,
      "ñ": 141,
      "ò": 142,
      "ó": 143,
      "ô": 144,
      "ö": 145,
      "ø": 146,
      "ù": 147,
      "ú": 148,
      "ü": 149,
      "ý": 150,
      "þ": 151,
      "Ā": 152,
      "ā": 153,
      "ă": 154,
      "ą": 155,
      "ć": 156,
      "Č": 157,
      "č": 158,
      "Đ": 159,
      "đ": 160,
      "ė": 161,
      "ę": 162,
      "ě": 163,
      "ğ": 164,
      "Ī": 165,
      "ī": 166,
      "ı": 167,
      "Ľ": 168,
      "Ł": 169,
      "ł": 170,
      "ń": 171,
      "ň": 172,
      "Ō": 173,
      "ō": 174,
      "ő": 175,
      "œ": 176,
      "ř": 177,
      "Ś": 178,
      "ś": 179,
      "ş": 180,
      "Š": 181,
      "š": 182,
      "ū": 183,
      "ŵ": 184,
      "Ż": 185,
      "ż": 186,
      "Ž": 187,
      "ž": 188,
      "ș": 189,
      "Ț": 190,
      "ț": 191,
      "ɐ": 192,
      "ɒ": 193,
      "ɔ": 194,
      "ɕ": 195,
      "ə": 196,
      "ɛ": 197,
      "ɡ": 198,
      "ɥ": 199,
      "ɦ": 200,
      "ɨ": 201,
      "ɪ": 202,
      "ɬ": 203,
      "ɲ": 204,
      "ʁ": 205,
      "ʂ": 206,
      "ʃ": 207,
      "ʋ": 208,
      "ʌ": 209,
      "ʐ": 210,
      "ʒ": 211,
      "ʻ": 212,
      "ʼ": 213,
      "ʾ": 214,
      "ˈ": 215,
      "ˌ": 216,
      "ː": 217,
      "́": 218,
      "̃": 219,
      "̄": 220,
      "͡": 221,
      "Γ": 222,
      "Δ": 223,
      "Ζ": 224,
      "Κ": 225,
      "Λ": 226,
      "Σ": 227,
      "Τ": 228,
      "Χ": 229,
      "Ω": 230,
      "ά": 231,
      "έ": 232,
      "ή": 233,
      "ί": 234,
      "α": 235,
      "γ": 236,
      "δ": 237,
      "ε": 238,
      "ζ": 239,
      "η": 240,
      "ι": 241,
      "κ": 242,
      "λ": 243,
      "μ": 244,
      "ν": 245,
      "ο": 246,
      "π": 247,
      "ρ": 248,
      "ς": 249,
      "σ": 250,
      "τ": 251,
      "ω": 252,
      "ό": 253,
      "ύ": 254,
      "ώ": 255,
      "ϕ": 256,
      "А": 257,
      "Б": 258,
      "В": 259,
      "К": 260,
      "Л": 261,
      "М": 262,
      "Н": 263,
      "О": 264,
      "П": 265,
      "Р": 266,
      "С": 267,
      "Т": 268,
      "У": 269,
      "Ю": 270,
      "а": 271,
      "б": 272,
      "в": 273,
      "г": 274,
      "д": 275,
      "е": 276,
      "ж": 277,
      "з": 278,
      "и": 279,
      "й": 280,
      "к": 281,
      "л": 282,
      "м": 283,
      "н": 284,
      "о": 285,
      "п": 286,
      "р": 287,
      "с": 288,
      "т": 289,
      "у": 290,
      "х": 291,
      "ц": 292,
      "ч": 293,
      "ш": 294,
      "ъ": 295,
      "ы": 296,
      "ь": 297,
      "э": 298,
      "ю": 299,
      "я": 300,
      "ё": 301,
      "і": 302,
      "ј": 303,
      "א": 304,
      "ב": 305,
      "ג": 306,
      "ד": 307,
      "ה": 308,
      "ו": 309,
      "ז": 310,
      "ח": 311,
      "ט": 312,
      "י": 313,
      "ל": 314,
      "מ": 315,
      "ן": 316,
      "נ": 317,
      "ס": 318,
      "ע": 319,
      "צ": 320,
      "ק": 321,
      "ר": 322,
      "״": 323,
      "،": 324,
      "ء": 325,
      "آ": 326,
      "أ": 327,
      "ئ": 328,
      "ا": 329,
      "ب": 330,
      "ة": 331,
      "ت": 332,
      "ج": 333,
      "ح": 334,
      "خ": 335,
      "د": 336,
      "ذ": 337,
      "ر": 338,
      "ز": 339,
      "س": 340,
      "ش": 341,
      "ص": 342,
      "ط": 343,
      "ع": 344,
      "غ": 345,
      "ف": 346,
      "ق": 347,
      "ك": 348,
      "ل": 349,
      "م": 350,
      "ن": 351,
      "ه": 352,
      "و": 353,
      "ي": 354,
      "َ": 355,
      "ْ": 356,
      "ٹ": 357,
      "ٽ": 358,
      "پ": 359,
      "چ": 360,
      "گ": 361,
      "ں": 362,
      "ہ": 363,
      "ی": 364,
      "ے": 365,
      "ߊ": 366,
      "ߋ": 367,
      "ߌ": 368,
      "ߏ": 369,
      "ߙ": 370,
      "ߝ": 371,
      "ߞ": 372,
      "ߦ": 373,
      "߫": 374,
      "আ": 375,
      "উ": 376,
      "ঘ": 377,
      "জ": 378,
      "দ": 379,
      "ন": 380,
      "ফ": 381,
      "ব": 382,
      "ম": 383,
      "র": 384,
      "ল": 385,
      "স": 386,
      "া": 387,
      "ি": 388,
      "ী": 389,
      "ু": 390,
      "্": 391,
      "ච": 392,
      "ද": 393,
      "න": 394,
      "්": 395,
      "ก": 396,
      "ข": 397,
      "ค": 398,
      "ง": 399,
      "จ": 400,
      "ฉ": 401,
      "ช": 402,
      "ซ": 403,
      "ญ": 404,
      "ฎ": 405,
      "ณ": 406,
      "ด": 407,
      "ต": 408,
      "ถ": 409,
      "ท": 410,
      "ธ": 411,
      "น": 412,
      "บ": 413,
      "ป": 414,
      "ผ": 415,
      "พ": 416,
      "ภ": 417,
      "ม": 418,
      "ย": 419,
      "ร": 420,
      "ล": 421,
      "ว": 422,
      "ศ": 423,
      "ษ": 424,
      "ส": 425,
      "ห": 426,
      "อ": 427,
      "ฯ": 428,
      "ะ": 429,
      "ั": 430,
      "า": 431,
      "ำ": 432,
      "ิ": 433,
      "ี": 434,
      "ึ": 435,
      "ื": 436,
      "ุ": 437,
      "ู": 438,
      "เ": 439,
      "แ": 440,
      "โ": 441,
      "ไ": 442,
      "็": 443,
      "่": 444,
      "้": 445,
      "์": 446,
      "๏": 447,
      "င": 448,
      "ပ": 449,
      "မ": 450,
      "ိ": 451,
      "ု": 452,
      "့": 453,
      "း": 454,
      "်": 455,
      "ြ": 456,
      "ა": 457,
      "ខ": 458,
      "ច": 459,
      "ន": 460,
      "ផ": 461,
      "ល": 462,
      "ស": 463,
      "ា": 464,
      "ុ": 465,
      "់": 466,
      "ᠠ": 467,
      "ᠡ": 468,
      "ᠢ": 469,
      "ᠣ": 470,
      "ᠤ": 471,
      "ᠦ": 472,
      "ᠨ": 473,
      "ᠬ": 474,
      "ᠭ": 475,
      "ᠮ": 476,
      "ᠰ": 477,
      "ᠳ": 478,
      "ᠷ": 479,
      "ḏ": 480,
      "Ḥ": 481,
      "ḥ": 482,
      "Ḩ": 483,
      "ḩ": 484,
      "ṭ": 485,
      "ṯ": 486,
      "ẓ": 487,
      "ἄ": 488,
      "ὁ": 489,
      "ὑ": 490,
      " ": 491,
      " ": 492,
      "‌": 493,
      "‎": 494,
      "–": 495,
      "—": 496,
      "‖": 497,
      "‘": 498,
      "’": 499,
      "“": 500,
      "”": 501,
      "†": 502,
      "‡": 503,
      "…": 504,
      " ": 505,
      "′": 506,
      "″": 507,
      "⁄": 508,
      "€": 509,
      "₱": 510,
      "₹": 511,
      "←": 512,
      "→": 513,
      "∂": 514,
      "−": 515,
      "≤": 516,
      "⊂": 517,
      "⋯": 518,
      "ⓘ": 519,
      "★": 520,
      "〜": 521,
      "あ": 522,
      "き": 523,
      "せ": 524,
      "た": 525,
      "つ": 526,
      "と": 527,
      "゚": 528,
      "゜": 529,
      "ァ": 530,
      "ア": 531,
      "イ": 532,
      "ウ": 533,
      "ェ": 534,
      "エ": 535,
      "ォ": 536,
      "カ": 537,
      "キ": 538,
      "ク": 539,
      "コ": 540,
      "サ": 541,
      "シ": 542,
      "ス": 543,
      "セ": 544,
      "ソ": 545,
      "ダ": 546,
      "ツ": 547,
      "デ": 548,
      "ト": 549,
      "ド": 550,
      "ナ": 551,
      "フ": 552,
      "ブ": 553,
      "ム": 554,
      "メ": 555,
      "ュ": 556,
      "ラ": 557,
      "リ": 558,
      "ル": 559,
      "レ": 560,
      "ロ": 561,
      "ン": 562,
      "ヴ": 563,
      "・": 564,
      "ー": 565,
      "一": 566,
      "不": 567,
      "世": 568,
      "中": 569,
      "之": 570,
      "乌": 571,
      "亂": 572,
      "事": 573,
      "亡": 574,
      "代": 575,
      "件": 576,
      "伊": 577,
      "会": 578,
      "住": 579,
      "你": 580,
      "健": 581,
      "傳": 582,
      "兒": 583,
      "兵": 584,
      "前": 585,
      "力": 586,
      "加": 587,
      "北": 588,
      "区": 589,
      "千": 590,
      "南": 591,
      "反": 592,
      "口": 593,
      "右": 594,
      "吉": 595,
      "命": 596,
      "喝": 597,
      "嘉": 598,
      "器": 599,
      "在": 600,
      "地": 601,
      "埼": 602,
      "夏": 603,
      "大": 604,
      "天": 605,
      "好": 606,
      "子": 607,
      "宅": 608,
      "官": 609,
      "小": 610,
      "岡": 611,
      "峰": 612,
      "島": 613,
      "川": 614,
      "左": 615,
      "市": 616,
      "常": 617,
      "式": 618,
      "弘": 619,
      "徒": 620,
      "心": 621,
      "恋": 622,
      "恵": 623,
      "或": 624,
      "报": 625,
      "拉": 626,
      "擲": 627,
      "新": 628,
      "旗": 629,
      "日": 630,
      "旺": 631,
      "昌": 632,
      "最": 633,
      "月": 634,
      "朱": 635,
      "李": 636,
      "材": 637,
      "村": 638,
      "束": 639,
      "林": 640,
      "株": 641,
      "次": 642,
      "武": 643,
      "沟": 644,
      "泉": 645,
      "派": 646,
      "港": 647,
      "溝": 648,
      "濱": 649,
      "火": 650,
      "烈": 651,
      "然": 652,
      "片": 653,
      "特": 654,
      "玉": 655,
      "玲": 656,
      "田": 657,
      "町": 658,
      "畑": 659,
      "社": 660,
      "福": 661,
      "穆": 662,
      "穴": 663,
      "空": 664,
      "站": 665,
      "竹": 666,
      "笑": 667,
      "素": 668,
      "終": 669,
      "美": 670,
      "能": 671,
      "花": 672,
      "茂": 673,
      "茶": 674,
      "藤": 675,
      "西": 676,
      "話": 677,
      "话": 678,
      "谷": 679,
      "賀": 680,
      "賣": 681,
      "逍": 682,
      "通": 683,
      "造": 684,
      "遥": 685,
      "那": 686,
      "邦": 687,
      "都": 688,
      "金": 689,
      "長": 690,
      "開": 691,
      "関": 692,
      "阿": 693,
      "陈": 694,
      "陵": 695,
      "雄": 696,
      "雅": 697,
      "雞": 698,
      "電": 699,
      "靖": 700,
      "館": 701,
      "駅": 702,
      "黃": 703,
      "黑": 704,
      "권": 705,
      "뉴": 706,
      "송": 707,
      "수": 708,
      "트": 709,
      "하": 710,
      "﻿": 711,
      "𐡠": 712,
      "𐡣": 713,
      "𐡩": 714,
      "𐡮": 715,
      "𐡶": 716,
      "__": 717,
      "e__": 718,
      "s__": 719,
      "th": 720,
      "d__": 721,
      "in": 722,
      "an": 723,
      "er": 724,
      "on": 725,
      "the__": 726,
      "t__": 727,
      ",__": 728,
      "or": 729,
      "en": 730,
      "ar": 731,
      "ed__": 732,
      "y__": 733,
      "al": 734,
      "ti": 735,
      "__the__": 736,
      "of": 737,
      "re": 738,
      "a__": 739,
      "and__": 740,
      "o__": 741,
      "ing": 742,
      "st": 743,
      "ou": 744,
      ".__": 745,
      "as__": 746,
      "er__": 747,
      "at": 748,
      "in__": 749,
      "of__": 750,
      "ic": 751,
      "on__": 752,
      "om": 753,
      "ing__": 754,
      "is__": 755,
      "to__": 756,
      "it": 757,
      "el": 758,
      "es": 759,
      "il": 760,
      "al__": 761,
      "ch": 762,
      "es__": 763,
      ".[": 764,
      "he__": 765,
      "am": 766,
      "an__": 767,
      "is": 768,
      "ol": 769,
      "as": 770,
      "for": 771,
      "was__": 772,
      "ur": 773,
      "ac": 774,
      "ati": 775,
      "ec": 776,
      "ro": 777,
      "at__": 778,
      "n__": 779,
      "ir": 780,
      "em": 781,
      "]__": 782,
      "th__": 783,
      "The__": 784,
      "19": 785,
      "ad": 786,
      "si": 787,
      "ri": 788,
      "of__the__": 789,
      "ed": 790,
      "un": 791,
      "20": 792,
      "ow": 793,
      "le": 794,
      "ly__": 795,
      "wh": 796,
      "ent": 797,
      "wi": 798,
      "]\n": 799,
      "en__": 800,
      "us": 801,
      "by__": 802,
      "ag": 803,
      "h__": 804,
      "li": 805,
      "k__": 806,
      "ver": 807,
      "in__the__": 808,
      ".\n": 809,
      "to": 810,
      "l__": 811,
      "ent__": 812,
      "et": 813,
      "his__": 814,
      "ab": 815,
      "di": 816,
      "op": 817,
      "hi": 818,
      "ap": 819,
      "oun": 820,
      "con": 821,
      "os": 822,
      "ve__": 823,
      "'s__": 824,
      "le__": 825,
      ",__and__": 826,
      "fr": 827,
      "ex": 828,
      "for__": 829,
      "ha": 830,
      "com": 831,
      "ul": 832,
      "or__": 833,
      "oc": 834,
      "and": 835,
      "de": 836,
      "pl": 837,
      "ear": 838,
      "with__": 839,
      "ation__": 840,
      "ation": 841,
      "gh": 842,
      "ter": 843,
      "pro": 844,
      "that__": 845,
      "su": 846,
      "m__": 847,
      "ere__": 848,
      "tr": 849,
      "s,__": 850,
      "se": 851,
      "from": 852,
      ".[1": 853,
      "tic": 854,
      "ay": 855,
      "p__": 856,
      "be": 857,
      "_\n": 858,
      "ted__": 859,
      ")__": 860,
      "bu": 861,
      "e,__": 862,
      "ch__": 863,
      "ain": 864,
      "sp": 865,
      "ew": 866,
      "ub": 867,
      "cl": 868,
      "ated__": 869,
      "our": 870,
      "to__the__": 871,
      ".__The__": 872,
      "ce__": 873,
      "str": 874,
      "uc": 875,
      "st__": 876,
      "tion__": 877,
      "id": 878,
      "ov": 879,
      "__and__": 880,
      "im": 881,
      ",__the__": 882,
      "oo": 883,
      "qu": 884,
      "tion": 885,
      "ev": 886,
      "it__": 887,
      "the": 888,
      "par": 889,
      "][": 890,
      "ers__": 891,
      "ate__": 892,
      "res": 893,
      "all": 894,
      "gr": 895,
      "from__": 896,
      "per": 897,
      "te": 898,
      "In__": 899,
      "ig": 900,
      "ud": 901,
      "ic__": 902,
      "emb": 903,
      "ary__": 904,
      "ity__": 905,
      "ay__": 906,
      "ak": 907,
      "ter__": 908,
      "um": 909,
      "Ch": 910,
      "av": 911,
      "are__": 912,
      "rec": 913,
      "end": 914,
      "ts__": 915,
      "201": 916,
      "fir": 917,
      "ong": 918,
      "St": 919,
      "In": 920,
      "ther__": 921,
      "af": 922,
      "were__": 923,
      "pr": 924,
      "ed__by__": 925,
      "ep": 926,
      "sh": 927,
      "_The__": 928,
      "e__of__": 929,
      "ed__the__": 930,
      "ed__to__": 931,
      "is__a__": 932,
      "whic": 933,
      "no": 934,
      "200": 935,
      "ia__": 936,
      "ame__": 937,
      "out__": 938,
      "ing__the__": 939,
      "ar__": 940,
      "which__": 941,
      ".[2": 942,
      "18": 943,
      "ir__": 944,
      "He__": 945,
      "ed__in__": 946,
      "als": 947,
      "y,__": 948,
      "wor": 949,
      "ang": 950,
      "comp": 951,
      "ser": 952,
      "0__": 953,
      "gi": 954,
      "est": 955,
      "por": 956,
      "ut": 957,
      "s__and__": 958,
      "man": 959,
      "ew__": 960,
      "Un": 961,
      "its__": 962,
      "all__": 963,
      "br": 964,
      "ld__": 965,
      "ip": 966,
      "s__of__": 967,
      "ally__": 968,
      "be__": 969,
      "Th": 970,
      "first__": 971,
      "tim": 972,
      "der": 973,
      "hel": 974,
      "on__the__": 975,
      "au": 976,
      "ish": 977,
      "over": 978,
      "est__": 979,
      "aw": 980,
      "also__": 981,
      "i__": 982,
      "po": 983,
      "with": 984,
      "s.__": 985,
      "el__": 986,
      ".[3": 987,
      "fi": 988,
      "a,__": 989,
      "__c": 990,
      "fic": 991,
      "es,__": 992,
      "we": 993,
      "Mar": 994,
      "ard": 995,
      "at__the__": 996,
      "ember__": 997,
      "had__": 998,
      "own__": 999,
      "tur": 1000,
      "eg": 1001,
      "It__": 1002,
      "form": 1003,
      "for__the__": 1004,
      "has__": 1005,
      "year": 1006,
      "ali": 1007,
      "ot": 1008,
      "one__": 1009,
      "stor": 1010,
      "og": 1011,
      "oll": 1012,
      "ob": 1013,
      "\"__": 1014,
      "This__": 1015,
      "ment__": 1016,
      "ill": 1017,
      "mer": 1018,
      "sc": 1019,
      "iv": 1020,
      "f__": 1021,
      "tw": 1022,
      "ther": 1023,
      "od": 1024,
      "ies__": 1025,
      "but__": 1026,
      "their__": 1027,
      "ass": 1028,
      "ell": 1029,
      "exp": 1030,
      ":__": 1031,
      "ik": 1032,
      "who__": 1033,
      "Ar": 1034,
      "loc": 1035,
      "duc": 1036,
      "shi": 1037,
      "fin": 1038,
      "anc": 1039,
      "199": 1040,
      "2__": 1041,
      "ubl": 1042,
      "1__": 1043,
      "dis": 1044,
      "clud": 1045,
      "ug": 1046,
      "not__": 1047,
      "ad__": 1048,
      "ast": 1049,
      "ard__": 1050,
      "am__": 1051,
      "her__": 1052,
      "enc": 1053,
      "bec": 1054,
      "tit": 1055,
      "ould__": 1056,
      "ght__": 1057,
      "us__": 1058,
      "e__and__": 1059,
      "ord": 1060,
      "att": 1061,
      "ical__": 1062,
      "mar": 1063,
      ".__A": 1064,
      "et__": 1065,
      "pre": 1066,
      "ess": 1067,
      "ational__": 1068,
      "ain__": 1069,
      "comm": 1070,
      "ow__": 1071,
      "ph": 1072,
      "play": 1073,
      "includ": 1074,
      "fer": 1075,
      "min": 1076,
      ".[4": 1077,
      ";__": 1078,
      "ue__": 1079,
      "ial__": 1080,
      "]__The__": 1081,
      "5__": 1082,
      "as__a__": 1083,
      "ber": 1084,
      "have__": 1085,
      "t__of__": 1086,
      "he": 1087,
      "vi": 1088,
      "s__in__": 1089,
      "with__the__": 1090,
      "ach": 1091,
      "serv": 1092,
      "fe": 1093,
      "),__": 1094,
      "An": 1095,
      "nam": 1096,
      "sec": 1097,
      "il__": 1098,
      "ound": 1099,
      "des": 1100,
      "ne": 1101,
      "other__": 1102,
      "dr": 1103,
      "ant__": 1104,
      "ited__": 1105,
      "ack": 1106,
      "cont": 1107,
      "been__": 1108,
      "bo": 1109,
      "up": 1110,
      "_In__": 1111,
      "ath": 1112,
      "gh__": 1113,
      "ann": 1114,
      "fl": 1115,
      "e__the__": 1116,
      "ian__": 1117,
      ".__He__": 1118,
      "ans": 1119,
      "ound__": 1120,
      "iver": 1121,
      "amp": 1122,
      "4__": 1123,
      "ence__": 1124,
      "this__": 1125,
      "Com": 1126,
      "Fr": 1127,
      "sid": 1128,
      "fil": 1129,
      "ore__": 1130,
      "ous__": 1131,
      "Al": 1132,
      "ast__": 1133,
      "ome__": 1134,
      "ost__": 1135,
      "3__": 1136,
      "ous": 1137,
      "meric": 1138,
      "Americ": 1139,
      "spec": 1140,
      "pres": 1141,
      "ting__": 1142,
      "age__": 1143,
      "cre": 1144,
      "00": 1145,
      "from__the__": 1146,
      "two__": 1147,
      "6__": 1148,
      "kn": 1149,
      "edia__": 1150,
      "lat": 1151,
      "_This__": 1152,
      "anding__": 1153,
      "You": 1154,
      ",[": 1155,
      "about__": 1156,
      "in__19": 1157,
      "ge__": 1158,
      "artic": 1159,
      "202": 1160,
      "ist": 1161,
      "rou": 1162,
      "inter": 1163,
      "ine__": 1164,
      "amil": 1165,
      "Nor": 1166,
      "iti": 1167,
      ".__It__": 1168,
      "ates__": 1169,
      "pe": 1170,
      "er,__": 1171,
      "on,__": 1172,
      "mil": 1173,
      "ack__": 1174,
      "mon": 1175,
      "ra": 1176,
      "s__to__": 1177,
      "bor": 1178,
      "our__": 1179,
      "Wik": 1180,
      "are": 1181,
      "pol": 1182,
      "iz": 1183,
      "_A": 1184,
      "ure": 1185,
      "co": 1186,
      "gen": 1187,
      "ed__a__": 1188,
      "help__": 1189,
      "ant": 1190,
      "air": 1191,
      "rel": 1192,
      "prov": 1193,
      "they__": 1194,
      ".[5": 1195,
      "ey__": 1196,
      "he__was__": 1197,
      "ment": 1198,
      "publ": 1199,
      "tor": 1200,
      "ong__": 1201,
      "7__": 1202,
      "ivers": 1203,
      "ish__": 1204,
      "article__": 1205,
      "and__the__": 1206,
      "ai": 1207,
      "ree__": 1208,
      "elec": 1209,
      "rit": 1210,
      "cho": 1211,
      "8__": 1212,
      "ty__": 1213,
      "mi": 1214,
      "ell__": 1215,
      "able__": 1216,
      "ber__": 1217,
      ".__S": 1218,
      "dur": 1219,
      "ist__": 1220,
      "isi": 1221,
      "enti": 1222,
      "__can__": 1223,
      "up__": 1224,
      "would__": 1225,
      "ade__": 1226,
      "ace__": 1227,
      "as__the__": 1228,
      "buil": 1229,
      "bas": 1230,
      "seas": 1231,
      "x__": 1232,
      "ust__": 1233,
      "land": 1234,
      "vel": 1235,
      "ind": 1236,
      "Wikip": 1237,
      "ari": 1238,
      "g__": 1239,
      "Wikipedia__": 1240,
      ".__You": 1241,
      "expanding__": 1242,
      "coun": 1243,
      "own": 1244,
      "Par": 1245,
      "sy": 1246,
      "int": 1247,
      "is__a__st": 1248,
      "gn": 1249,
      "work": 1250,
      "ile__": 1251,
      "by__expanding__": 1252,
      "ub.__You": 1253,
      "help__Wikipedia__": 1254,
      "__can__help__Wikipedia__": 1255,
      "is__a__stub.__You": 1256,
      "by__expanding__it": 1257,
      "__can__help__Wikipedia__by__expanding__it": 1258,
      "is__a__stub.__You__can__help__Wikipedia__by__expanding__it": 1259,
      "sion__": 1260,
      ".[6": 1261,
      "dec": 1262,
      "En": 1263,
      "cri": 1264,
      "man__": 1265,
      "rem": 1266,
      "son__": 1267,
      "cent": 1268,
      "e-": 1269,
      "sion": 1270,
      "United__": 1271,
      "'__": 1272,
      "new__": 1273,
      "ese__": 1274,
      "I__": 1275,
      "om__": 1276,
      "after__": 1277,
      "e.__": 1278,
      "offic": 1279,
      "oci": 1280,
      "only__": 1281,
      "ed__on__": 1282,
      "t,__": 1283,
      "Le": 1284,
      "me": 1285,
      "American__": 1286,
      "198": 1287,
      "bl": 1288,
      "mo": 1289,
      "she__": 1290,
      "more__": 1291,
      "uary__": 1292,
      "adi": 1293,
      "A__": 1294,
      "oy": 1295,
      "where__": 1296,
      ".[1]\n": 1297,
      "ef": 1298,
      "ever": 1299,
      "ice__": 1300,
      "app": 1301,
      "Cl": 1302,
      "bet": 1303,
      "On__": 1304,
      "y__of__": 1305,
      "ations__": 1306,
      "atur": 1307,
      "194": 1308,
      "Univers": 1309,
      "ship__": 1310,
      "New__": 1311,
      "inc": 1312,
      "ing__to__": 1313,
      "Con": 1314,
      ",\n": 1315,
      "gu": 1316,
      "Bl": 1317,
      "der__": 1318,
      "ance__": 1319,
      "um__": 1320,
      "was__a__": 1321,
      "chool": 1322,
      "10": 1323,
      "ly": 1324,
      "ess__": 1325,
      "ed,__": 1326,
      "ollow": 1327,
      "15": 1328,
      "sign": 1329,
      "ond__": 1330,
      "em__": 1331,
      "Wh": 1332,
      "row": 1333,
      "cc": 1334,
      "char": 1335,
      "ative__": 1336,
      "Col": 1337,
      "Ger": 1338,
      "ity": 1339,
      "tive__": 1340,
      "produc": 1341,
      "sub": 1342,
      "time__": 1343,
      "sur": 1344,
      "by__the__": 1345,
      "17": 1346,
      "197": 1347,
      "struc": 1348,
      "_S": 1349,
      ".__In__": 1350,
      "ach__": 1351,
      "leas": 1352,
      "ail": 1353,
      "any__": 1354,
      "ust": 1355,
      "C__": 1356,
      "ents__": 1357,
      "ign": 1358,
      "ite__": 1359,
      "ose__": 1360,
      "org": 1361,
      "es__and__": 1362,
      "riv": 1363,
      "under": 1364,
      "4,__": 1365,
      "az": 1366,
      "famil": 1367,
      "igh": 1368,
      "gl": 1369,
      "ion": 1370,
      "throu": 1371,
      "ely__": 1372,
      "with__a__": 1373,
      "beg": 1374,
      "Can": 1375,
      "inv": 1376,
      ".__H": 1377,
      "became__": 1378,
      "olog": 1379,
      "9__": 1380,
      "reg": 1381,
      "into__": 1382,
      "ss": 1383,
      "betwe": 1384,
      "writ": 1385,
      "stit": 1386,
      "ity__of__": 1387,
      "born__": 1388,
      "old__": 1389,
      "Br": 1390,
      "ince__": 1391,
      ",__a__": 1392,
      "boo": 1393,
      "ing__a__": 1394,
      "es__of__": 1395,
      "arr": 1396,
      "known__": 1397,
      "fac": 1398,
      "oh": 1399,
      "ill__": 1400,
      "ah": 1401,
      "mis": 1402,
      ".[7": 1403,
      "196": 1404,
      "bi": 1405,
      "cap": 1406,
      "pos": 1407,
      "regi": 1408,
      ".____": 1409,
      "tions__": 1410,
      "overn": 1411,
      "16": 1412,
      "eng": 1413,
      "ed__in__the__": 1414,
      "him__": 1415,
      "Coun": 1416,
      "releas": 1417,
      "in__a__": 1418,
      "aj": 1419,
      "cur": 1420,
      "most__": 1421,
      "lin": 1422,
      "mus": 1423,
      "son": 1424,
      "ual__": 1425,
      "over__": 1426,
      "Re": 1427,
      "follow": 1428,
      "is__the__": 1429,
      "jec": 1430,
      ",__which__": 1431,
      "ens": 1432,
      "leg": 1433,
      "histor": 1434,
      ".[2]\n": 1435,
      "For": 1436,
      "itic": 1437,
      "Sep": 1438,
      "was__the__": 1439,
      "when__": 1440,
      "S__": 1441,
      "ton__": 1442,
      "Li": 1443,
      "Sh": 1444,
      "such__": 1445,
      "United__St": 1446,
      "col": 1447,
      "national__": 1448,
      "oper": 1449,
      "2]__": 1450,
      "Aug": 1451,
      "ty": 1452,
      "tiv": 1453,
      "ement__": 1454,
      "1]__": 1455,
      "195": 1456,
      "stric": 1457,
      "s__(": 1458,
      "ank": 1459,
      "ustr": 1460,
      "orig": 1461,
      "ood": 1462,
      "ood__": 1463,
      ".__Th": 1464,
      "Di": 1465,
      "num": 1466,
      "eral__": 1467,
      "ond": 1468,
      "nor": 1469,
      "sing": 1470,
      "s__the__": 1471,
      "then__": 1472,
      "Wor": 1473,
      "ating__": 1474,
      "cr": 1475,
      "lar": 1476,
      "inn": 1477,
      "Ju": 1478,
      "aus": 1479,
      "jo": 1480,
      "turn": 1481,
      "1,__": 1482,
      "end__": 1483,
      "ek": 1484,
      "ten__": 1485,
      "outh__": 1486,
      "Sept": 1487,
      "\"[": 1488,
      "three__": 1489,
      "mov": 1490,
      "2,__": 1491,
      "de__": 1492,
      "lo": 1493,
      "pop": 1494,
      "te__": 1495,
      "Sp": 1496,
      "en__the__": 1497,
      "Jan": 1498,
      "sist": 1499,
      "politic": 1500,
      "Oc": 1501,
      "ash": 1502,
      "origin": 1503,
      "ation__of__": 1504,
      "can__": 1505,
      "ia": 1506,
      "med": 1507,
      "direc": 1508,
      "Per": 1509,
      "s__were__": 1510,
      "tic__": 1511,
      "tion__of__": 1512,
      "National__": 1513,
      "ed__as__": 1514,
      "unti": 1515,
      "3]__": 1516,
      "made__": 1517,
      "sever": 1518,
      ".[1]__": 1519,
      "tak": 1520,
      "again": 1521,
      "sup": 1522,
      "Canad": 1523,
      "Jun": 1524,
      "ing,__": 1525,
      "grou": 1526,
      "go": 1527,
      "trans": 1528,
      "/__": 1529,
      "ey": 1530,
      "s__of__the__": 1531,
      "es__in__": 1532,
      "ed__by__the__": 1533,
      "bro": 1534,
      "thou": 1535,
      "y__and__": 1536,
      "peri": 1537,
      "prom": 1538,
      "work__": 1539,
      "film__": 1540,
      "Bri": 1541,
      "early__": 1542,
      "befor": 1543,
      "ke__": 1544,
      "way__": 1545,
      "build": 1546,
      "sk": 1547,
      "tri": 1548,
      "____": 1549,
      "a__and__": 1550,
      "plac": 1551,
      "mp": 1552,
      "star": 1553,
      ",__and__the__": 1554,
      "second__": 1555,
      "Nov": 1556,
      "chang": 1557,
      "De": 1558,
      "_H": 1559,
      "t__the__": 1560,
      "ick": 1561,
      "grap": 1562,
      "ision__": 1563,
      "popul": 1564,
      "Gre": 1565,
      "fec": 1566,
      "__(": 1567,
      "ers": 1568,
      "4]__": 1569,
      "ern__": 1570,
      "acc": 1571,
      "tis": 1572,
      "later__": 1573,
      "cas": 1574,
      ".\"[": 1575,
      "ext": 1576,
      ".[3]\n": 1577,
      "several__": 1578,
      "against__": 1579,
      "cor": 1580,
      "some__": 1581,
      "present": 1582,
      "Dec": 1583,
      "Tr": 1584,
      "ed__for__": 1585,
      "ed__to__the__": 1586,
      "Indi": 1587,
      "3,__": 1588,
      "Apr": 1589,
      "bur": 1590,
      "mat": 1591,
      "_ ": 1592,
      "part": 1593,
      "season__": 1594,
      "organ": 1595,
      "name__": 1596,
      "ost": 1597,
      "old": 1598,
      "that__the__": 1599,
      "land__": 1600,
      "–__": 1601,
      "In__the__": 1602,
      "ship": 1603,
      "appear": 1604,
      "Octo": 1605,
      ",00": 1606,
      "him": 1607,
      "5]__": 1608,
      "re__": 1609,
      "Gr": 1610,
      "day": 1611,
      "gre": 1612,
      "w__": 1613,
      "8]__": 1614,
      "On": 1615,
      "sel": 1616,
      "between__": 1617,
      "Pro": 1618,
      "found": 1619,
      "well__": 1620,
      "requ": 1621,
      "comple": 1622,
      "publish": 1623,
      "ebr": 1624,
      "dep": 1625,
      "oot": 1626,
      "enn": 1627,
      "peop": 1628,
      "is__a__stub.__You__can__help__Wikipedia__by__expanding__it.\n": 1629,
      "January__": 1630,
      "tor__": 1631,
      "3]\n": 1632,
      "succ": 1633,
      "August__": 1634,
      "{\\": 1635,
      "illi": 1636,
      "als__": 1637,
      "to__be__": 1638,
      "velop": 1639,
      "Ph": 1640,
      "bel": 1641,
      "govern": 1642,
      "Or": 1643,
      "ge": 1644,
      "tain": 1645,
      "than__": 1646,
      "off": 1647,
      "5,__": 1648,
      "Joh": 1649,
      "ful": 1650,
      "mak": 1651,
      "er__of__": 1652,
      "abl": 1653,
      "develop": 1654,
      "until__": 1655,
      "div": 1656,
      "being__": 1657,
      "11": 1658,
      "2]\n": 1659,
      "fter__": 1660,
      "no__": 1661,
      "pri": 1662,
      "ans__": 1663,
      "ock": 1664,
      "team__": 1665,
      "held__": 1666,
      "March__": 1667,
      "May__": 1668,
      "e__of__the__": 1669,
      "while__": 1670,
      "including__": 1671,
      "da": 1672,
      "fa": 1673,
      "tre": 1674,
      "u__": 1675,
      "contin": 1676,
      "July__": 1677,
      "call": 1678,
      "my__": 1679,
      "s.\n": 1680,
      "wat": 1681,
      ".__M": 1682,
      "rece": 1683,
      "Car": 1684,
      "ball__": 1685,
      "do": 1686,
      "vis": 1687,
      "ed__with__": 1688,
      "many__": 1689,
      "gam": 1690,
      "port__": 1691,
      "World__": 1692,
      "September__": 1693,
      "s.__The__": 1694,
      "e__in__": 1695,
      "al,__": 1696,
      "id__": 1697,
      "ric": 1698,
      "school": 1699,
      "ague__": 1700,
      "ted__to__": 1701,
      "November__": 1702,
      "graph": 1703,
      "April__": 1704,
      "design": 1705,
      "North__": 1706,
      "ie": 1707,
      "there__": 1708,
      "ed__and__": 1709,
      "team": 1710,
      "began__": 1711,
      "October__": 1712,
      "N__": 1713,
      "Sc": 1714,
      "dif": 1715,
      "port": 1716,
      "stitu": 1717,
      "30": 1718,
      "8,__": 1719,
      "cover": 1720,
      "ru": 1721,
      "join": 1722,
      "ate": 1723,
      "aw__": 1724,
      "both__": 1725,
      "6,__": 1726,
      "Pr": 1727,
      "return": 1728,
      "Comm": 1729,
      "provid": 1730,
      "Dur": 1731,
      "ok": 1732,
      "ort": 1733,
      "es__to__": 1734,
      "Mon": 1735,
      ".[9": 1736,
      "owever": 1737,
      "series__": 1738,
      "Qu": 1739,
      "ave__": 1740,
      "cer": 1741,
      "udi": 1742,
      "t__of__the__": 1743,
      "during__the__": 1744,
      "ble__": 1745,
      "s,__and__": 1746,
      "er__and__": 1747,
      "charac": 1748,
      "vari": 1749,
      "high": 1750,
      "haw": 1751,
      "marri": 1752,
      "June__": 1753,
      "o,__": 1754,
      "ven": 1755,
      "out": 1756,
      "Ass": 1757,
      "an,__": 1758,
      "til": 1759,
      "ator": 1760,
      "Ac": 1761,
      "Mus": 1762,
      "thor": 1763,
      "lead": 1764,
      "Ad": 1765,
      "Cent": 1766,
      "_On__": 1767,
      "same__": 1768,
      "atic": 1769,
      "ros": 1770,
      "ter__the__": 1771,
      "remain": 1772,
      "found__": 1773,
      "under__": 1774,
      "le,__": 1775,
      "ently__": 1776,
      "ign__": 1777,
      "_This__article__": 1778,
      "tish__": 1779,
      "Is": 1780,
      "_B": 1781,
      "cour": 1782,
      "coll": 1783,
      ".__B": 1784,
      "El": 1785,
      "if": 1786,
      "since__": 1787,
      "ually__": 1788,
      "ult": 1789,
      "poin": 1790,
      "located__": 1791,
      "related__": 1792,
      "6]__": 1793,
      "Man": 1794,
      "Yor": 1795,
      "ris": 1796,
      "stud": 1797,
      "is__an__": 1798,
      "lim": 1799,
      "prof": 1800,
      "United__States__": 1801,
      "Ser": 1802,
      "ry__": 1803,
      "ving__": 1804,
      "ear__": 1805,
      "receiv": 1806,
      "e.\n": 1807,
      "pur": 1808,
      "vic": 1809,
      "fiel": 1810,
      "commun": 1811,
      "fu": 1812,
      "les__": 1813,
      "men": 1814,
      "sm": 1815,
      "ve": 1816,
      "a__m": 1817,
      "family__": 1818,
      "book__": 1819,
      "December__": 1820,
      "Austr": 1821,
      "Ge": 1822,
      "due__": 1823,
      "ies": 1824,
      "chil": 1825,
      "ement": 1826,
      "it__was__": 1827,
      "year__": 1828,
      "before__": 1829,
      "Oda": 1830,
      "fun": 1831,
      "will__": 1832,
      "enath": 1833,
      "ital__": 1834,
      "contr": 1835,
      "ght": 1836,
      "mark": 1837,
      "through__": 1838,
      "14": 1839,
      "1]\n": 1840,
      "Cor": 1841,
      "sol": 1842,
      "way": 1843,
      "ever__": 1844,
      "is__a__stub.__You__can__help__Wikipedia__by__expanding__it.": 1845,
      "Odaenath": 1846,
      ",__but__": 1847,
      "lef": 1848,
      "tional__": 1849,
      "has__been__": 1850,
      "during__": 1851,
      "Black": 1852,
      "&__": 1853,
      "rac": 1854,
      "uk": 1855,
      "s__are__": 1856,
      "ed__his__": 1857,
      "Engl": 1858,
      "%__": 1859,
      " k": 1860,
      "ine": 1861,
      "partic": 1862,
      "number__": 1863,
      "7]__": 1864,
      "Rom": 1865,
      "hous": 1866,
      "ion__": 1867,
      "12": 1868,
      "Rep": 1869,
      "tl": 1870,
      "arn": 1871,
      "ed__that__": 1872,
      "ley__": 1873,
      "open": 1874,
      "aid__": 1875,
      "Ed": 1876,
      "memb": 1877,
      "albu": 1878,
      "ing__and__": 1879,
      "local__": 1880,
      "such__as__": 1881,
      ",000__": 1882,
      "50": 1883,
      ":\n": 1884,
      "We": 1885,
      "_M": 1886,
      "fri": 1887,
      "ys": 1888,
      "establ": 1889,
      "Sha": 1890,
      "day__": 1891,
      "}}": 1892,
      "es__the__": 1893,
      "ribu": 1894,
      "brary__": 1895,
      "posi": 1896,
      "have__been__": 1897,
      "ight__": 1898,
      "arm": 1899,
      "opp": 1900,
      ")__is__a__": 1901,
      ".[2]__": 1902,
      "thern__": 1903,
      "syst": 1904,
      "ajor__": 1905,
      "each__": 1906,
      "ward__": 1907,
      "ste": 1908,
      "emp": 1909,
      "193": 1910,
      ".[3]__": 1911,
      "former__": 1912,
      "8]\n": 1913,
      "may__": 1914,
      "y's__": 1915,
      "art__": 1916,
      "ation,__": 1917,
      "9,__": 1918,
      "bus": 1919,
      "ren": 1920,
      "sou": 1921,
      "them__": 1922,
      "ed__at__": 1923,
      "ich": 1924,
      "Inter": 1925,
      "view": 1926,
      "Eur": 1927,
      "sch": 1928,
      "list": 1929,
      "sum": 1930,
      "record": 1931,
      "need": 1932,
      ")\n": 1933,
      "her": 1934,
      "issu": 1935,
      "ounc": 1936,
      "for__a__": 1937,
      "British__": 1938,
      "It": 1939,
      "Sy": 1940,
      "back__": 1941,
      "in__18": 1942,
      "elev": 1943,
      "Pol": 1944,
      "la": 1945,
      "into__the__": 1946,
      "][4": 1947,
      "group__": 1948,
      "though__": 1949,
      "ampion": 1950,
      "milli": 1951,
      "centur": 1952,
      "continu": 1953,
      "du": 1954,
      "pow": 1955,
      "e__was__": 1956,
      "in__200": 1957,
      "roy": 1958,
      "20__": 1959,
      ")__and__": 1960,
      "0.": 1961,
      "foot": 1962,
      "tain__": 1963,
      "ward": 1964,
      "ing__of__": 1965,
      "ird__": 1966,
      "sive__": 1967,
      "event": 1968,
      "ian": 1969,
      "these__": 1970,
      "resp": 1971,
      "distric": 1972,
      ".[10": 1973,
      "Blackhaw": 1974,
      "Pre": 1975,
      "aim": 1976,
      "cit": 1977,
      "met": 1978,
      "z__": 1979,
      "ind__": 1980,
      "ina__": 1981,
      "read": 1982,
      "ploy": 1983,
      ".[4]\n": 1984,
      "establish": 1985,
      "Jap": 1986,
      "South__": 1987,
      "nov": 1988,
      "ed__as__a__": 1989,
      "grad": 1990,
      "Febr": 1991,
      "ek__": 1992,
      "os__": 1993,
      "wom": 1994,
      "as__well__": 1995,
      "political__": 1996,
      "nec": 1997,
      "new": 1998,
      "vol": 1999,
      "vill": 2000,
      "ale__": 2001,
      "13": 2002,
      "Co": 2003,
      "Ex": 2004,
      "four__": 2005,
      "game__": 2006,
      "lit": 2007,
      "ok__": 2008,
      "red__": 2009,
      "ven__": 2010,
      "years__": 2011,
      "John__": 2012,
      "owever,__": 2013,
      "Pl": 2014,
      "od__": 2015,
      "dist": 2016,
      "op__": 2017,
      "region": 2018,
      "7,__": 2019,
      "_L": 2020,
      "ld": 2021,
      " m": 2022,
      "__/__": 2023,
      "in__201": 2024,
      "ask": 2025,
      "agu": 2026,
      "progr": 2027,
      "author": 2028,
      "named__": 2029,
      "ot__": 2030,
      "se__": 2031,
      "﻿__/__": 2032,
      "them": 2033,
      "alian__": 2034,
      "New__Yor": 2035,
      "Europ": 2036,
      "bri": 2037,
      "e,__and__": 2038,
      "now__": 2039,
      "ves__": 2040,
      "ings__": 2041,
      "ure__": 2042,
      "ire__": 2043,
      "construc": 2044,
      "ext__": 2045,
      "club": 2046,
      "five__": 2047,
      "through": 2048,
      "Rus": 2049,
      "bre": 2050,
      "car": 2051,
      "late__": 2052,
      "yn": 2053,
      "building__": 2054,
      "Gen": 2055,
      "Mc": 2056,
      "School": 2057,
      "dem": 2058,
      "ograph": 2059,
      "pp": 2060,
      "to__a__": 2061,
      ".[1][": 2062,
      "one__of__the__": 2063,
      "gener": 2064,
      "public__": 2065,
      "people__": 2066,
      "February__": 2067,
      ",__who__": 2068,
      "ular__": 2069,
      ".[4]__": 2070,
      "University__": 2071,
      "under__the__": 2072,
      "Gu": 2073,
      "long": 2074,
      "of__a__": 2075,
      "dest": 2076,
      "Char": 2077,
      "augh": 2078,
      "head": 2079,
      "announc": 2080,
      ".[5]\n": 2081,
      "University__of__": 2082,
      "single__": 2083,
      "\",__": 2084,
      "He": 2085,
      "US": 2086,
      "could__": 2087,
      "ific": 2088,
      "set": 2089,
      "around__": 2090,
      "projec": 2091,
      "m__(": 2092,
      "ourn": 2093,
      "species__": 2094,
      "ck": 2095,
      "dre": 2096,
      "e's__": 2097,
      "istr": 2098,
      "mu": 2099,
      "ran": 2100,
      "so__": 2101,
      "s__a__": 2102,
      "ties__": 2103,
      "stat": 2104,
      "manag": 2105,
      "descri": 2106,
      "differ": 2107,
      "hon": 2108,
      "sty": 2109,
      "on__a__": 2110,
      "lif": 2111,
      "eter": 2112,
      "servic": 2113,
      "curr": 2114,
      "ath__": 2115,
      "my": 2116,
      "run": 2117,
      "arch": 2118,
      "ature": 2119,
      "test": 2120,
      "sci": 2121,
      "organiz": 2122,
      "ful__": 2123,
      "1.": 2124,
      "hom": 2125,
      "s__in__the__": 2126,
      "anch": 2127,
      "on-": 2128,
      ".__It__was__": 2129,
      "Sw": 2130,
      "rol": 2131,
      "town__": 2132,
      "youn": 2133,
      "state__": 2134,
      ".__This__": 2135,
      "in__199": 2136,
      "act__": 2137,
      "took__": 2138,
      "State__": 2139,
      "not": 2140,
      "following__": 2141,
      "divid": 2142,
      "L__": 2143,
      "s__for__": 2144,
      "thre": 2145,
      "chn": 2146,
      "e,__the__": 2147,
      "countr": 2148,
      "_This__article__about__": 2149,
      "Pal": 2150,
      "ax": 2151,
      "band__": 2152,
      "ment__of__": 2153,
      "area__": 2154,
      "Te": 2155,
      "sen": 2156,
      "192": 2157,
      "2019": 2158,
      "fric": 2159,
      "comb": 2160,
      "side__": 2161,
      "5]\n": 2162,
      "Ber": 2163,
      "ral__": 2164,
      "s'__": 2165,
      "s,__the__": 2166,
      "post": 2167,
      "featur": 2168,
      "character": 2169,
      "6]\n": 2170,
      "Afric": 2171,
      "Reg": 2172,
      "iev": 2173,
      "member__": 2174,
      "tour": 2175,
      "omin": 2176,
      "itary__": 2177,
      "add": 2178,
      "appro": 2179,
      "or__of__": 2180,
      "person": 2181,
      "intro": 2182,
      "ean__": 2183,
      "refer": 2184,
      "ass__": 2185,
      "ur__": 2186,
      "unic": 2187,
      "estern__": 2188,
      "music__": 2189,
      "busin": 2190,
      "ce": 2191,
      "so": 2192,
      "en,__": 2193,
      "represent": 2194,
      "esp": 2195,
      "ted__by__": 2196,
      "Chin": 2197,
      "after__the__": 2198,
      "..": 2199,
      "T__": 2200,
      "_F": 2201,
      "batt": 2202,
      "can": 2203,
      "main": 2204,
      "ut__": 2205,
      "vo": 2206,
      "reli": 2207,
      "es.\n": 2208,
      "season": 2209,
      "Dr": 2210,
      "ie__": 2211,
      "led__": 2212,
      ",__M": 2213,
      "er__of__the__": 2214,
      "sian__": 2215,
      "ung": 2216,
      "place__": 2217,
      "compan": 2218,
      ".[6]\n": 2219,
      "War__": 2220,
      "_He__": 2221,
      "tar": 2222,
      "alth__": 2223,
      ".__F": 2224,
      "like__": 2225,
      "plan": 2226,
      "ted__the__": 2227,
      "tion__of__the__": 2228,
      "tion,__": 2229,
      "it__is__": 2230,
      "becaus": 2231,
      "Franc": 2232,
      "film": 2233,
      "month": 2234,
      "built__": 2235,
      "typ": 2236,
      "original__": 2237,
      "introduc": 2238,
      "Jam": 2239,
      "_K": 2240,
      "band": 2241,
      "ff": 2242,
      "home__": 2243,
      "tem": 2244,
      "studi": 2245,
      "rop": 2246,
      "edi": 2247,
      "quar": 2248,
      "depend": 2249,
      "Bo": 2250,
      "did__": 2251,
      "le__of__": 2252,
      "company__": 2253,
      "Republ": 2254,
      "Be": 2255,
      "initi": 2256,
      "station__": 2257,
      "ick__": 2258,
      "ega__": 2259,
      ".__He__was__": 2260,
      "League__": 2261,
      "West__": 2262,
      "_D": 2263,
      "mag": 2264,
      "sit": 2265,
      "th-": 2266,
      "ily__": 2267,
      "forc": 2268,
      "adem": 2269,
      "sident__": 2270,
      ".[5]__": 2271,
      ".__She__": 2272,
      "school__": 2273,
      "2.": 2274,
      "9]__": 2275,
      "Fl": 2276,
      "Tw": 2277,
      "equ": 2278,
      "Fren": 2279,
      "New__York__": 2280,
      "Nav": 2281,
      "TV": 2282,
      "Wi": 2283,
      "dam": 2284,
      "daugh": 2285,
      "anti": 2286,
      "ed__from__": 2287,
      "sider": 2288,
      "ultur": 2289,
      "defe": 2290,
      "creas": 2291,
      "elected__": 2292,
      "needed": 2293,
      "7]\n": 2294,
      "Har": 2295,
      "ak__": 2296,
      "en's__": 2297,
      ".__L": 2298,
      "was__re": 2299,
      "acqu": 2300,
      "part__of__the__": 2301,
      "invol": 2302,
      "collec": 2303,
      "_C": 2304,
      "_ω": 2305,
      "camp": 2306,
      "ier": 2307,
      "line__": 2308,
      "oth": 2309,
      "pass": 2310,
      "ately__": 2311,
      "omega__": 2312,
      "ing__in__": 2313,
      "ol__": 2314,
      "enter": 2315,
      "consider": 2316,
      "Associ": 2317,
      "Japan": 2318,
      "_ω\n": 2319,
      "26": 2320,
      "Cup__": 2321,
      "San__": 2322,
      "eti": 2323,
      "me__": 2324,
      "main__": 2325,
      "sl": 2326,
      "s__that__": 2327,
      "increas": 2328,
      "ed__on__the__": 2329,
      "a__(": 2330,
      "es__(": 2331,
      "even__": 2332,
      "members__": 2333,
      ".S": 2334,
      "12__": 2335,
      "King": 2336,
      "Willi": 2337,
      "bar": 2338,
      "do__": 2339,
      "del": 2340,
      "another__": 2341,
      "of__M": 2342,
      "ession": 2343,
      "ility__": 2344,
      "form__": 2345,
      "ook": 2346,
      "Stre": 2347,
      ".[2][": 2348,
      "award": 2349,
      "week": 2350,
      "head__": 2351,
      "book": 2352,
      "destroy": 2353,
      "doc": 2354,
      "eas": 2355,
      "pat": 2356,
      "very__": 2357,
      "tradi": 2358,
      "location__": 2359,
      "phil": 2360,
      "craf": 2361,
      "success": 2362,
      "due__to__": 2363,
      "million__": 2364,
      ").\n": 2365,
      "4]\n": 2366,
      "Mor": 2367,
      "War": 2368,
      "dat": 2369,
      "kill": 2370,
      "o-": 2371,
      "som": 2372,
      "wro": 2373,
      "e__(": 2374,
      "third__": 2375,
      "often__": 2376,
      "was__born__": 2377,
      "age__of__": 2378,
      "lik": 2379,
      "set__": 2380,
      "associ": 2381,
      "final__": 2382,
      "amilton__": 2383,
      ".[6]__": 2384,
      "larg": 2385,
      "can__be__": 2386,
      "Geor": 2387,
      "II": 2388,
      "major__": 2389,
      " mi": 2390,
      "er's__": 2391,
      "earch__": 2392,
      "finish": 2393,
      "promo": 2394,
      "called__": 2395,
      "Dav": 2396,
      "Res": 2397,
      "Tor": 2398,
      "hou": 2399,
      "per__": 2400,
      "in__B": 2401,
      "ity,__": 2402,
      "prot": 2403,
      "over__the__": 2404,
      "till__": 2405,
      "citation__": 2406,
      "Rob": 2407,
      "los": 2408,
      "won__the__": 2409,
      "one__of__": 2410,
      "ord__": 2411,
      "er__to__": 2412,
      "on__2": 2413,
      "ing__to__the__": 2414,
      "what__": 2415,
      "sequ": 2416,
      "189": 2417,
      "Canadian__": 2418,
      "various__": 2419,
      "25": 2420,
      "Cre": 2421,
      "Vi": 2422,
      "Vic": 2423,
      "hand": 2424,
      "squ": 2425,
      "those__": 2426,
      "ism": 2427,
      "ably__": 2428,
      "high__": 2429,
      "tical__": 2430,
      "firm": 2431,
      "adio__": 2432,
      "German": 2433,
      "childr": 2434,
      "number__of__": 2435,
      "football__": 2436,
      "program": 2437,
      "describ": 2438,
      "0,__": 2439,
      "10__": 2440,
      "Am": 2441,
      "Gl": 2442,
      "Oly": 2443,
      "ds__": 2444,
      "down__": 2445,
      "last__": 2446,
      "ref": 2447,
      "es__in__the__": 2448,
      "sible__": 2449,
      "educ": 2450,
      "spe": 2451,
      "clos": 2452,
      "claim": 2453,
      "ress": 2454,
      "show": 2455,
      "previ": 2456,
      "moder": 2457,
      "small__": 2458,
      "Odaenathus__": 2459,
      "Olymp": 2460,
      "im__": 2461,
      "next__": 2462,
      "rul": 2463,
      "__S": 2464,
      "ink": 2465,
      "rest": 2466,
      "part__of__": 2467,
      "government__": 2468,
      "ai__": 2469,
      "b__": 2470,
      "ially__": 2471,
      "war": 2472,
      "west__": 2473,
      "t__and__": 2474,
      "arly__": 2475,
      "res__(": 2476,
      "a__S": 2477,
      "ought__": 2478,
      "as__an__": 2479,
      "act": 2480,
      "ecu": 2481,
      "agre": 2482,
      "play__": 2483,
      "uck": 2484,
      "allow": 2485,
      "laun": 2486,
      "Wal": 2487,
      "cy": 2488,
      "fur": 2489,
      "if__": 2490,
      "vir": 2491,
      ",__S": 2492,
      "ality__": 2493,
      "off__": 2494,
      "in__M": 2495,
      "es__were__": 2496,
      "let": 2497,
      "world": 2498,
      "had__been__": 2499,
      "contribu": 2500,
      "general__": 2501,
      "field__": 2502,
      "Jew": 2503,
      "NH": 2504,
      "ah__": 2505,
      "cep": 2506,
      "hab": 2507,
      "ia,__": 2508,
      "still__": 2509,
      "reti": 2510,
      "ism__": 2511,
      "use__": 2512,
      "expl": 2513,
      "ation__of__the__": 2514,
      "aliz": 2515,
      ".__A__": 2516,
      "stitut": 2517,
      "United__Stat": 2518,
      "large__": 2519,
      "Her": 2520,
      "Lond": 2521,
      "care": 2522,
      "don": 2523,
      "just__": 2524,
      "les": 2525,
      "natur": 2526,
      "ture": 2527,
      "went__": 2528,
      "ers,__": 2529,
      "edit": 2530,
      "occ": 2531,
      "German__": 2532,
      ".__They__": 2533,
      "________": 2534,
      "self__": 2535,
      "respon": 2536,
      "French__": 2537,
      "1][": 2538,
      "_In__the__": 2539,
      "aur": 2540,
      "came__": 2541,
      "four": 2542,
      "said__": 2543,
      "won__": 2544,
      "ene": 2545,
      "arti": 2546,
      "che": 2547,
      "190": 2548,
      "oph": 2549,
      "proc": 2550,
      "ended__": 2551,
      "angu": 2552,
      "ther,__": 2553,
      "becom": 2554,
      "drug": 2555,
      "ously__": 2556,
      "ustri": 2557,
      "written__": 2558,
      "album__": 2559,
      "citation__needed": 2560,
      "_{": 2561,
      "aver": 2562,
      "a's__": 2563,
      "air__": 2564,
      "istor": 2565,
      "s.[1": 2566,
      "onom": 2567,
      "stand": 2568,
      "es__that__": 2569,
      "ise__": 2570,
      "urch__": 2571,
      "adc": 2572,
      "adv": 2573,
      "ters__": 2574,
      "trav": 2575,
      "resul": 2576,
      "ency__": 2577,
      "berg__": 2578,
      "indic": 2579,
      "atic__": 2580,
      "14__": 2581,
      "His__": 2582,
      "Pri": 2583,
      "gg": 2584,
      "grow": 2585,
      "i,__": 2586,
      "mit": 2587,
      "ty,__": 2588,
      "inform": 2589,
      "infl": 2590,
      "th__centur": 2591,
      "again__": 2592,
      "liv": 2593,
      "train": 2594,
      "ts__of__": 2595,
      "ology__": 2596,
      "Phil": 2597,
      "Scot": 2598,
      "Que": 2599,
      "as__well__as__": 2600,
      "Ro": 2601,
      "hal": 2602,
      "ne__": 2603,
      "val": 2604,
      "individ": 2605,
      "ark": 2606,
      ".[8": 2607,
      "is,__": 2608,
      "lege__": 2609,
      "ong__the__": 2610,
      "competi": 2611,
      "group": 2612,
      "\"__and__": 2613,
      "2][": 2614,
      "9]\n": 2615,
      "Jos": 2616,
      "U.S": 2617,
      "back": 2618,
      "ei": 2619,
      "fem": 2620,
      "ke": 2621,
      "law": 2622,
      "ying__": 2623,
      "’s__": 2624,
      "ret": 2625,
      ".__O": 2626,
      "es__are__": 2627,
      "was__an__": 2628,
      "simil": 2629,
      "tot": 2630,
      "Chris": 2631,
      "show__": 2632,
      "turn__": 2633,
      "astern__": 2634,
      "suppor": 2635,
      "much__": 2636,
      "24": 2637,
      "Cong": 2638,
      "Se": 2639,
      "e.__The__": 2640,
      "frequ": 2641,
      "gir": 2642,
      "ham": 2643,
      "mer__": 2644,
      "sex": 2645,
      "ton": 2646,
      "ten": 2647,
      "ins": 2648,
      "ins__": 2649,
      "er-": 2650,
      "used__": 2651,
      "compos": 2652,
      "played__": 2653,
      "County__": 2654,
      "returned__to__": 2655,
      "During__": 2656,
      "club__": 2657,
      "different__": 2658,
      "Bro": 2659,
      "King__": 2660,
      "P__": 2661,
      "Sal": 2662,
      "Wil": 2663,
      "_E": 2664,
      "_N": 2665,
      "a.\n": 2666,
      "hum": 2667,
      "ior__": 2668,
      "ies,__": 2669,
      "mor": 2670,
      "mid": 2671,
      "near": 2672,
      "well": 2673,
      "ana__": 2674,
      "arriv": 2675,
      "alist__": 2676,
      "resid": 2677,
      "activ": 2678,
      "out__the__": 2679,
      "out__of__": 2680,
      "188": 2681,
      "ogn": 2682,
      "include__": 2683,
      "From__": 2684,
      "co-": 2685,
      "article__is__a__stub.__You__can__help__Wikipedia__by__expanding__it.\n": 2686,
      "black__": 2687,
      ".__His__": 2688,
      "mission": 2689,
      "Regi": 2690,
      "Distric": 2691,
      "left__": 2692,
      "15__": 2693,
      "D__": 2694,
      "Fin": 2695,
      "ci": 2696,
      "journ": 2697,
      "pain": 2698,
      "race__": 2699,
      "erg": 2700,
      "er__in__": 2701,
      "acros": 2702,
      "having__": 2703,
      "def": 2704,
      "death__": 2705,
      "spor": 2706,
      "identi": 2707,
      "had__a__": 2708,
      "scor": 2709,
      "contain": 2710,
      "where__he__": 2711,
      "Lab": 2712,
      "Mo": 2713,
      "Su": 2714,
      "Soci": 2715,
      "best__": 2716,
      "t__to__": 2717,
      ".__T": 2718,
      "2020": 2719,
      "constitu": 2720,
      "ocr": 2721,
      "tran": 2722,
      "compet": 2723,
      "ipp": 2724,
      "discover": 2725,
      "title__": 2726,
      "attemp": 2727,
      "ministr": 2728,
      "Blackhawk__": 2729,
      "Fir": 2730,
      "Mob": 2731,
      "Publ": 2732,
      "bir": 2733,
      "city__": 2734,
      "cil__": 2735,
      "ide": 2736,
      "lov": 2737,
      "non-": 2738,
      "chem": 2739,
      "imp": 2740,
      "event__": 2741,
      "ember": 2742,
      ".__It__is__": 2743,
      "ential__": 2744,
      "region__": 2745,
      "system": 2746,
      "member__of__the__": 2747,
      "Christi": 2748,
      "(born__": 2749,
      "16__": 2750,
      "Min": 2751,
      "Mac": 2752,
      "Sing": 2753,
      "go__": 2754,
      "get": 2755,
      "ire": 2756,
      "lost__": 2757,
      "men__": 2758,
      "mul": 2759,
      "near__": 2760,
      "rang": 2761,
      "you": 2762,
      "y.\n": 2763,
      "independ": 2764,
      "anch__": 2765,
      "ics__": 2766,
      "es,__and__": 2767,
      "19__": 2768,
      "light__": 2769,
      "exist": 2770,
      "iment__": 2771,
      "ers__and__": 2772,
      "techn": 2773,
      "ake__": 2774,
      "has__a__": 2775,
      "effec": 2776,
      "known__as__": 2777,
      "particip": 2778,
      "28": 2779,
      "Gra": 2780,
      "Sen": 2781,
      "citi": 2782,
      "gun": 2783,
      "rain": 2784,
      "ania__": 2785,
      "ed__into__": 2786,
      "perform": 2787,
      "All": 2788,
      "tory__": 2789,
      "between__the__": 2790,
      "gradu": 2791,
      ".3": 2792,
      "Rev": 2793,
      "_(": 2794,
      "_{\\": 2795,
      "d,__": 2796,
      "song": 2797,
      "tle__": 2798,
      "telev": 2799,
      "ory__": 2800,
      "ald__": 2801,
      "ator__": 2802,
      "employ": 2803,
      "version__": 2804,
      "spir": 2805,
      "Andre": 2806,
      "in__198": 2807,
      "international__": 2808,
      "more__than__": 2809,
      "received__": 2810,
      "_This__article__about__a__": 2811,
      "22": 2812,
      "Fre": 2813,
      "_Th": 2814,
      "gin": 2815,
      "host": 2816,
      "langu": 2817,
      "tow": 2818,
      "winn": 2819,
      "s__on__": 2820,
      "ants__": 2821,
      ",__in__": 2822,
      "es.__The__": 2823,
      "six__": 2824,
      "exic": 2825,
      "for__his__": 2826,
      "tion__to__": 2827,
      "ed__by__a__": 2828,
      "fied__": 2829,
      "It__was__": 2830,
      "scri": 2831,
      "ccord": 2832,
      "Library__": 2833,
      "against__the__": 2834,
      "style__": 2835,
      "involv": 2836,
      "some": 2837,
      " mi)__": 2838,
      "launch": 2839,
      "40": 2840,
      "Hous": 2841,
      "_O": 2842,
      "a,__and__": 2843,
      "caus": 2844,
      "ts": 2845,
      "ors": 2846,
      "itte": 2847,
      "iss": 2848,
      "leav": 2849,
      "ation__and__": 2850,
      "ted__in__": 2851,
      "umb": 2852,
      "18__": 2853,
      "scre": 2854,
      "berg": 2855,
      "Eng": 2856,
      "music": 2857,
      "run__": 2858,
      "profession": 2859,
      "Palmy": 2860,
      "protec": 2861,
      "Pe": 2862,
      "Val": 2863,
      "few__": 2864,
      "mos": 2865,
      "tal": 2866,
      ".[citation__needed": 2867,
      "addi": 2868,
      "us,__": 2869,
      "library__": 2870,
      "appoin": 2871,
      "fron": 2872,
      "ocial__": 2873,
      "class": 2874,
      "pris": 2875,
      "aircraf": 2876,
      "decid": 2877,
      "mission__": 2878,
      "ific__": 2879,
      "Australian__": 2880,
      "ographical__": 2881,
      "11__": 2882,
      "Cour": 2883,
      "Dem": 2884,
      "Govern": 2885,
      "Hamilton__": 2886,
      "a-": 2887,
      "jur": 2888,
      "s__from__": 2889,
      "ed__its__": 2890,
      "repor": 2891,
      ".__Wh": 2892,
      "ac__": 2893,
      "whil": 2894,
      "toge": 2895,
      "consist": 2896,
      "Champion": 2897,
      "created__": 2898,
      "ision": 2899,
      ".[7]\n": 2900,
      "period__": 2901,
      "33": 2902,
      "Bel": 2903,
      "Hopp": 2904,
      "Histor": 2905,
      "Sou": 2906,
      "_R": 2907,
      "bod": 2908,
      "down": 2909,
      "ham__": 2910,
      "round": 2911,
      "we__": 2912,
      "yp": 2913,
      "ze__": 2914,
      "s__with__": 2915,
      "forman": 2916,
      "rist": 2917,
      "approv": 2918,
      "and,__": 2919,
      "sugg": 2920,
      "clu": 2921,
      "import": 2922,
      ".__After__": 2923,
      "included__": 2924,
      "ference__": 2925,
      "service__": 2926,
      "official__": 2927,
      "became__the__": 2928,
      "27": 2929,
      "30__": 2930,
      "Em": 2931,
      "Shel": 2932,
      "har": 2933,
      "lab": 2934,
      "long__": 2935,
      "ner": 2936,
      "priv": 2937,
      "ron": 2938,
      "a__c": 2939,
      "The": 2940,
      "Thom": 2941,
      "ture__": 2942,
      ":__\"": 2943,
      "Arg": 2944,
      "player__": 2945,
      "feature": 2946,
      "moved__to__": 2947,
      "father__": 2948,
      "Republic": 2949,
      "influ": 2950,
      "Cap": 2951,
      "hm": 2952,
      "ly,__": 2953,
      "ning__": 2954,
      "nation": 2955,
      "ank__": 2956,
      "ensive__": 2957,
      "ti__": 2958,
      "o__and__": 2959,
      ".__D": 2960,
      "ross": 2961,
      "league__": 2962,
      "ental__": 2963,
      "ally,__": 2964,
      "epis": 2965,
      "military__": 2966,
      "vely__": 2967,
      "Colleg": 2968,
      "broadc": 2969,
      "did__not__": 2970,
      "),__and__": 2971,
      "Mil": 2972,
      "Pet": 2973,
      "aut": 2974,
      "cat": 2975,
      "ef__": 2976,
      "hold": 2977,
      "low": 2978,
      "ner__": 2979,
      "net": 2980,
      "t__in__": 2981,
      "rep": 2982,
      "ster": 2983,
      "es__of__the__": 2984,
      "top__": 2985,
      "execu": 2986,
      "command": 2987,
      "flow": 2988,
      "would__be__": 2989,
      "signific": 2990,
      "World__War__": 2991,
      "English__": 2992,
      "novel__": 2993,
      "religi": 2994,
      "17__": 2995,
      ":[": 2996,
      "Atl": 2997,
      "Gam": 2998,
      "Sec": 2999,
      "a\n": 3000,
      "dg": 3001,
      "fav": 3002,
      "ffic": 3003,
      "mod": 3004,
      "never__": 3005,
      "oto": 3006,
      "wind": 3007,
      "art": 3008,
      "tig": 3009,
      "ically__": 3010,
      "ing__that__": 3011,
      "al__of__": 3012,
      "champion": 3013,
      "es__for__": 3014,
      "ederal__": 3015,
      "record__": 3016,
      "prac": 3017,
      "Army__": 3018,
      "titled__": 3019,
      "public": 3020,
      "oyal__": 3021,
      "every__": 3022,
      "Indian__": 3023,
      "system__": 3024,
      "James__": 3025,
      "Japanese__": 3026,
      "4–": 3027,
      "Med": 3028,
      "Mary__": 3029,
      "No": 3030,
      "Sch": 3031,
      "Ste": 3032,
      "Tim": 3033,
      "aul": 3034,
      "fre": 3035,
      "fai": 3036,
      "sal": 3037,
      "y-": 3038,
      "y.__": 3039,
      " in": 3040,
      "th,__": 3041,
      "ed__at__the__": 3042,
      "alli": 3043,
      "offer": 3044,
      "chas": 3045,
      "ush": 3046,
      "concer": 3047,
      "death": 3048,
      "ated__the__": 3049,
      "_After__": 3050,
      "critic": 3051,
      "Direc": 3052,
      "combin": 3053,
      "docum": 3054,
      "George__": 3055,
      "house": 3056,
      "22__": 3057,
      "Bi": 3058,
      "Bar": 3059,
      "G__": 3060,
      "Hob": 3061,
      "LS__": 3062,
      "Ter": 3063,
      "Wash": 3064,
      "ball": 3065,
      "cel": 3066,
      "eut": 3067,
      "foc": 3068,
      "king__": 3069,
      "e__to__": 3070,
      "reach": 3071,
      "replac": 3072,
      "stre": 3073,
      "ater__": 3074,
      "omb": 3075,
      "estiv": 3076,
      ".[20": 3077,
      "ural__": 3078,
      "wif": 3079,
      "uck__": 3080,
      "__and__the__": 3081,
      "ress__": 3082,
      "ending__": 3083,
      "which__was__": 3084,
      "given__": 3085,
      "become__": 3086,
      ".__Al": 3087,
      "Ang": 3088,
      "able__to__": 3089,
      "meet": 3090,
      "ature__": 3091,
      ".[7]__": 3092,
      "Carol": 3093,
      "International__": 3094,
      "School__": 3095,
      "because__": 3096,
      "similar__": 3097,
      "First__": 3098,
      "13__": 3099,
      "2–": 3100,
      "36": 3101,
      "City__": 3102,
      "E﻿__/__": 3103,
      "Ir": 3104,
      "Kre": 3105,
      "Ne": 3106,
      "W﻿__/__": 3107,
      "_W": 3108,
      "other": 3109,
      "y,__and__": 3110,
      "anim": 3111,
      "omet": 3112,
      "as,__": 3113,
      "white__": 3114,
      "proper": 3115,
      "ov__": 3116,
      "article__is__a__stub.__You__can__help__Wikipedia__by__expanding__it.": 3117,
      "based__on__": 3118,
      "take__": 3119,
      "full__": 3120,
      "treat": 3121,
      " km": 3122,
      "liter": 3123,
      "quarter": 3124,
      "daughter__": 3125,
      "campa": 3126,
      "William__": 3127,
      "euten": 3128,
      "B__": 3129,
      "CA": 3130,
      "Cali": 3131,
      "[1]__": 3132,
      "dom": 3133,
      "less__": 3134,
      "yl": 3135,
      "e__for__": 3136,
      "inst": 3137,
      "ani": 3138,
      "ert__": 3139,
      "along__": 3140,
      "review": 3141,
      "a__in__": 3142,
      "ough__": 3143,
      "itec": 3144,
      "amoun": 3145,
      "assign": 3146,
      "abo": 3147,
      "experi": 3148,
      "trac": 3149,
      "teach": 3150,
      "It__is__": 3151,
      "board__": 3152,
      "Comp": 3153,
      "Depart": 3154,
      "ockey__": 3155,
      "joined__the__": 3156,
      "ultan": 3157,
      "eventually__": 3158,
      "habit": 3159,
      "0s__": 3160,
      "0s,__": 3161,
      "Award": 3162,
      "Du": 3163,
      "Kar": 3164,
      "New": 3165,
      "She__": 3166,
      "_Wh": 3167,
      "eum__": 3168,
      "ger": 3169,
      "sw": 3170,
      "sent__": 3171,
      "town": 3172,
      "viv": 3173,
      "vice__": 3174,
      "or,__": 3175,
      ".__E": 3176,
      "of__his__": 3177,
      "es__a__": 3178,
      "forn": 3179,
      "ts__and__": 3180,
      "aff": 3181,
      "shor": 3182,
      "uty__": 3183,
      "They__": 3184,
      "rown__": 3185,
      "ological__": 3186,
      "County,__": 3187,
      ".[9]\n": 3188,
      "married__": 3189,
      "friend": 3190,
      "country__": 3191,
      "Toron": 3192,
      "Washing": 3193,
      "Californ": 3194,
      "98": 3195,
      ";[": 3196,
      ";__the__": 3197,
      "Cam": 3198,
      "East__": 3199,
      "Lou": 3200,
      "Royal__": 3201,
      "Vir": 3202,
      "_P": 3203,
      "cle": 3204,
      "gar": 3205,
      "kil": 3206,
      "law__": 3207,
      "al__and__": 3208,
      "assist": 3209,
      "rid": 3210,
      "osp": 3211,
      ")__was__a__": 3212,
      "recogn": 3213,
      "Inv": 3214,
      "time,__": 3215,
      "point": 3216,
      "within__the__": 3217,
      "_A__": 3218,
      "Party__": 3219,
      "became__a__": 3220,
      "history__": 3221,
      "does__": 3222,
      "Sci": 3223,
      "community__": 3224,
      "district__": 3225,
      "General__": 3226,
      "young__": 3227,
      "modern__": 3228,
      "U.S.__": 3229,
      "television__": 3230,
      "1,": 3231,
      "1–": 3232,
      "3.": 3233,
      "Bur": 3234,
      "Batt": 3235,
      "Grou": 3236,
      "Hen": 3237,
      "Mal": 3238,
      "eal": 3239,
      "song__": 3240,
      "south__": 3241,
      " f": 3242,
      ",__he__": 3243,
      "enz": 3244,
      "ed__with__the__": 3245,
      "right__": 3246,
      "lead__": 3247,
      "ety__": 3248,
      "hi__": 3249,
      "defin": 3250,
      "tern": 3251,
      "embly__": 3252,
      "Institut": 3253,
      "should__": 3254,
      "without__": 3255,
      "ellow__": 3256,
      "heav": 3257,
      "_In__201": 3258,
      "in__197": 3259,
      "self": 3260,
      "Island": 3261,
      "cours": 3262,
      "England__": 3263,
      "temper": 3264,
      "ropical__": 3265,
      "TV__": 3266,
      "further__": 3267,
      "screen": 3268,
      "AS": 3269,
      "Air": 3270,
      "M__": 3271,
      "Rec": 3272,
      "Rich": 3273,
      "civ": 3274,
      "ee__": 3275,
      "hy": 3276,
      "hear": 3277,
      "ox__": 3278,
      "pen": 3279,
      "ple__": 3280,
      "say": 3281,
      "ta": 3282,
      "y,__the__": 3283,
      "e__in__the__": 3284,
      "respec": 3285,
      "a__new__": 3286,
      "in__his__": 3287,
      "of__S": 3288,
      "es.__": 3289,
      "ace": 3290,
      "administr": 3291,
      "abor": 3292,
      "conduc": 3293,
      "connec": 3294,
      "propos": 3295,
      "que__": 3296,
      "Stan": 3297,
      "2009": 3298,
      "186": 3299,
      "ang__": 3300,
      "lock": 3301,
      "phys": 3302,
      "present__": 3303,
      "originally__": 3304,
      "started__": 3305,
      "Grand__": 3306,
      "water__": 3307,
      "album": 3308,
      "wrote__": 3309,
      "Western__": 3310,
      "get__": 3311,
      "munic": 3312,
      ",__with__": 3313,
      "in__S": 3314,
      "ired__": 3315,
      "right": 3316,
      "ung__": 3317,
      "lev": 3318,
      "age": 3319,
      "ock__": 3320,
      "prob": 3321,
      "184": 3322,
      "brar": 3323,
      "Mark__": 3324,
      "biographical__": 3325,
      "north__": 3326,
      "support__": 3327,
      "eutenant__": 3328,
      ".\"__": 3329,
      "35": 3330,
      "3–": 3331,
      "Ab": 3332,
      "Award__": 3333,
      "CO": 3334,
      "a,__the__": 3335,
      "den": 3336,
      "hol": 3337,
      "how__": 3338,
      "moun": 3339,
      "ra__": 3340,
      "t-": 3341,
      "zu": 3342,
      "once__": 3343,
      "ate,__": 3344,
      "isc": 3345,
      "was__also__": 3346,
      "depart": 3347,
      "see__": 3348,
      "seen__": 3349,
      "help": 3350,
      "ence__of__": 3351,
      "During__the__": 3352,
      "schol": 3353,
      "village__": 3354,
      "through__the__": 3355,
      "natural__": 3356,
      "Fil": 3357,
      "Fall": 3358,
      "_T": 3359,
      "ck__": 3360,
      "fig": 3361,
      "gave__": 3362,
      "rank": 3363,
      "sor": 3364,
      "she__was__": 3365,
      "win": 3366,
      "°N__": 3367,
      "é__": 3368,
      "ern": 3369,
      "and__his__": 3370,
      "star__": 3371,
      ".__C": 3372,
      "ing__of__the__": 3373,
      "ect": 3374,
      "road__": 3375,
      "examp": 3376,
      "performan": 3377,
      "ender__": 3378,
      "affec": 3379,
      "display": 3380,
      "president__": 3381,
      "ney__": 3382,
      "in__194": 3383,
      ".____The__": 3384,
      "medi": 3385,
      "taken__": 3386,
      "population__": 3387,
      "match": 3388,
      "published__": 3389,
      "fully__": 3390,
      "Blackhawk": 3391,
      "three-": 3392,
      "Public__": 3393,
      "professional__": 3394,
      "Angel": 3395,
      ").__The__": 3396,
      "Bas": 3397,
      "Div": 3398,
      "Mod": 3399,
      "Smi": 3400,
      "cul": 3401,
      "fol": 3402,
      "nomin": 3403,
      "sold__": 3404,
      "ver__": 3405,
      "wood__": 3406,
      "ere": 3407,
      ".__N": 3408,
      "es__on__": 3409,
      ".[8]\n": 3410,
      "econom": 3411,
      "sib": 3412,
      "owl": 3413,
      "when__the__": 3414,
      "abb": 3415,
      "did": 3416,
      "frac__": 3417,
      "deploy": 3418,
      "with__an__": 3419,
      "with__his__": 3420,
      "term__": 3421,
      "ated__in__": 3422,
      "tion__and__": 3423,
      "ers__were__": 3424,
      "ate__the__": 3425,
      "Chic": 3426,
      "ed__to__be__": 3427,
      "s.__He__": 3428,
      "interest": 3429,
      "miss": 3430,
      "director__": 3431,
      "character__": 3432,
      "house__": 3433,
      "architec": 3434,
      "scienti": 3435,
      "young": 3436,
      "tournam": 3437,
      "David__": 3438,
      "Democr": 3439,
      "episod": 3440,
      "practic": 3441,
      "Hobart__": 3442,
      "kilomet": 3443,
      "2)__": 3444,
      "25__": 3445,
      "a,\n": 3446,
      "fail": 3447,
      "son,__": 3448,
      "text": 3449,
      "ori": 3450,
      "is__located__": 3451,
      "el,__": 3452,
      "ed,__and__": 3453,
      "whose__": 3454,
      "by__a__": 3455,
      "ago__": 3456,
      "separ": 3457,
      "ourc": 3458,
      "research__": 3459,
      "ground__": 3460,
      "avail": 3461,
      "shar": 3462,
      "2006": 3463,
      "s__and__the__": 3464,
      "s.__In__": 3465,
      "fif": 3466,
      "disc": 3467,
      "about__the__": 3468,
      "end__of__the__": 3469,
      "period": 3470,
      "himself__": 3471,
      "func": 3472,
      "Roman__": 3473,
      "Italian__": 3474,
      "scrip": 3475,
      "appointed__": 3476,
      "44": 3477,
      "70": 3478,
      "E__": 3479,
      "Mos": 3480,
      "Pat": 3481,
      "fall": 3482,
      "sam": 3483,
      "von__": 3484,
      "vent": 3485,
      "wa": 3486,
      "win__": 3487,
      "ors__": 3488,
      "ed__for__the__": 3489,
      "return__": 3490,
      "stad": 3491,
      "es__from__": 3492,
      "ett": 3493,
      "seven__": 3494,
      "health__": 3495,
      "view__": 3496,
      "Prov": 3497,
      "Association__": 3498,
      "Street__": 3499,
      "chestr": 3500,
      "together__": 3501,
      "Hoppus__": 3502,
      "Argent": 3503,
      "Virgin": 3504,
      "-__": 3505,
      "7.": 3506,
      "Chi": 3507,
      "Its__": 3508,
      "Pac": 3509,
      "rad": 3510,
      "round__": 3511,
      "radio__": 3512,
      "site__": 3513,
      "western__": 3514,
      "erous__": 3515,
      "stri": 3516,
      "as__\"": 3517,
      "chann": 3518,
      ".[8]__": 3519,
      "active__": 3520,
      "righ": 3521,
      "eder": 3522,
      "ed.\n": 3523,
      "using__": 3524,
      "used__to__": 3525,
      "live__": 3526,
      "et,__": 3527,
      "compar": 3528,
      "ations,__": 3529,
      "ground": 3530,
      "2015": 3531,
      "gian__": 3532,
      "away__": 3533,
      "ence,__": 3534,
      "common__": 3535,
      "syphil": 3536,
      "was__the__first__": 3537,
      "love__": 3538,
      "popular__": 3539,
      "One__": 3540,
      "particul": 3541,
      "position__": 3542,
      "power": 3543,
      "McCl": 3544,
      "Chinese__": 3545,
      "initially__": 3546,
      "'t__": 3547,
      "100": 3548,
      "39": 3549,
      "cent__": 3550,
      "det": 3551,
      "fle": 3552,
      "mother__": 3553,
      "osi": 3554,
      "rup": 3555,
      "ting": 3556,
      "ton,__": 3557,
      "ony__": 3558,
      "ofstad": 3559,
      ".__In__the__": 3560,
      "er__(": 3561,
      "olu": 3562,
      "level": 3563,
      "usually__": 3564,
      "light": 3565,
      "super": 3566,
      "world__": 3567,
      "times__": 3568,
      "story__": 3569,
      "Arch": 3570,
      "Arab": 3571,
      "minal__": 3572,
      "coach__": 3573,
      "based__": 3574,
      "regul": 3575,
      "building": 3576,
      "government": 3577,
      "Academ": 3578,
      "purchas": 3579,
      "ultural__": 3580,
      "Jewish__": 3581,
      "NHL__": 3582,
      "multi": 3583,
      "you__": 3584,
      "Thomas__": 3585,
      "-in": 3586,
      "8][": 3587,
      "Bu": 3588,
      "Best__": 3589,
      "Des": 3590,
      "Er": 3591,
      "II__": 3592,
      "Mer": 3593,
      "Mah": 3594,
      "Mexic": 3595,
      "\\omega__": 3596,
      "city": 3597,
      "ech": 3598,
      "ep__": 3599,
      "gro": 3600,
      "i-": 3601,
      "ib": 3602,
      "war__": 3603,
      "ership__": 3604,
      "als,__": 3605,
      "a__was__": 3606,
      ".__P": 3607,
      "action__": 3608,
      "en__and__": 3609,
      "liam": 3610,
      "vers": 3611,
      "plic": 3612,
      "person__": 3613,
      "prin": 3614,
      "short": 3615,
      "which": 3616,
      "ia__and__": 3617,
      "aul__": 3618,
      "find__": 3619,
      "attack": 3620,
      "essor__": 3621,
      "playing__": 3622,
      ".[4][": 3623,
      "Ann": 3624,
      "annual__": 3625,
      ".[9]__": 3626,
      "related__to__": 3627,
      "Australi": 3628,
      "soldi": 3629,
      ".[10]\n": 3630,
      "soon__": 3631,
      "anti-": 3632,
      "occup": 3633,
      "Labour__": 3634,
      "8.": 3635,
      "Ale": 3636,
      "F__": 3637,
      "Kal": 3638,
      "Los__": 3639,
      "Mu": 3640,
      "Mic": 3641,
      "Offic": 3642,
      "Zeal": 3643,
      "city__of__": 3644,
      "fter__the__": 3645,
      "social__": 3646,
      "tly__": 3647,
      "thing__": 3648,
      "ering__": 3649,
      "t__(": 3650,
      ",__B": 3651,
      "ark__": 3652,
      "reas": 3653,
      "a__R": 3654,
      ".__On__": 3655,
      "atr": 3656,
      "is__also__": 3657,
      "estig": 3658,
      ".[19": 3659,
      "among__": 3660,
      "ements__": 3661,
      "adr": 3662,
      "edom__": 3663,
      "learn": 3664,
      "agn": 3665,
      "age,__": 3666,
      "occur": 3667,
      "that__he__": 3668,
      "ated__to__": 3669,
      "ourn__": 3670,
      "ers__of__": 3671,
      "2010": 3672,
      "branch__": 3673,
      "alist": 3674,
      "order__": 3675,
      "including__the__": 3676,
      "second": 3677,
      "areas__": 3678,
      "they__were__": 3679,
      "might__": 3680,
      "land,__": 3681,
      "son__of__": 3682,
      "effor": 3683,
      "ense__": 3684,
      "north": 3685,
      "{\\omega__": 3686,
      "make__": 3687,
      "primar": 3688,
      "North__Carol": 3689,
      "ief__": 3690,
      "will__be__": 3691,
      "Odaenathus": 3692,
      "Wein": 3693,
      ".[10]__": 3694,
      "project__": 3695,
      "life__": 3696,
      "Mobile__": 3697,
      "independent__": 3698,
      "probably__": 3699,
      "0]__": 3700,
      "2,": 3701,
      "23__": 3702,
      "4.": 3703,
      "50__": 3704,
      "Gh": 3705,
      "Kh": 3706,
      "Vol": 3707,
      "aid": 3708,
      "face__": 3709,
      "lv": 3710,
      "saf": 3711,
      "s:__": 3712,
      "tro": 3713,
      "injur": 3714,
      "y__the__": 3715,
      "re-": 3716,
      "er__who__": 3717,
      "itch": 3718,
      "edic": 3719,
      "uni": 3720,
      "unk": 3721,
      "beh": 3722,
      "spap": 3723,
      "igh__": 3724,
      "there": 3725,
      "ence": 3726,
      "special__": 3727,
      "in__196": 3728,
      "New__Zeal": 3729,
      "subjec": 3730,
      "corpor": 3731,
      "succe": 3732,
      "believ": 3733,
      "Corp": 3734,
      "ways__": 3735,
      "Two__": 3736,
      "Olympic": 3737,
      "drug__": 3738,
      ".[citation__needed]\n": 3739,
      ";__and__": 3740,
      "Ahm": 3741,
      "Cad": 3742,
      "D-": 3743,
      "However,__": 3744,
      "Sain": 3745,
      "Up": 3746,
      "deter": 3747,
      "eign__": 3748,
      "hor": 3749,
      "io__": 3750,
      "ki__": 3751,
      "lic": 3752,
      "lav": 3753,
      "n,__": 3754,
      "prec": 3755,
      "__The__": 3756,
      "inste": 3757,
      "order": 3758,
      "ena__": 3759,
      "ed__an__": 3760,
      "in__H": 3761,
      "accoun": 3762,
      "wid": 3763,
      "ated__in__the__": 3764,
      "Church__": 3765,
      "ts__to__": 3766,
      "ed__in__a__": 3767,
      "serve__": 3768,
      "audi": 3769,
      "aster__": 3770,
      "vide": 3771,
      "police__": 3772,
      "incor": 3773,
      "subsequ": 3774,
      "beginn": 3775,
      "regard": 3776,
      "known__as__the__": 3777,
      "August": 3778,
      "before__the__": 3779,
      ",000": 3780,
      "Prof": 3781,
      "ready__": 3782,
      "Russian__": 3783,
      "Navy__": 3784,
      "Robert__": 3785,
      "individual__": 3786,
      "important__": 3787,
      "does__not__": 3788,
      "biographical__article__": 3789,
      "23": 3790,
      "76": 3791,
      "After__": 3792,
      "BC__": 3793,
      "Po": 3794,
      "Pow": 3795,
      "Red__": 3796,
      "Wom": 3797,
      "Wind__": 3798,
      "_J": 3799,
      "ail__": 3800,
      "ech__": 3801,
      "soci": 3802,
      "vil": 3803,
      "ore": 3804,
      "ar,__": 3805,
      "ed__of__": 3806,
      "a__p": 3807,
      "ough": 3808,
      "was__not__": 3809,
      "was__releas": 3810,
      "urch": 3811,
      "acred__": 3812,
      "emor": 3813,
      "univers": 3814,
      "whe": 3815,
      "come__": 3816,
      ".[1]__The__": 3817,
      "spent__": 3818,
      "ated__by__": 3819,
      "2008": 3820,
      "pot": 3821,
      "years,__": 3822,
      "scen": 3823,
      "_This__biographical__article__": 3824,
      "2023": 3825,
      "captur": 3826,
      "Span": 3827,
      "Canada__": 3828,
      "transform": 3829,
      "great": 3830,
      "Music__": 3831,
      "Central__": 3832,
      "remained__": 3833,
      " km__(": 3834,
      "Roman": 3835,
      "Ital": 3836,
      "regional__": 3837,
      "Russi": 3838,
      "settl": 3839,
      "currently__": 3840,
      "members__of__the__": 3841,
      "traditional__": 3842,
      "viron": 3843,
      "Model__": 3844,
      "Lu": 3845,
      "cil": 3846,
      "fel": 3847,
      "gain": 3848,
      "hard": 3849,
      "hood__": 3850,
      "ix__": 3851,
      "k,__": 3852,
      "tropical__": 3853,
      "any": 3854,
      "ont": 3855,
      "ed__it__": 3856,
      "station": 3857,
      "of__B": 3858,
      "ing__his__": 3859,
      "itz": 3860,
      "elli": 3861,
      "ild": 3862,
      "asc": 3863,
      "ash__": 3864,
      "road": 3865,
      "side": 3866,
      "whom__": 3867,
      "liz": 3868,
      "lieutenant__": 3869,
      "ets__": 3870,
      "condi": 3871,
      "franch": 3872,
      "imag": 3873,
      "ook__": 3874,
      "grand": 3875,
      "ts__in__": 3876,
      "Studi": 3877,
      "porary__": 3878,
      "ance": 3879,
      "served__as__": 3880,
      "cred": 3881,
      "2022,__": 3882,
      "season,__": 3883,
      "syn": 3884,
      "gun__": 3885,
      "charg": 3886,
      "ight": 3887,
      "legal__": 3888,
      "Commun": 3889,
      "highest__": 3890,
      "Elec": 3891,
      "little__": 3892,
      "carri": 3893,
      "African__": 3894,
      "business": 3895,
      "business__": 3896,
      "previously__": 3897,
      "London__": 3898,
      "artist": 3899,
      "aircraft__": 3900,
      "suggest": 3901,
      " in)__": 3902,
      "Los__Angel": 3903,
      "incorpor": 3904,
      ",\"__": 3905,
      "24__": 3906,
      "5][": 3907,
      "Dis": 3908,
      "Ok": 3909,
      "Tex": 3910,
      "ae": 3911,
      "cir": 3912,
      "cell": 3913,
      "eight__": 3914,
      "fan": 3915,
      "hold__": 3916,
      "i\n": 3917,
      "ling__": 3918,
      "ane__": 3919,
      "era__": 3920,
      "res__": 3921,
      "rest__": 3922,
      "reve": 3923,
      "a__L": 3924,
      "and__a__": 3925,
      ".__R": 3926,
      "at,__": 3927,
      "ing__it__": 3928,
      "ess,__": 3929,
      "iliti": 3930,
      "chall": 3931,
      "chief__": 3932,
      "ford__": 3933,
      "was__held__": 3934,
      "urb": 3935,
      "tions,__": 3936,
      "shap": 3937,
      "ob__": 3938,
      "Andr": 3939,
      "upon__": 3940,
      "electr": 3941,
      "declar": 3942,
      "guid": 3943,
      "completed__": 3944,
      "may__be__": 3945,
      "espec": 3946,
      "average__": 3947,
      "travel__": 3948,
      "either__": 3949,
      "sex__": 3950,
      "private__": 3951,
      "significant__": 3952,
      "primarily__": 3953,
      "\"The__": 3954,
      "1\n": 3955,
      "Ear": 3956,
      "Hou": 3957,
      "High": 3958,
      "K__": 3959,
      "Shi": 3960,
      "_Al": 3961,
      "cross": 3962,
      "den__": 3963,
      "ive__": 3964,
      "nav": 3965,
      "sus": 3966,
      "tu": 3967,
      "ing__for__": 3968,
      "isl": 3969,
      "ent,__": 3970,
      "life": 3971,
      "from__a__": 3972,
      "ump": 3973,
      "which__is__": 3974,
      "two-": 3975,
      "ordin": 3976,
      "minist": 3977,
      "secur": 3978,
      "_In__200": 3979,
      "in__195": 3980,
      "polic": 3981,
      "relation": 3982,
      "entire__": 3983,
      "regular__": 3984,
      "capital__": 3985,
      "supp": 3986,
      "accord": 3987,
      "depic": 3988,
      "sched": 3989,
      "newspap": 3990,
      "situ": 3991,
      "previous__": 3992,
      "career__": 3993,
      "across__the__": 3994,
      "_{\\display": 3995,
      "document": 3996,
      "owled": 3997,
      "especially__": 3998,
      "_{\\displaystyle__": 3999,
      "Cath": 4000,
      "Gw": 4001,
      "God": 4002,
      "Riv": 4003,
      "Tre": 4004,
      "Win": 4005,
      "_,\n": 4006,
      "eth": 4007,
      "narr": 4008,
      "ogi": 4009,
      "put__": 4010,
      "sem": 4011,
      "s.[3": 4012,
      "via__": 4013,
      "ys__": 4014,
      "erv": 4015,
      "ens__": 4016,
      ".__K": 4017,
      "chair": 4018,
      "amb": 4019,
      "ised__": 4020,
      "room": 4021,
      "at__a__": 4022,
      "und": 4023,
      "least__": 4024,
      "top": 4025,
      "too__": 4026,
      "hib": 4027,
      "cons": 4028,
      "commer": 4029,
      "ation__in__": 4030,
      "track": 4031,
      "space__": 4032,
      "clas": 4033,
      "ques": 4034,
      "2016": 4035,
      "first": 4036,
      "2007": 4037,
      "\"__(": 4038,
      "up__to__": 4039,
      "working__": 4040,
      "Leagu": 4041,
      "Constitu": 4042,
      "arry__": 4043,
      "engine": 4044,
      "accep": 4045,
      "complet": 4046,
      "people": 4047,
      "{\\frac__": 4048,
      "novel": 4049,
      "women__": 4050,
      "European__": 4051,
      ".[1][2]\n": 4052,
      "Charli": 4053,
      "current__": 4054,
      "Regiment__": 4055,
      "With": 4056,
      "data__": 4057,
      "Victor": 4058,
      "cycl": 4059,
      "Palmyren": 4060,
      "while__the__": 4061,
      "body__": 4062,
      "religious__": 4063,
      "Toronto__": 4064,
      "-F": 4065,
      "2,__the__": 4066,
      "21__": 4067,
      "38": 4068,
      "7][": 4069,
      "Austri": 4070,
      "Cu": 4071,
      "Cha": 4072,
      "Dev": 4073,
      "Hon": 4074,
      "Sum": 4075,
      "_0": 4076,
      "_i\n": 4077,
      "cou": 4078,
      "cop": 4079,
      "e.": 4080,
      "keg": 4081,
      "ling": 4082,
      "mur": 4083,
      "must__": 4084,
      "neg": 4085,
      "tap": 4086,
      "us__and__": 4087,
      "xim": 4088,
      "ym": 4089,
      "ered__": 4090,
      "ed__her__": 4091,
      "ties": 4092,
      ".__W": 4093,
      "in__(": 4094,
      "of__F": 4095,
      "th__and__": 4096,
      "ability__": 4097,
      "ap__": 4098,
      "confirm": 4099,
      "or__to__": 4100,
      ".[11]\n": 4101,
      "close__": 4102,
      "ig__": 4103,
      "2011": 4104,
      "brought__": 4105,
      "figh": 4106,
      "ards__": 4107,
      "expand": 4108,
      "ance,__": 4109,
      "later": 4110,
      "rather__": 4111,
      "ments__": 4112,
      "election__": 4113,
      "where__the__": 4114,
      "University": 4115,
      "Council__": 4116,
      "brother__": 4117,
      "games__": 4118,
      "leading__": 4119,
      "due__to__the__": 4120,
      "market": 4121,
      "President__": 4122,
      "throughout__the__": 4123,
      "maintain": 4124,
      "Flor": 4125,
      "ierkeg": 4126,
      "ccording__to__": 4127,
      "short__": 4128,
      "municip": 4129,
      "ierkega": 4130,
      "Bah": 4131,
      "CE": 4132,
      "Civ": 4133,
      "Hofstad": 4134,
      "Jo": 4135,
      "Law": 4136,
      "Nic": 4137,
      "Vene": 4138,
      "_′": 4139,
      "_Ch": 4140,
      "ean": 4141,
      "fall__": 4142,
      "king": 4143,
      "l__the__": 4144,
      "lack__": 4145,
      "sil": 4146,
      "tour__": 4147,
      "tari": 4148,
      "in,__": 4149,
      "ery__": 4150,
      "ed__from__the__": 4151,
      "although__": 4152,
      "revol": 4153,
      "eshi": 4154,
      "an__and__": 4155,
      "ativ": 4156,
      "emerg": 4157,
      "river": 4158,
      "unn": 4159,
      "wide__": 4160,
      "ustic": 4161,
      "hit__": 4162,
      "deg": 4163,
      "plann": 4164,
      "earli": 4165,
      "ub__": 4166,
      "ts__of__the__": 4167,
      "after": 4168,
      "affil": 4169,
      "He__was__": 4170,
      "anga": 4171,
      "compound": 4172,
      "at__the__University__of__": 4173,
      "committe": 4174,
      "includes__": 4175,
      "served__": 4176,
      "2021": 4177,
      "rough": 4178,
      "Northern__": 4179,
      "money__": 4180,
      "raz": 4181,
      "Park__": 4182,
      "mean": 4183,
      "surviv": 4184,
      ".__However,__": 4185,
      "operation": 4186,
      "September": 4187,
      "founded__in__": 4188,
      "development__": 4189,
      "necess": 4190,
      "battle__": 4191,
      "With__": 4192,
      "girl": 4193,
      "executive__": 4194,
      "celebr": 4195,
      "particularly__": 4196,
      "behind__": 4197,
      "susp": 4198,
      "_′\n": 4199,
      "affili": 4200,
      "1st__": 4201,
      "29": 4202,
      "Cr": 4203,
      "Laur": 4204,
      "Nil": 4205,
      "Pen": 4206,
      "Sand": 4207,
      "Tal": 4208,
      "Tri": 4209,
      "Vaz": 4210,
      "bul": 4211,
      "bank": 4212,
      "dic": 4213,
      "dro": 4214,
      "good__": 4215,
      "pas": 4216,
      "pul": 4217,
      "s;__": 4218,
      "tom": 4219,
      "tell": 4220,
      "ual": 4221,
      "anal": 4222,
      "ed__out__": 4223,
      "alth": 4224,
      "re,__": 4225,
      "a__B": 4226,
      "is__not__": 4227,
      "to__re": 4228,
      "estim": 4229,
      "ission": 4230,
      "six": 4231,
      "confl": 4232,
      "contest": 4233,
      "try__": 4234,
      "s,__which__": 4235,
      "viol": 4236,
      "design__": 4237,
      "neigh": 4238,
      ",[2]__": 4239,
      "United__King": 4240,
      "College__": 4241,
      "possible__": 4242,
      ".__There__": 4243,
      "Persi": 4244,
      "until__the__": 4245,
      "burg__": 4246,
      "father": 4247,
      "marriage__": 4248,
      "collabor": 4249,
      "fund": 4250,
      "Shah__": 4251,
      "distribu": 4252,
      "around__the__": 4253,
      "Swed": 4254,
      "Congres": 4255,
      "broadcast__": 4256,
      "heavy__": 4257,
      "zuel": 4258,
      "syphilis__": 4259,
      "Venezuel": 4260,
      "\"the__": 4261,
      "),__the__": 4262,
      "60": 4263,
      "6][": 4264,
      "EC__": 4265,
      "Foot": 4266,
      "MLS__": 4267,
      "Pan": 4268,
      "SS": 4269,
      "Tur": 4270,
      "UF": 4271,
      "]__the__": 4272,
      "cu": 4273,
      "clim": 4274,
      "eum": 4275,
      "fut": 4276,
      "ga": 4277,
      "however,__": 4278,
      "mad": 4279,
      "mach": 4280,
      "native__": 4281,
      "odi": 4282,
      "pap": 4283,
      "s-": 4284,
      "already__": 4285,
      "stone__": 4286,
      "er__was__": 4287,
      "attrac": 4288,
      "ing__in__the__": 4289,
      "es,__the__": 4290,
      "ist__of__": 4291,
      "urr": 4292,
      "academ": 4293,
      "excep": 4294,
      "earn": 4295,
      "that__was__": 4296,
      "spr": 4297,
      "quali": 4298,
      "ers__to__": 4299,
      "gran": 4300,
      "eph": 4301,
      "within__": 4302,
      "merg": 4303,
      "premi": 4304,
      "photo": 4305,
      "minut": 4306,
      "flood": 4307,
      ",[1]__": 4308,
      "sych": 4309,
      "most": 4310,
      "Black__": 4311,
      "production__": 4312,
      "great__": 4313,
      "teams__": 4314,
      "field": 4315,
      "control__": 4316,
      "friend__": 4317,
      "science__": 4318,
      "type__": 4319,
      "information__": 4320,
      "human__": 4321,
      "Christian__": 4322,
      "Peter__": 4323,
      "Record": 4324,
      "determin": 4325,
      "Air__": 4326,
      "Cat": 4327,
      "Cub": 4328,
      "City": 4329,
      "FA__": 4330,
      "Kn": 4331,
      "Lat": 4332,
      "Met": 4333,
      "Ot": 4334,
      "Pak": 4335,
      "Port": 4336,
      "Ren": 4337,
      "Ur": 4338,
      "a.__": 4339,
      "east__": 4340,
      "hun": 4341,
      "hop": 4342,
      "jud": 4343,
      "r__": 4344,
      "rap": 4345,
      "red__to__": 4346,
      "wood": 4347,
      "ón__": 4348,
      "″N__": 4349,
      "s__at__": 4350,
      "s__to__the__": 4351,
      "environ": 4352,
      "ed__him__": 4353,
      "along": 4354,
      "almost__": 4355,
      "er__in__the__": 4356,
      "issi": 4357,
      "ast__of__": 4358,
      "unte": 4359,
      "ety__of__": 4360,
      "able": 4361,
      ",__and__was__": 4362,
      "occas": 4363,
      "debut__": 4364,
      "sus__": 4365,
      ")__is__an__": 4366,
      ")__was__an__": 4367,
      "spon": 4368,
      "party__": 4369,
      "all,__": 4370,
      "all__the__": 4371,
      "2017": 4372,
      "2011__": 4373,
      "note__": 4374,
      "words__": 4375,
      "give__": 4376,
      "There__": 4377,
      "year,__": 4378,
      "but__the__": 4379,
      "financ": 4380,
      "ences__": 4381,
      "prepar": 4382,
      "2024,__": 4383,
      "rail": 4384,
      "mix": 4385,
      "meas": 4386,
      "100__": 4387,
      ",__which__was__": 4388,
      "directed__by__": 4389,
      "transl": 4390,
      "appearanc": 4391,
      "Ontari": 4392,
      "Assembly__": 4393,
      "500__": 4394,
      "defeated__": 4395,
      "was__born__in__": 4396,
      "largest__": 4397,
      "Creek__": 4398,
      "female__": 4399,
      "chemical__": 4400,
      "reported__": 4401,
      "campaign__": 4402,
      "install": 4403,
      " ft": 4404,
      "Richard__": 4405,
      "tournament__": 4406,
      "succeed": 4407,
      "instead__": 4408,
      "conflic": 4409,
      ".,__": 4410,
      "1__and__": 4411,
      "3][": 4412,
      "Ag": 4413,
      "Ak": 4414,
      "CC": 4415,
      "Del": 4416,
      "Emp": 4417,
      "High__": 4418,
      "Il": 4419,
      "Jim": 4420,
      "Lev": 4421,
      "Mat": 4422,
      "R__": 4423,
      "Rang": 4424,
      "Radio__": 4425,
      "Sim": 4426,
      "dom__": 4427,
      "driv": 4428,
      "dedic": 4429,
      "i__and__": 4430,
      "ious__": 4431,
      "la__": 4432,
      "nd__": 4433,
      "s\"": 4434,
      "s.[2": 4435,
      "t's__": 4436,
      "erc": 4437,
      "ed__their__": 4438,
      "y__(": 4439,
      "along__the__": 4440,
      "in__and__": 4441,
      "on__his__": 4442,
      "church__": 4443,
      "ama__": 4444,
      "ole__": 4445,
      "acti": 4446,
      "atis": 4447,
      "ematic": 4448,
      "ed.__The__": 4449,
      "unc": 4450,
      "hibi": 4451,
      "osoph": 4452,
      "deal__": 4453,
      "track__": 4454,
      "sea__": 4455,
      "parti": 4456,
      "are__the__": 4457,
      "endment__": 4458,
      "ellow": 4459,
      "phas": 4460,
      "players__": 4461,
      "interest__": 4462,
      "peti": 4463,
      "invest": 4464,
      "northern__": 4465,
      "taking__": 4466,
      "joined__": 4467,
      "series__of__": 4468,
      "victory__": 4469,
      "men's__": 4470,
      " mm__(": 4471,
      "Charles__": 4472,
      "approach": 4473,
      "associated__": 4474,
      "competition__": 4475,
      "near__the__": 4476,
      "features__": 4477,
      "along__with__": 4478,
      "Department__of__": 4479,
      "scholar": 4480,
      "kilometres__(": 4481,
      "Pacific__": 4482,
      "Gwyn": 4483,
      "Palmyrene__": 4484,
      "degree__": 4485,
      "Football__": 4486,
      "43": 4487,
      "46": 4488,
      "4][": 4489,
      "55": 4490,
      "6–": 4491,
      "75": 4492,
      "8–": 4493,
      "Oper": 4494,
      "PA": 4495,
      "Paul__": 4496,
      "_\"": 4497,
      "canc": 4498,
      "eastern__": 4499,
      "far__": 4500,
      "federal__": 4501,
      "ial": 4502,
      "ient__": 4503,
      "low__": 4504,
      "look": 4505,
      "mary__": 4506,
      "pi": 4507,
      "rom": 4508,
      "voc": 4509,
      "yr": 4510,
      "y.__The__": 4511,
      "  ": 4512,
      "s__was__": 4513,
      "thous": 4514,
      "erve__": 4515,
      "ed__that__the__": 4516,
      "al-": 4517,
      "and__was__": 4518,
      "step": 4519,
      "to__his__": 4520,
      "iting__": 4521,
      "es__with__": 4522,
      "rock__": 4523,
      "use__of__": 4524,
      "living__": 4525,
      "compl": 4526,
      "or__and__": 4527,
      "tra": 4528,
      ".[11]__": 4529,
      "class__": 4530,
      "ude__": 4531,
      "Chil": 4532,
      "fire__": 4533,
      "Marine__": 4534,
      "presid": 4535,
      "bert__": 4536,
      "achiev": 4537,
      "athematic": 4538,
      "flo": 4539,
      "later,__": 4540,
      "investig": 4541,
      "writing__": 4542,
      "ajor": 4543,
      "college__": 4544,
      ".[1]__He__": 4545,
      "promin": 4546,
      "burg": 4547,
      "organis": 4548,
      "offers__": 4549,
      "water": 4550,
      "Mont": 4551,
      "Service__": 4552,
      "a__member__": 4553,
      "][4]\n": 4554,
      "duce__": 4555,
      "0.0": 4556,
      "respond": 4557,
      "rank__": 4558,
      "Republic__": 4559,
      "daughter": 4560,
      "children": 4561,
      "children__": 4562,
      "fourth__": 4563,
      "Freedom__": 4564,
      "Henry__": 4565,
      "Chicago__": 4566,
      "commerc": 4567,
      "27__": 4568,
      "AF": 4569,
      "Asi": 4570,
      "Eastern__": 4571,
      "Im": 4572,
      "Jer": 4573,
      "Ma": 4574,
      "Mis": 4575,
      "Moun": 4576,
      "O__": 4577,
      "Tig": 4578,
      "Tom__": 4579,
      "a.__The__": 4580,
      "cal": 4581,
      "fam": 4582,
      "hm__": 4583,
      "leng": 4584,
      "pan": 4585,
      "s\n": 4586,
      "s,[": 4587,
      "ts,__": 4588,
      "us__of__": 4589,
      "vot": 4590,
      "}\n": 4591,
      " [": 4592,
      "e__is__": 4593,
      "s__from__the__": 4594,
      "than": 4595,
      "ino__": 4596,
      "institu": 4597,
      "acy__": 4598,
      "ropol": 4599,
      "siz": 4600,
      "edly__": 4601,
      "age__and__": 4602,
      "librar": 4603,
      "died__in__": 4604,
      "earch": 4605,
      "suf": 4606,
      "seat__": 4607,
      "ted__by__the__": 4608,
      "iment": 4609,
      "events__": 4610,
      "ers__of__the__": 4611,
      "aking__": 4612,
      "recent__": 4613,
      "shall__": 4614,
      "2004": 4615,
      "aught__": 4616,
      "Mark": 4617,
      "election": 4618,
      "council__": 4619,
      "decision__": 4620,
      "central__": 4621,
      "10]__": 4622,
      "into__a__": 4623,
      "colon": 4624,
      "numerous__": 4625,
      "medal__": 4626,
      "mater": 4627,
      "south": 4628,
      "Syri": 4629,
      "continued__": 4630,
      "woman__": 4631,
      "program__": 4632,
      "species__of__": 4633,
      "threat": 4634,
      "target": 4635,
      "damage__": 4636,
      "half__": 4637,
      "Minist": 4638,
      "citiz": 4639,
      "ississi": 4640,
      "above__": 4641,
      "Invest": 4642,
      "level__": 4643,
      "same-": 4644,
      "liament__": 4645,
      "which__the__": 4646,
      "Pakist": 4647,
      "Gwynl": 4648,
      "ississipp": 4649,
      "40__": 4650,
      "AB": 4651,
      "Bor": 4652,
      "Bourn__": 4653,
      "C.__": 4654,
      "Fle": 4655,
      "For__": 4656,
      "Law__": 4657,
      "Mag": 4658,
      "May": 4659,
      "Mid": 4660,
      "Mik": 4661,
      "Ros": 4662,
      "Sar": 4663,
      "Sam": 4664,
      "ais": 4665,
      "dou": 4666,
      "far": 4667,
      "hir": 4668,
      "iel": 4669,
      "lin__": 4670,
      "ox": 4671,
      "sail": 4672,
      "selected__": 4673,
      "sacred__": 4674,
      "tun": 4675,
      "ues": 4676,
      "°E﻿__/__": 4677,
      "thod": 4678,
      "ara__": 4679,
      "read__": 4680,
      "ston": 4681,
      ".__G": 4682,
      "chest": 4683,
      "asion__": 4684,
      "forest": 4685,
      "eck": 4686,
      "simp": 4687,
      "his__first__": 4688,
      "his__own__": 4689,
      "'s__first__": 4690,
      "exper": 4691,
      "territ": 4692,
      "ted__to__the__": 4693,
      "ovi": 4694,
      "immedi": 4695,
      "teen": 4696,
      "teen__": 4697,
      "2015__": 4698,
      "Star__": 4699,
      "Stadi": 4700,
      "noted__": 4701,
      "which__he__": 4702,
      "obal__": 4703,
      ".__At__the__": 4704,
      "bert": 4705,
      "s__in__a__": 4706,
      "desp": 4707,
      "ures__": 4708,
      "provinc": 4709,
      "office__": 4710,
      "Class": 4711,
      "Gert__": 4712,
      "color": 4713,
      "operations__": 4714,
      "though": 4715,
      "thought__": 4716,
      "Gret": 4717,
      "Greek__": 4718,
      "case__": 4719,
      "published__in__": 4720,
      "North__Americ": 4721,
      "found__in__": 4722,
      "point__": 4723,
      "limited__": 4724,
      "Corpor": 4725,
      "southern__": 4726,
      "volum": 4727,
      "management__": 4728,
      "senior__": 4729,
      "2019__": 4730,
      "San__Franc": 4731,
      "successful__": 4732,
      "likely__": 4733,
      "training__": 4734,
      "identifi": 4735,
      "Andrew__": 4736,
      "administrative__": 4737,
      "Odaenathus'__": 4738,
      "Electr": 4739,
      "reveal": 4740,
      "Summer__": 4741,
      "ximately__": 4742,
      "lack__of__": 4743,
      "angaon__": 4744,
      "occasion": 4745,
      "activi": 4746,
      "41": 4747,
      "5–": 4748,
      "Au": 4749,
      "Cz": 4750,
      "Camp": 4751,
      "Educ": 4752,
      "Irel": 4753,
      "Key": 4754,
      "Me": 4755,
      "Mas": 4756,
      "Tam": 4757,
      "Wat": 4758,
      "Youn": 4759,
      "ban": 4760,
      "cast": 4761,
      "domin": 4762,
      "duty__": 4763,
      "key__": 4764,
      "l-": 4765,
      "log": 4766,
      "met__": 4767,
      "sell__": 4768,
      "uel__": 4769,
      "thir": 4770,
      "antic__": 4771,
      "ers.__": 4772,
      ",__as__": 4773,
      ",__was__": 4774,
      "entit": 4775,
      "relat": 4776,
      "stated__": 4777,
      "element": 4778,
      "he__had__": 4779,
      "fore__": 4780,
      "force__": 4781,
      "adap": 4782,
      "aged__": 4783,
      "li__": 4784,
      "etr": 4785,
      "conserv": 4786,
      "conven": 4787,
      "conference__": 4788,
      "hael__": 4789,
      "ation__(": 4790,
      ")__was__": 4791,
      "strug": 4792,
      "improv": 4793,
      "tionary__": 4794,
      "ate__of__": 4795,
      "2013": 4796,
      "princ": 4797,
      "shown__": 4798,
      "shot__": 4799,
      "series": 4800,
      "store__": 4801,
      "order__to__": 4802,
      "attend": 4803,
      ".__As__": 4804,
      "prev": 4805,
      "berry__": 4806,
      "draw": 4807,
      "flec": 4808,
      "Common": 4809,
      "they__are__": 4810,
      ".__She__was__": 4811,
      "ist__and__": 4812,
      "e.__In__": 4813,
      "every": 4814,
      "ance__of__": 4815,
      "writer__": 4816,
      "Brand": 4817,
      "politician__": 4818,
      "medical__": 4819,
      "goal": 4820,
      "goal__": 4821,
      "starting__": 4822,
      "population__of__": 4823,
      "ers'__": 4824,
      "began__to__": 4825,
      "Act__": 4826,
      "Museum__": 4827,
      "Isra": 4828,
      "mention": 4829,
      " km__": 4830,
      "renam": 4831,
      "century__": 4832,
      "football": 4833,
      "bridg": 4834,
      "construction__": 4835,
      "services__": 4836,
      "...": 4837,
      "candid": 4838,
      "months__": 4839,
      "responsible__": 4840,
      "total__": 4841,
      "Irish__": 4842,
      "Group__": 4843,
      "performance__": 4844,
      "Division__": 4845,
      "_0\n": 4846,
      "2__and__": 4847,
      "47": 4848,
      "90": 4849,
      "Ash": 4850,
      "Cup": 4851,
      "Found": 4852,
      "Festiv": 4853,
      "GN": 4854,
      "God__": 4855,
      "Ha": 4856,
      "Jul": 4857,
      "Jack": 4858,
      "Leg": 4859,
      "MS": 4860,
      "Mi": 4861,
      "Rog": 4862,
      "Yank": 4863,
      "_[": 4864,
      "_c": 4865,
      "_1\n": 4866,
      "e:__": 4867,
      "eigh": 4868,
      "hour": 4869,
      "hockey__": 4870,
      "ier__": 4871,
      "jap": 4872,
      "led__by__": 4873,
      "mot": 4874,
      "s\"__": 4875,
      "selec": 4876,
      "west": 4877,
      "then": 4878,
      "in-": 4879,
      "inclu": 4880,
      "erly__": 4881,
      "enem": 4882,
      "rel__": 4883,
      "stem": 4884,
      "ing__from__": 4885,
      "itor": 4886,
      "chan": 4887,
      "cham": 4888,
      "an__(": 4889,
      "rock": 4890,
      "adop": 4891,
      "le's__": 4892,
      "agg": 4893,
      "ligh": 4894,
      "liber": 4895,
      "for__its__": 4896,
      "or__of__the__": 4897,
      "deb": 4898,
      "term": 4899,
      "protest": 4900,
      "idence__": 4901,
      "2014,__": 4902,
      "Ind": 4903,
      "illustr": 4904,
      "their__first__": 4905,
      "finally__": 4906,
      "2__to__": 4907,
      "5__to__": 4908,
      "specific__": 4909,
      "North": 4910,
      "ant,__": 4911,
      "crimin": 4912,
      "Fort__": 4913,
      "direct__": 4914,
      "director": 4915,
      "transfer": 4916,
      "match__": 4917,
      "On__the__": 4918,
      "Communic": 4919,
      "student__": 4920,
      "communic": 4921,
      "Austral": 4922,
      "position": 4923,
      "headquarter": 4924,
      "Board__": 4925,
      "Olympic__": 4926,
      "United__States": 4927,
      "________________": 4928,
      "written__by__": 4929,
      "Philipp": 4930,
      "\"__and__\"": 4931,
      "keep": 4932,
      "England": 4933,
      "consists__of__": 4934,
      "Championship": 4935,
      "Shelle": 4936,
      "No.__": 4937,
      "focus": 4938,
      ".[20]__": 4939,
      "text{": 4940,
      "channel__": 4941,
      "adron__": 4942,
      "New__Zealand__": 4943,
      "challeng": 4944,
      "commercial__": 4945,
      "Gwynlly": 4946,
      "_c\n": 4947,
      "\"B": 4948,
      "14,__": 4949,
      "28__": 4950,
      "29__": 4951,
      "4-": 4952,
      "6]__The__": 4953,
      "80": 4954,
      "As": 4955,
      "As__": 4956,
      "Bal": 4957,
      "Bear": 4958,
      "Cal": 4959,
      "Don": 4960,
      "Day__": 4961,
      "Gal": 4962,
      "Game__": 4963,
      "US__": 4964,
      "Ver": 4965,
      "Wall": 4966,
      "X__": 4967,
      "_)\n": 4968,
      "call__": 4969,
      "cast__": 4970,
      "free__": 4971,
      "good": 4972,
      "lad": 4973,
      "mb": 4974,
      "mir": 4975,
      "n't__": 4976,
      "pal": 4977,
      "wan": 4978,
      "°W﻿__/__": 4979,
      "e__a__": 4980,
      "s__by__": 4981,
      "ania": 4982,
      "ales__": 4983,
      "real": 4984,
      "reduc": 4985,
      "resign": 4986,
      "ateg": 4987,
      "of__H": 4988,
      "on__1__": 4989,
      "elop": 4990,
      "ams__": 4991,
      "among__the__": 4992,
      "ologi": 4993,
      "sion,__": 4994,
      "probl": 4995,
      ".[13]\n": 4996,
      ")__in__": 4997,
      "ers__in__": 4998,
      "Star": 4999,
      "Inc": 5000,
      "187": 5001,
      "time": 5002,
      "has__also__": 5003,
      "expec": 5004,
      "find": 5005,
      "1999": 5006,
      "commission": 5007,
      ";__-": 5008,
      "board": 5009,
      "ampion__": 5010,
      "side__the__": 5011,
      "filter__": 5012,
      "knowled": 5013,
      "Norwe": 5014,
      "antas": 5015,
      "mental__": 5016,
      "industri": 5017,
      "Park": 5018,
      "mother": 5019,
      "possib": 5020,
      "16,__": 5021,
      "Forc": 5022,
      "end__of__": 5023,
      "Perc": 5024,
      "change__": 5025,
      "belong": 5026,
      "John": 5027,
      "division__": 5028,
      "there__were__": 5029,
      "diffic": 5030,
      "provides__": 5031,
      "owever,__the__": 5032,
      "students__": 5033,
      "Georg": 5034,
      "Week": 5035,
      "Play": 5036,
      "area__of__": 5037,
      "Techn": 5038,
      "finished__": 5039,
      "Viet": 5040,
      "well-": 5041,
      "journal__": 5042,
      "Singap": 5043,
      "_(\n": 5044,
      "Peop": 5045,
      "Court__": 5046,
      "W﻿__/__﻿": 5047,
      "assistant__": 5048,
      "ospital__": 5049,
      "Stanley__": 5050,
      "folk__": 5051,
      "available__": 5052,
      "Saint__": 5053,
      "River__": 5054,
      "sponsor": 5055,
      "21": 5056,
      "3]__The__": 5057,
      "4__and__": 5058,
      "6.": 5059,
      "89": 5060,
      "At": 5061,
      "Haw": 5062,
      "Jim__": 5063,
      "Ko": 5064,
      "Ku": 5065,
      "Kans": 5066,
      "Kierkega": 5067,
      "MA": 5068,
      "UC": 5069,
      "W__": 5070,
      "]The__": 5071,
      "bon": 5072,
      "cust": 5073,
      "cover__": 5074,
      "c}}": 5075,
      "ees__": 5076,
      "fic__": 5077,
      "fish": 5078,
      "gri": 5079,
      "gard": 5080,
      "past__": 5081,
      "rin": 5082,
      "ran__": 5083,
      "saw__": 5084,
      "ting__the__": 5085,
      "inspir": 5086,
      "ano": 5087,
      "onstr": 5088,
      ",__\"": 5089,
      "arg": 5090,
      "argu": 5091,
      "y__of__the__": 5092,
      "a__b": 5093,
      "ing,__and__": 5094,
      "ster__": 5095,
      ".__\"": 5096,
      "on__and__": 5097,
      "ess__of__": 5098,
      "chap": 5099,
      "action": 5100,
      "ri__": 5101,
      "unit": 5102,
      "2020__": 5103,
      "leagu": 5104,
      "entr": 5105,
      "agou": 5106,
      "died__": 5107,
      "dial": 5108,
      "plan__": 5109,
      ")__of__": 5110,
      "spac": 5111,
      "perman": 5112,
      "percent__": 5113,
      "Chr": 5114,
      "2016__": 5115,
      "word__": 5116,
      "overall__": 5117,
      "Mart": 5118,
      "formerly__": 5119,
      "expan": 5120,
      ":__The__": 5121,
      ".[4]__The__": 5122,
      "feel": 5123,
      "4__to__": 5124,
      "create__": 5125,
      "2021,__": 5126,
      "coast": 5127,
      "8__to__": 5128,
      "remov": 5129,
      "produced__": 5130,
      "Bru": 5131,
      "following__the__": 5132,
      "when__he__": 5133,
      "Dieg": 5134,
      "Spec": 5135,
      "Great__": 5136,
      "complete__": 5137,
      "watch": 5138,
      "child__": 5139,
      "controll": 5140,
      "group__of__": 5141,
      "power__": 5142,
      "royal__": 5143,
      "Coast__": 5144,
      "demonstr": 5145,
      "combat__": 5146,
      "featured__": 5147,
      "studio__": 5148,
      "magaz": 5149,
      "do__not__": 5150,
      ".[2][3]\n": 5151,
      "awarded__the__": 5152,
      "square__": 5153,
      "west__of__": 5154,
      "valu": 5155,
      "insoh": 5156,
      "mid-": 5157,
      "_{\\text{": 5158,
      "Championship__": 5159,
      "Southern__": 5160,
      "Shelley__": 5161,
      "experienc": 5162,
      "physic": 5163,
      "Grand__Fall": 5164,
      "Smith__": 5165,
      "mostly__": 5166,
      "difficul": 5167,
      "_{\\text{c}}": 5168,
      ")[": 5169,
      "2]__The__": 5170,
      "24,__": 5171,
      "37": 5172,
      "99": 5173,
      "Cir": 5174,
      "Den": 5175,
      "Es": 5176,
      "Hill": 5177,
      "PS": 5178,
      "RA": 5179,
      "Sub": 5180,
      "Uk": 5181,
      "VI": 5182,
      "\\,": 5183,
      "bour": 5184,
      "billi": 5185,
      "festiv": 5186,
      "gender__": 5187,
      "ix": 5188,
      "list__": 5189,
      "ness": 5190,
      "o__the__": 5191,
      "rd__": 5192,
      "sourc": 5193,
      "ted": 5194,
      "text__": 5195,
      "zon": 5196,
      "—__": 5197,
      "s__on__the__": 5198,
      "an:__": 5199,
      ",__W": 5200,
      "enberg__": 5201,
      "y__in__": 5202,
      "altern": 5203,
      "ties,__": 5204,
      "a__of__": 5205,
      "ingly__": 5206,
      "standing__": 5207,
      "er__for__": 5208,
      "atter": 5209,
      "itself__": 5210,
      "istic__": 5211,
      "olic__": 5212,
      "ase__": 5213,
      "actions__": 5214,
      "room__": 5215,
      "at__least__": 5216,
      "en__(": 5217,
      "lies__": 5218,
      "conclud": 5219,
      "or__to__the__": 5220,
      "s,__including__": 5221,
      "ted__in__the__": 5222,
      "even": 5223,
      "parish__": 5224,
      "ate__and__": 5225,
      "all-": 5226,
      "Christ": 5227,
      "aff__": 5228,
      "e__of__a__": 5229,
      "2001": 5230,
      "Union__": 5231,
      "branch": 5232,
      "time__of__": 5233,
      "aug": 5234,
      "ished__": 5235,
      "for__the__first__": 5236,
      "storm__": 5237,
      "but__was__": 5238,
      "who__was__": 5239,
      "atten": 5240,
      "et__(": 5241,
      "name,__": 5242,
      "draf": 5243,
      "Commission__": 5244,
      "know__": 5245,
      "ities__": 5246,
      "genital__": 5247,
      "anta__": 5248,
      ".[5][": 5249,
      ".[6][": 5250,
      "centr": 5251,
      "officially__": 5252,
      "modi": 5253,
      "Colum": 5254,
      ".__These__": 5255,
      "primary__": 5256,
      "portun": 5257,
      "opening__": 5258,
      "million": 5259,
      " mm": 5260,
      "generally__": 5261,
      "announced__that__": 5262,
      "could__be__": 5263,
      "notable__": 5264,
      "approximately__": 5265,
      "location__article__is__a__stub.__You__can__help__Wikipedia__by__expanding__it.\n": 5266,
      "programm": 5267,
      "retire": 5268,
      "explain": 5269,
      "_{0": 5270,
      "standard__": 5271,
      "total__of__": 5272,
      "nearby__": 5273,
      "sports__": 5274,
      "Graham__": 5275,
      "language__": 5276,
      "Government__": 5277,
      "Director": 5278,
      "separate__": 5279,
      "discus": 5280,
      "Provinc": 5281,
      "whether__": 5282,
      "franchis": 5283,
      "Winter__": 5284,
      "rather__than__": 5285,
      "Florid": 5286,
      "Hofstadter__": 5287,
      "piec": 5288,
      "prominent__": 5289,
      "famous__": 5290,
      "suffer": 5291,
      "(N": 5292,
      "/98": 5293,
      "56": 5294,
      "63": 5295,
      "Cri": 5296,
      "ER": 5297,
      "Fox__": 5298,
      "Ham": 5299,
      "Hall__": 5300,
      "Huck": 5301,
      "Id": 5302,
      "If__": 5303,
      "Jon": 5304,
      "LS": 5305,
      "Lad": 5306,
      "Lanc": 5307,
      "Mad": 5308,
      "Not": 5309,
      "Os": 5310,
      "Ray": 5311,
      "River": 5312,
      "Sk": 5313,
      "Sup": 5314,
      "Town": 5315,
      "_In": 5316,
      "bal": 5317,
      "dy__": 5318,
      "e\n": 5319,
      "e.[1": 5320,
      "farm": 5321,
      "fellow__": 5322,
      "happ": 5323,
      "ians__": 5324,
      "mic": 5325,
      "nuc": 5326,
      "ois__": 5327,
      "pian": 5328,
      "sn": 5329,
      "sell": 5330,
      "sound": 5331,
      "ufac": 5332,
      "wal": 5333,
      "wing__": 5334,
      "thes": 5335,
      "arian__": 5336,
      "always__": 5337,
      "rey__": 5338,
      "ingu": 5339,
      "stag": 5340,
      "starr": 5341,
      ".__From__": 5342,
      "ic__and__": 5343,
      "on__to__": 5344,
      "chos": 5345,
      "asp": 5346,
      "assum": 5347,
      "th__in__the__": 5348,
      "let__": 5349,
      "opportun": 5350,
      "andy": 5351,
      "plant__": 5352,
      "plant": 5353,
      "ations__of__": 5354,
      ".[14]\n": 5355,
      "but": 5356,
      "sport": 5357,
      "ident__": 5358,
      "tions__and__": 5359,
      "2012": 5360,
      "2015,__": 5361,
      "Stor": 5362,
      "2005": 5363,
      "2009__": 5364,
      "180": 5365,
      "compil": 5366,
      "au__": 5367,
      "years.__": 5368,
      "Arm": 5369,
      "mark__": 5370,
      "command__": 5371,
      "latter__": 5372,
      ",[3]__": 5373,
      "2023,__": 5374,
      "rais": 5375,
      "countri": 5376,
      "centre__": 5377,
      "guit": 5378,
      "structure": 5379,
      ".[7][": 5380,
      "historian__": 5381,
      "number": 5382,
      "Persian__": 5383,
      "acces": 5384,
      "Indian": 5385,
      "days__": 5386,
      "father,__": 5387,
      "iez": 5388,
      "30,__": 5389,
      "Committe": 5390,
      "victor": 5391,
      "back__to__": 5392,
      "Police__": 5393,
      "continued__to__": 5394,
      "as__well__as__the__": 5395,
      "distinc": 5396,
      "Research__": 5397,
      "frequently__": 5398,
      "2020,__": 5399,
      "ccording__to__the__": 5400,
      "sometimes__": 5401,
      "decided__to__": 5402,
      "favor": 5403,
      "E﻿__/__﻿": 5404,
      "Washington__": 5405,
      "economic__": 5406,
      "Chief__": 5407,
      "subsequently__": 5408,
      "Spanish__": 5409,
      "financial__": 5410,
      "Illin": 5411,
      "Norwegian__": 5412,
      "/98\t": 5413,
      "49": 5414,
      "85": 5415,
      "Bre": 5416,
      "Cros": 5417,
      "Feder": 5418,
      "Hor": 5419,
      "Hel": 5420,
      "Hol": 5421,
      "Jangaon__": 5422,
      "Lit": 5423,
      "Sa": 5424,
      "St__": 5425,
      "Sol": 5426,
      "Ul": 5427,
      "Wood": 5428,
      "_G": 5429,
      "eu": 5430,
      "fill": 5431,
      "gan": 5432,
      "ior": 5433,
      "i\\omega__": 5434,
      "nag": 5435,
      "nearly__": 5436,
      "oth__": 5437,
      "pun": 5438,
      "swe": 5439,
      "đans": 5440,
      "″W﻿__/__﻿": 5441,
      "this,__": 5442,
      "arrest": 5443,
      "a__\"": 5444,
      "ing.\n": 5445,
      "as__he__": 5446,
      "omed": 5447,
      "elig": 5448,
      "esh": 5449,
      "ask__": 5450,
      "oppos": 5451,
      "concep": 5452,
      "exam": 5453,
      "ay,__": 5454,
      "strong__": 5455,
      "tions__of__": 5456,
      "part__": 5457,
      "tegr": 5458,
      "akh": 5459,
      "2012__": 5460,
      "2018,__": 5461,
      "eph__": 5462,
      "i__(": 5463,
      "Marc": 5464,
      "storm": 5465,
      "their__own__": 5466,
      "who__had__": 5467,
      "e__and__the__": 5468,
      "essor__of__": 5469,
      "phen": 5470,
      "ney": 5471,
      "ant__to__": 5472,
      "specific": 5473,
      "2022": 5474,
      "2021__": 5475,
      "antly__": 5476,
      "airport__": 5477,
      "ment,__": 5478,
      "would__have__": 5479,
      "based__in__": 5480,
      "intend": 5481,
      "crip": 5482,
      "Conn": 5483,
      "While__": 5484,
      "capit": 5485,
      "son's__": 5486,
      "historical__": 5487,
      "Liber": 5488,
      "Juli": 5489,
      "promot": 5490,
      "_His__": 5491,
      "ieu": 5492,
      "variety__of__": 5493,
      "atory__": 5494,
      "study__": 5495,
      "professor__": 5496,
      "Edward__": 5497,
      "metres__(": 5498,
      "building__was__": 5499,
      "\",__\"": 5500,
      "Health__": 5501,
      "organization__": 5502,
      "Switz": 5503,
      "approach__": 5504,
      ".__For__": 5505,
      "th-century__": 5506,
      "San__Dieg": 5507,
      "destroyer__": 5508,
      "philosoph": 5509,
      "killed__": 5510,
      "wrot": 5511,
      "association__": 5512,
      "Joseph__": 5513,
      "District__": 5514,
      "across__": 5515,
      "House__": 5516,
      "most__of__": 5517,
      "network__": 5518,
      "World__War__II": 5519,
      "Second__": 5520,
      "model": 5521,
      "championship__": 5522,
      "faith__": 5523,
      "should__be__": 5524,
      "Virginia__": 5525,
      "McClung__": 5526,
      "multiple__": 5527,
      "shortly__": 5528,
      "relationship__": 5529,
      "machine__": 5530,
      "Keywords__": 5531,
      "Young__": 5532,
      "Switzer": 5533,
      "-related__": 5534,
      "1}": 5535,
      "11,__": 5536,
      "59": 5537,
      "Ap": 5538,
      "CD": 5539,
      "Cab": 5540,
      "Duk": 5541,
      "Hind": 5542,
      "Jud": 5543,
      "ME": 5544,
      "Mel": 5545,
      "Nig": 5546,
      "Ru": 5547,
      "Squ": 5548,
      "Sovi": 5549,
      "Tel": 5550,
      "Tour": 5551,
      "Tour__": 5552,
      "Tenn": 5553,
      "by": 5554,
      "bot": 5555,
      "food__": 5556,
      "lec": 5557,
      "led__the__": 5558,
      "ma": 5559,
      "nam__": 5560,
      "oz": 5561,
      "pick": 5562,
      "ul__": 5563,
      "anth": 5564,
      "onic": 5565,
      "onal__": 5566,
      "onic__": 5567,
      "t__was__": 5568,
      "or__the__": 5569,
      "enough__": 5570,
      "ary,__": 5571,
      "ed__up__": 5572,
      "stood__": 5573,
      "state": 5574,
      "as__and__": 5575,
      "ata__": 5576,
      "ated": 5577,
      "in__K": 5578,
      "on__(": 5579,
      "is__un": 5580,
      "it,__": 5581,
      "item": 5582,
      "ilic": 5583,
      "church": 5584,
      "es__by__": 5585,
      "istic": 5586,
      "ashi": 5587,
      "atives__": 5588,
      "rot": 5589,
      "congenital__": 5590,
      "le__and__": 5591,
      "exerc": 5592,
      "de,__": 5593,
      "proto": 5594,
      "prote": 5595,
      "se,__": 5596,
      "seem": 5597,
      "ity__and__": 5598,
      "2010__": 5599,
      "2016,__": 5600,
      "pron": 5601,
      "shoo": 5602,
      "nother__": 5603,
      "183": 5604,
      "giv": 5605,
      "ports__": 5606,
      "ute__": 5607,
      "Under": 5608,
      "its__first__": 5609,
      "auth": 5610,
      "years__of__": 5611,
      "1995": 5612,
      "diseas": 5613,
      "not__be__": 5614,
      "encoun": 5615,
      "have__a__": 5616,
      "ence__and__": 5617,
      "6__to__": 5618,
      "2024": 5619,
      "month__": 5620,
      "aim__": 5621,
      "industr": 5622,
      "Parliament__": 5623,
      "works__": 5624,
      "means__": 5625,
      "1980": 5626,
      "Conference__": 5627,
      "rown": 5628,
      "surnam": 5629,
      "structur": 5630,
      "regiment__": 5631,
      "movement__": 5632,
      "made__his__": 5633,
      "grew__": 5634,
      "require": 5635,
      "Orchestr": 5636,
      "ieve__": 5637,
      "provided__": 5638,
      "child": 5639,
      "%__of__": 5640,
      "summ": 5641,
      "volunte": 5642,
      "Gener": 5643,
      "state__of__": 5644,
      "Street": 5645,
      "agreement__": 5646,
      "cyc": 5647,
      "retired__": 5648,
      "advanc": 5649,
      "th__century": 5650,
      "contains__": 5651,
      "Socialist__": 5652,
      "Građans": 5653,
      "graduated__": 5654,
      "College__of__": 5655,
      "broadcast": 5656,
      "Military__": 5657,
      "property__": 5658,
      "recogniz": 5659,
      "example,__": 5660,
      "abbi__": 5661,
      "Democratic__": 5662,
      "fifth__": 5663,
      "video__": 5664,
      "university__": 5665,
      "circ": 5666,
      "urban__": 5667,
      "a__member__of__the__": 5668,
      "than__the__": 5669,
      ".D": 5670,
      "12]__": 5671,
      "26__": 5672,
      "29,__": 5673,
      "45": 5674,
      "7–": 5675,
      "Bul": 5676,
      "Cow": 5677,
      "Cost": 5678,
      "FI": 5679,
      "Mississipp": 5680,
      "Other__": 5681,
      "Osc": 5682,
      "Slov": 5683,
      "Sultan": 5684,
      "To__": 5685,
      "V__": 5686,
      "Wel": 5687,
      "^{": 5688,
      "_It__": 5689,
      "_During__": 5690,
      "bear": 5691,
      "car__": 5692,
      "cut": 5693,
      "dark__": 5694,
      "gall": 5695,
      "job__": 5696,
      "ka__": 5697,
      "list__of__": 5698,
      "may": 5699,
      "major": 5700,
      "pil": 5701,
      "rural__": 5702,
      "saw": 5703,
      "t.\n": 5704,
      "u,__": 5705,
      "y\"__": 5706,
      "thr": 5707,
      "inem": 5708,
      "integr": 5709,
      "ante": 5710,
      "er.\n": 5711,
      "er,__and__": 5712,
      "orchestr": 5713,
      "ality": 5714,
      "o__(": 5715,
      "ings,__": 5716,
      "states__": 5717,
      "ating__the__": 5718,
      "in__L": 5719,
      "in__an__": 5720,
      "ing__on__": 5721,
      "ing__her__": 5722,
      "urmag": 5723,
      "adul": 5724,
      "sig": 5725,
      "entry__": 5726,
      "ages__": 5727,
      "version": 5728,
      "verse__": 5729,
      "exc": 5730,
      "for__her__": 5731,
      "haf": 5732,
      "ation__to__": 5733,
      "tra__": 5734,
      ".[12]__": 5735,
      ".[15]__": 5736,
      ")__and__the__": 5737,
      "e,__which__": 5738,
      "quick": 5739,
      "ers__(": 5740,
      "ers__are__": 5741,
      "ember,__": 5742,
      "ends__": 5743,
      "2013__": 5744,
      "St.__": 5745,
      "share__": 5746,
      "ed__to__a__": 5747,
      "2003": 5748,
      "200__": 5749,
      ".[2]__The__": 5750,
      "word": 5751,
      "composi": 5752,
      "manufac": 5753,
      "award__": 5754,
      ".[3][": 5755,
      "fire": 5756,
      "ard,__": 5757,
      "year-": 5758,
      "ies__and__": 5759,
      "final": 5760,
      "1990": 5761,
      "pharm": 5762,
      "contro": 5763,
      "contem": 5764,
      "county__": 5765,
      "Party": 5766,
      "Enter": 5767,
      "meet__": 5768,
      "producer__": 5769,
      "1970": 5770,
      "him__to__": 5771,
      "ensus": 5772,
      "norm": 5773,
      "northe": 5774,
      "Canada,__": 5775,
      "India": 5776,
      "buri": 5777,
      "day,__": 5778,
      "published__by__": 5779,
      "designated__": 5780,
      "joint__": 5781,
      "certain__": 5782,
      "venue__": 5783,
      "since__the__": 5784,
      "student": 5785,
      "contract__": 5786,
      "Shaw__": 5787,
      "Sylv": 5788,
      "named__after__": 5789,
      "2019,__": 5790,
      "personal__": 5791,
      "considered__": 5792,
      "deliver": 5793,
      "promoted__to__": 5794,
      "occer__": 5795,
      "response__": 5796,
      "Brook": 5797,
      "existing__": 5798,
      ".__When__": 5799,
      "window": 5800,
      "concern": 5801,
      "Krehm__": 5802,
      "Battle__of__": 5803,
      "Group": 5804,
      "Institute__of__": 5805,
      "isco__": 5806,
      "North__Carolina__": 5807,
      "ellig": 5808,
      "islative__": 5809,
      "according__to__": 5810,
      "schedul": 5811,
      "Civil__": 5812,
      "September ": 5813,
      "alongside__": 5814,
      "though__the__": 5815,
      "Ukrain": 5816,
      "urmagomed": 5817,
      "-based__": 5818,
      "13,__": 5819,
      "23,__": 5820,
      "3-": 5821,
      "31__": 5822,
      "58": 5823,
      "94": 5824,
      "Af": 5825,
      "Ath": 5826,
      "At__the__": 5827,
      "Braz": 5828,
      "Dani": 5829,
      "Fer": 5830,
      "Federal__": 5831,
      "Hu": 5832,
      "H__": 5833,
      "Hans": 5834,
      "Harr": 5835,
      "Hung": 5836,
      "Huck__": 5837,
      "Hockey__": 5838,
      "Long": 5839,
      "Lake__": 5840,
      "Net": 5841,
      "Pres": 5842,
      "Tak": 5843,
      "_→": 5844,
      "ben": 5845,
      "cam": 5846,
      "care__": 5847,
      "dri": 5848,
      "dle__": 5849,
      "done__": 5850,
      "dyn": 5851,
      "hur": 5852,
      "kep": 5853,
      "nin": 5854,
      "nar": 5855,
      "o's__": 5856,
      "psych": 5857,
      "s)__": 5858,
      "uter__": 5859,
      "yet__": 5860,
      "e__on__": 5861,
      "ina": 5862,
      "inical__": 5863,
      "onau": 5864,
      "enj": 5865,
      "entitled__": 5866,
      "aragu": 5867,
      "y__to__": 5868,
      "ston__": 5869,
      "ato__": 5870,
      "ated,__": 5871,
      "ing__with__": 5872,
      "is__now__": 5873,
      "itan__": 5874,
      "ession__": 5875,
      "ch,__": 5876,
      "iss__": 5877,
      "ison__": 5878,
      "foreign__": 5879,
      "rob": 5880,
      "advis": 5881,
      "units__": 5882,
      "le-": 5883,
      "whit": 5884,
      "abil": 5885,
      "dig": 5886,
      "open__": 5887,
      "appoint": 5888,
      ",__and__a__": 5889,
      "hair": 5890,
      "ation__for__": 5891,
      "ations": 5892,
      ".[16]\n": 5893,
      "spo": 5894,
      "ated__at__": 5895,
      "strum": 5896,
      "identit": 5897,
      "it__to__": 5898,
      "2017__": 5899,
      "ed__by__his__": 5900,
      "18,__": 5901,
      "deriv": 5902,
      ".[3]__The__": 5903,
      "fication__": 5904,
      "wealth__": 5905,
      "Mari": 5906,
      "observ": 5907,
      "ies__of__": 5908,
      "shif": 5909,
      "preme__": 5910,
      "Anti": 5911,
      "upper__": 5912,
      "Commission": 5913,
      "France__": 5914,
      "spectr": 5915,
      "species": 5916,
      "pression__": 5917,
      "declin": 5918,
      "critical__": 5919,
      "move__": 5920,
      "15,__": 5921,
      "subst": 5922,
      "surround": 5923,
      "17,__": 5924,
      "ights__": 5925,
      "Branch__": 5926,
      "capac": 5927,
      "link": 5928,
      "history": 5929,
      "Force__": 5930,
      "Lif": 5931,
      "such__as__the__": 5932,
      "promp": 5933,
      "promis": 5934,
      "placed__": 5935,
      "access__": 5936,
      "cases__": 5937,
      "appearance__": 5938,
      "Produc": 5939,
      "requir": 5940,
      "complex__": 5941,
      "full-": 5942,
      "making__": 5943,
      "rich__": 5944,
      "Command__": 5945,
      "provide__": 5946,
      "providing__": 5947,
      "Servic": 5948,
      "market__": 5949,
      "%__of__the__": 5950,
      "established__": 5951,
      "women's__": 5952,
      "newly__": 5953,
      "villag": 5954,
      "themsel": 5955,
      "break": 5956,
      "post-": 5957,
      "espite__": 5958,
      "battali": 5959,
      "Naval__": 5960,
      "speech__": 5961,
      "Queen__": 5962,
      "Revolu": 5963,
      "_There__": 5964,
      "prison": 5965,
      "Theat": 5966,
      "wife__": 5967,
      "Kreis__": 5968,
      "campaign": 5969,
      "California": 5970,
      "clear": 5971,
      "civil__": 5972,
      "three-star__": 5973,
      "scientific__": 5974,
      "younger__": 5975,
      "rights__": 5976,
      "Kalen": 5977,
      "suppli": 5978,
      "classi": 5979,
      "first-": 5980,
      "Charlie__": 5981,
      "Nicaragu": 5982,
      "include": 5983,
      "Soviet__": 5984,
      "_→\n": 5985,
      ");__": 5986,
      "1]__The__": 5987,
      "2-": 5988,
      "22,__": 5989,
      "28,__": 5990,
      "57": 5991,
      "64": 5992,
      "79": 5993,
      "8]__The__": 5994,
      "Aer": 5995,
      "At__": 5996,
      "Aff": 5997,
      "Cast": 5998,
      "Dut": 5999,
      "Gol": 6000,
      "IT": 6001,
      "Iran": 6002,
      "Pad": 6003,
      "Rh": 6004,
      "Ram": 6005,
      "Rock": 6006,
      "Som": 6007,
      "Spr": 6008,
      "Way": 6009,
      "\\to__": 6010,
      "bill": 6011,
      "dge__": 6012,
      "fish__": 6013,
      "hl": 6014,
      "hem": 6015,
      "media__": 6016,
      "ni": 6017,
      "nine__": 6018,
      "pic": 6019,
      "phi": 6020,
      "pay": 6021,
      "sli": 6022,
      "tou": 6023,
      "”__": 6024,
      "inal__": 6025,
      "ines__": 6026,
      "inist": 6027,
      "an-": 6028,
      "antic": 6029,
      "ary": 6030,
      "al's__": 6031,
      "tist__": 6032,
      "real__": 6033,
      "reflec": 6034,
      "a__K": 6035,
      "o__B": 6036,
      "in__T": 6037,
      "in__which__": 6038,
      "ic,__": 6039,
      "ics,__": 6040,
      "on__September__": 6041,
      "esh__": 6042,
      "es'__": 6043,
      "es__from__the__": 6044,
      ".[note__": 6045,
      "he__is__": 6046,
      "urs": 6047,
      "atively__": 6048,
      "adj": 6049,
      "ad,__": 6050,
      "owever__": 6051,
      "whole__": 6052,
      "agon": 6053,
      "conf": 6054,
      "coming__": 6055,
      "plat": 6056,
      "ation__in__the__": 6057,
      "ation__with__": 6058,
      "ation.\n": 6059,
      "ations__and__": 6060,
      "s,__but__": 6061,
      ".[12]\n": 6062,
      ".[15]\n": 6063,
      "allel": 6064,
      "allow__": 6065,
      "avo": 6066,
      "2014": 6067,
      "mani__": 6068,
      "ipal__": 6069,
      "ishop__": 6070,
      "fight__": 6071,
      "weight__": 6072,
      "at__the__age__of__": 6073,
      "formed__": 6074,
      "therap": 6075,
      "ug__": 6076,
      "attack__": 6077,
      "section__": 6078,
      "ousins__": 6079,
      "Norway__": 6080,
      "miles__(": 6081,
      "s__to__be__": 6082,
      "Wikim": 6083,
      "offici": 6084,
      "row__": 6085,
      "Columb": 6086,
      "structure__": 6087,
      "river__": 6088,
      "arrang": 6089,
      "engag": 6090,
      "medic": 6091,
      "April": 6092,
      "October": 6093,
      "himself": 6094,
      "off__the__": 6095,
      "ate/": 6096,
      "Command": 6097,
      "York": 6098,
      "small": 6099,
      "through__a__": 6100,
      "left__the__": 6101,
      "English": 6102,
      "Shah": 6103,
      "recorded__": 6104,
      "issue__": 6105,
      "Plac": 6106,
      "author),__": 6107,
      "long-": 6108,
      "status__": 6109,
      "honor": 6110,
      "took__place__": 6111,
      "referred__to__": 6112,
      "equip": 6113,
      "damag": 6114,
      "head__coach__": 6115,
      "retary__": 6116,
      "frequency__": 6117,
      "birth": 6118,
      "All-": 6119,
      "House__of__": 6120,
      "influenc": 6121,
      "Louis__": 6122,
      "ospit": 6123,
      "self-": 6124,
      "scientist": 6125,
      "McClung": 6126,
      "troop": 6127,
      "widely__": 6128,
      "emorial__": 6129,
      "eshiv": 6130,
      "Turk": 6131,
      "railway__": 6132,
      "immediately__": 6133,
      "Summer__Olympic": 6134,
      "chosen__": 6135,
      "Affair": 6136,
      "\".\n": 6137,
      ".4": 6138,
      "0]\n": 6139,
      "1-": 6140,
      "12,__": 6141,
      "13]__": 6142,
      "87": 6143,
      "=\n": 6144,
      "Bost": 6145,
      "Cann": 6146,
      "Candy": 6147,
      "De__": 6148,
      "DC__": 6149,
      "Fri": 6150,
      "GB": 6151,
      "Gar": 6152,
      "Hear": 6153,
      "Mr": 6154,
      "Major__": 6155,
      "O'": 6156,
      "Pot": 6157,
      "Rou": 6158,
      "Sl": 6159,
      "Sn": 6160,
      "Str": 6161,
      "_Mar": 6162,
      "_=\n": 6163,
      "ather": 6164,
      "ez": 6165,
      "e\"__": 6166,
      "eball__": 6167,
      "gan__": 6168,
      "han__": 6169,
      "hus": 6170,
      "kind__": 6171,
      "ler__": 6172,
      "mel": 6173,
      "mol": 6174,
      "mud": 6175,
      "ness__": 6176,
      "rat": 6177,
      "roll": 6178,
      "sof": 6179,
      "uch__": 6180,
      "wit": 6181,
      "wall": 6182,
      "wrest": 6183,
      "{i\\omega__": 6184,
      "s__have__": 6185,
      "ined__": 6186,
      "inaug": 6187,
      "instrum": 6188,
      "onym": 6189,
      "ed__\"": 6190,
      "y__was__": 6191,
      "alg": 6192,
      "alleg": 6193,
      "recomm": 6194,
      "a__P": 6195,
      "stay__": 6196,
      "stations__": 6197,
      "stop__": 6198,
      "on__November__": 6199,
      "elements__": 6200,
      "ili": 6201,
      "an__un": 6202,
      "isph": 6203,
      "ford": 6204,
      "forward__": 6205,
      "actor__": 6206,
      "19,__": 6207,
      "unt": 6208,
      "agric": 6209,
      "k__and__": 6210,
      "etwe": 6211,
      "aband": 6212,
      "apol": 6213,
      "apur__": 6214,
      "conv": 6215,
      "oslav": 6216,
      "exhibi": 6217,
      "ull__": 6218,
      ".[18]__": 6219,
      ".[16]__": 6220,
      ")__is__": 6221,
      ")__to__": 6222,
      "strong": 6223,
      "streng": 6224,
      "ide__": 6225,
      "it__the__": 6226,
      "parents__": 6227,
      "Chop": 6228,
      "2018__": 6229,
      "shut": 6230,
      "_The__first__": 6231,
      "2008__": 6232,
      "man,__": 6233,
      "also__known__as__": 6234,
      "scal": 6235,
      "ival": 6236,
      "express": 6237,
      "Art__": 6238,
      "1998": 6239,
      "comment": 6240,
      "minor__": 6241,
      "),__a__": 6242,
      "name__of__": 6243,
      ".__He__also__": 6244,
      "Comics__": 6245,
      "filter": 6246,
      "intern": 6247,
      "reless__": 6248,
      "province__": 6249,
      "toral__": 6250,
      "based__on__the__": 6251,
      "where__it__": 6252,
      "better__": 6253,
      "guar": 6254,
      "Whit": 6255,
      "Bry": 6256,
      "faciliti": 6257,
      "released__in__": 6258,
      "operating__": 6259,
      "north-": 6260,
      "popular": 6261,
      "exten": 6262,
      "extrem": 6263,
      "burgh__": 6264,
      "partner": 6265,
      "land__and__": 6266,
      "request": 6267,
      "visual__": 6268,
      "there__is__": 6269,
      "Prince__": 6270,
      ".[9][": 6271,
      "cerem": 6272,
      "venu": 6273,
      "till": 6274,
      "Centre__": 6275,
      "Elf": 6276,
      "ulture": 6277,
      "&__W": 6278,
      "racial__": 6279,
      "listed__": 6280,
      "][4][": 6281,
      "South__Afric": 6282,
      "brief": 6283,
      "constructed__": 6284,
      "personn": 6285,
      "temporary__": 6286,
      "Twain__": 6287,
      "location__article__is__a__stub.__You__can__help__Wikipedia__by__expanding__it.": 6288,
      "squadron__": 6289,
      "NHL": 6290,
      "four-": 6291,
      "half": 6292,
      ".[8][": 6293,
      "attempt__to__": 6294,
      "version__of__the__": 6295,
      "influence__": 6296,
      "categ": 6297,
      "lower__": 6298,
      "faith": 6299,
      "Washington,__": 6300,
      "Airport__": 6301,
      "conducted__": 6302,
      "-inch__": 6303,
      "groves__": 6304,
      "reason": 6305,
      "{\\omega___{0": 6306,
      "Weinberg__": 6307,
      "Weinberg": 6308,
      "Los__Angeles__": 6309,
      "chairman__": 6310,
      "earlier__": 6311,
      "neighbor": 6312,
      "same-sex__": 6313,
      "relating__to__": 6314,
      "motor": 6315,
      "expansion__": 6316,
      "sign__": 6317,
      "manufactur": 6318,
      "hemisph": 6319,
      ")[1]__": 6320,
      "2nd__": 6321,
      "4th__": 6322,
      "BC": 6323,
      "Cro": 6324,
      "Coll": 6325,
      "Def": 6326,
      "Econ": 6327,
      "Fiel": 6328,
      "Jr": 6329,
      "Jef": 6330,
      "Justic": 6331,
      "Lak": 6332,
      "Mur": 6333,
      "Mass": 6334,
      "Native__": 6335,
      "West": 6336,
      "WC__": 6337,
      "_k": 6338,
      "_From__": 6339,
      "bit": 6340,
      "card__": 6341,
      "cultur": 6342,
      "e.[3": 6343,
      "fat": 6344,
      "fought__": 6345,
      "ij": 6346,
      "i's__": 6347,
      "kin": 6348,
      "ma__": 6349,
      "mathematic": 6350,
      "non": 6351,
      "pon": 6352,
      "ry": 6353,
      "s\t": 6354,
      "sour": 6355,
      "s.[1]\n": 6356,
      "s,__and__the__": 6357,
      "save__": 6358,
      "slight": 6359,
      "tend": 6360,
      "told__": 6361,
      "tax": 6362,
      "tomb": 6363,
      "xand": 6364,
      "e__that__": 6365,
      "thu": 6366,
      "int__": 6367,
      "ink__": 6368,
      "inscrip": 6369,
      "ani__": 6370,
      "onder": 6371,
      "t__for__": 6372,
      "t__that__": 6373,
      "enk": 6374,
      "als__in__": 6375,
      "tivel": 6376,
      "rev": 6377,
      "a__M": 6378,
      "and__S": 6379,
      "staff__": 6380,
      "in__April__": 6381,
      "of__T": 6382,
      "on__October__": 6383,
      "to__have__": 6384,
      "elin": 6385,
      "escap": 6386,
      "champion__": 6387,
      "es__to__the__": 6388,
      "amendment__": 6389,
      "urg": 6390,
      "aci": 6391,
      "ed,__the__": 6392,
      "ley": 6393,
      "legi": 6394,
      "using__the__": 6395,
      "used__in__": 6396,
      "appe": 6397,
      "oss": 6398,
      "os,__": 6399,
      "devo": 6400,
      "ation.__The__": 6401,
      "seven": 6402,
      ".[13]__": 6403,
      "strateg": 6404,
      "evidence__": 6405,
      "ally": 6406,
      "grade__": 6407,
      "peror__": 6408,
      "ts__the__": 6409,
      "2018": 6410,
      "2013,__": 6411,
      "shop": 6412,
      "shire__": 6413,
      "2000__": 6414,
      "2009,__": 6415,
      "also__the__": 6416,
      "giving__": 6417,
      "man's__": 6418,
      "all__of__": 6419,
      "fix": 6420,
      "__coun": 6421,
      "web": 6422,
      "objec": 6423,
      "expres": 6424,
      "Art": 6425,
      "shire": 6426,
      "1997": 6427,
      "1999__": 6428,
      "ugoslav": 6429,
      ".__An": 6430,
      "minor": 6431,
      "secu": 6432,
      "desc": 6433,
      "upd": 6434,
      "in__193": 6435,
      "2022__": 6436,
      "peak": 6437,
      "cost": 6438,
      "coach": 6439,
      "ell__Creek__": 6440,
      "intell": 6441,
      "center__": 6442,
      "black": 6443,
      "10,__": 6444,
      "White__": 6445,
      "aily__": 6446,
      "organ__": 6447,
      "bio": 6448,
      "poss": 6449,
      "tions__of__the__": 6450,
      "released__on__": 6451,
      "musical__": 6452,
      "Librar": 6453,
      "colleg": 6454,
      "1950": 6455,
      "cray": 6456,
      "skill": 6457,
      "ers.\n": 6458,
      "Trans": 6459,
      "continue__": 6460,
      "returned__to__the__": 6461,
      "Monter": 6462,
      "higher__": 6463,
      "highly__": 6464,
      "ators__": 6465,
      "remaining__": 6466,
      "Manag": 6467,
      "pursu": 6468,
      "ement,__": 6469,
      "opened__in__": 6470,
      "Shahi__": 6471,
      "oppon": 6472,
      "Syd": 6473,
      "village__of__": 6474,
      "referend": 6475,
      "typically__": 6476,
      "initial__": 6477,
      "acquir": 6478,
      "acquisi": 6479,
      "acquired__": 6480,
      "others__": 6481,
      "entered__the__": 6482,
      "larger__": 6483,
      "ink-": 6484,
      "Walter__": 6485,
      "said__that__": 6486,
      "artist__": 6487,
      "District,__": 6488,
      "Finn__": 6489,
      "towards__": 6490,
      "Historic__": 6491,
      "Steph": 6492,
      "criticiz": 6493,
      "meeting__": 6494,
      "literary__": 6495,
      "_When__": 6496,
      "temperature__": 6497,
      "Award__for__": 6498,
      "president__of__the__": 6499,
      "return__to__": 6500,
      "{\\omega___{\\text{c}}": 6501,
      "Ahmad": 6502,
      "licens": 6503,
      "Wind__Mobile__": 6504,
      "potential__": 6505,
      "incorporated__": 6506,
      "shaped__": 6507,
      "Highway__": 6508,
      "newspaper__": 6509,
      "e.g": 6510,
      "United__Kingdom": 6511,
      "academic__": 6512,
      "photograph": 6513,
      "Levinsoh": 6514,
      "ropolitan__": 6515,
      "despite__": 6516,
      "San__Francisco__": 6517,
      "Australia__": 6518,
      "elopment__": 6519,
      "Special__": 6520,
      "_k\n": 6521,
      "-h": 6522,
      ".A": 6523,
      "4]__The__": 6524,
      "7]__The__": 6525,
      "AC": 6526,
      "Az": 6527,
      "An__": 6528,
      "CS": 6529,
      "Day": 6530,
      "Ey": 6531,
      "El__": 6532,
      "Fur": 6533,
      "Free__": 6534,
      "Hill__": 6535,
      "IT__": 6536,
      "Lo": 6537,
      "ND": 6538,
      "Nas": 6539,
      "Naz": 6540,
      "Ric": 6541,
      "Red": 6542,
      "Zh": 6543,
      "[3]__": 6544,
      "_V": 6545,
      "_During__the__": 6546,
      "ather__": 6547,
      "fer__": 6548,
      "fan__": 6549,
      "fear": 6550,
      "gold__": 6551,
      "ju": 6552,
      "landing__": 6553,
      "laid__": 6554,
      "mal": 6555,
      "mand": 6556,
      "paid__": 6557,
      "pass__": 6558,
      "ring": 6559,
      "radi": 6560,
      "sq": 6561,
      "table__": 6562,
      "ue": 6563,
      "youth__": 6564,
      " °": 6565,
      "öck": 6566,
      "th__the__": 6567,
      "this": 6568,
      "thus__": 6569,
      "that,__": 6570,
      "an\n": 6571,
      "anian__": 6572,
      "one": 6573,
      "one-": 6574,
      ",__N": 6575,
      "orn": 6576,
      "ed__with__a__": 6577,
      "rejec": 6578,
      "reign__": 6579,
      "a__is__": 6580,
      "a__few__": 6581,
      "and__is__": 6582,
      "stain": 6583,
      ".__With__": 6584,
      "in__D": 6585,
      "in__15": 6586,
      "on__January__": 6587,
      "on__March__": 6588,
      "on__April__": 6589,
      "ing__its__": 6590,
      "is__to__": 6591,
      "el__and__": 6592,
      "elim": 6593,
      "es\n": 6594,
      "check": 6595,
      "amm": 6596,
      "oliv": 6597,
      "was__elected__": 6598,
      "accur": 6599,
      "1930": 6600,
      "adel": 6601,
      "sim": 6602,
      "rif": 6603,
      "ed.__": 6604,
      "unit__": 6605,
      "ow__the__": 6606,
      "leave__": 6607,
      "in__the__United__States__": 6608,
      "abad__": 6609,
      "applic": 6610,
      "consen": 6611,
      "fram": 6612,
      "ulp": 6613,
      "or__in__": 6614,
      "try": 6615,
      "tics__": 6616,
      "tion__was__": 6617,
      "ida": 6618,
      "party": 6619,
      "resh": 6620,
      "resent": 6621,
      "research": 6622,
      "ally,__the__": 6623,
      "Chang": 6624,
      "2017,__": 6625,
      "firm__": 6626,
      "2000": 6627,
      "2002__": 6628,
      ".[21]\n": 6629,
      "mann__": 6630,
      "bron": 6631,
      "weak": 6632,
      "assembly__": 6633,
      "elled__": 6634,
      "1996": 6635,
      "2__(": 6636,
      "aster": 6637,
      "pre-": 6638,
      "neur": 6639,
      "All__": 6640,
      ",[4]__": 6641,
      ",[5]__": 6642,
      "in__190": 6643,
      "Norway": 6644,
      "aire__": 6645,
      "he__was__a__": 6646,
      "ong__K": 6647,
      "during__a__": 6648,
      "decision": 6649,
      "remain__": 6650,
      "Class__": 6651,
      "Conserv": 6652,
      "Colon": 6653,
      "family": 6654,
      "invasion__": 6655,
      "ology": 6656,
      "ologist__": 6657,
      "1960": 6658,
      "Real__": 6659,
      "For__the__": 6660,
      "when__she__": 6661,
      "Shenz": 6662,
      "_Hamilton__": 6663,
      "offer__": 6664,
      "visit": 6665,
      "received__the__": 6666,
      "Represent": 6667,
      "renov": 6668,
      "demand": 6669,
      "drew__": 6670,
      "ceed": 6671,
      "represented__": 6672,
      "introduced__": 6673,
      "loss": 6674,
      "speak": 6675,
      "United__States,__": 6676,
      "Scottish__": 6677,
      "Congress__": 6678,
      "Regional__": 6679,
      "painting": 6680,
      "constitutional__": 6681,
      "Macdon": 6682,
      "participated__in__the__": 6683,
      "winning__": 6684,
      "additional__": 6685,
      "Belgi": 6686,
      "label__": 6687,
      "Games__": 6688,
      "death,__": 6689,
      "Bijap": 6690,
      "amount__": 6691,
      "experience__": 6692,
      "Malay": 6693,
      "mountain__": 6694,
      "department__": 6695,
      "performanc": 6696,
      "Archiv": 6697,
      "Michael__": 6698,
      "Andre__": 6699,
      "security__": 6700,
      "semi-": 6701,
      "Nilgir": 6702,
      "future__": 6703,
      "Minister__of__": 6704,
      "adapt": 6705,
      "Miam": 6706,
      "antasy__": 6707,
      "Percy__": 6708,
      "custom": 6709,
      "Illinois__": 6710,
      "Niger": 6711,
      "Građanski__": 6712,
      "contemporary__": 6713,
      "urmagomedov__": 6714,
      "dynast": 6715,
      "intellect": 6716,
      "elimin": 6717,
      ").__": 6718,
      "12]\n": 6719,
      "2\n": 6720,
      "34": 6721,
      "3__and__": 6722,
      "52__": 6723,
      "5]__The__": 6724,
      "67": 6725,
      "68": 6726,
      "60__": 6727,
      "78": 6728,
      "9][": 6729,
      "AM": 6730,
      "Brown__": 6731,
      "Dak": 6732,
      "Far": 6733,
      "Gold": 6734,
      "Hold": 6735,
      "I,__": 6736,
      "KF": 6737,
      "Ken": 6738,
      "Kam": 6739,
      "Lor": 6740,
      "L.__": 6741,
      "Niz": 6742,
      "Ow": 6743,
      "Rail": 6744,
      "Sto": 6745,
      "Ton": 6746,
      "UK__": 6747,
      "Year__": 6748,
      "aqu": 6749,
      "bad": 6750,
      "bound": 6751,
      "bann": 6752,
      "bian__": 6753,
      "cli": 6754,
      "cab": 6755,
      "cos": 6756,
      "da__": 6757,
      "des__": 6758,
      "del__": 6759,
      "eth__": 6760,
      "eir__": 6761,
      "e;__": 6762,
      "gres": 6763,
      "oo__": 6764,
      "pand": 6765,
      "rare__": 6766,
      "sound__": 6767,
      "said": 6768,
      "ule__": 6769,
      "warn": 6770,
      "won__a__": 6771,
      "s__as__": 6772,
      "s__or__": 6773,
      "induc": 6774,
      "inhabit": 6775,
      ",__L": 6776,
      "ed__as__the__": 6777,
      "ed__after__": 6778,
      "retain": 6779,
      "review__": 6780,
      "a__F": 6781,
      "a__to__": 6782,
      "and__its__": 6783,
      "stay": 6784,
      "ou__": 6785,
      "as__it__": 6786,
      "as__they__": 6787,
      "in__its__": 6788,
      "on__July__": 6789,
      "on__December__": 6790,
      "ing__was__": 6791,
      "ite__the__": 6792,
      "itage__": 6793,
      "eld": 6794,
      "ess__and__": 6795,
      "es;__": 6796,
      "olf": 6797,
      "was__to__": 6798,
      "acu": 6799,
      "acting__": 6800,
      "actor": 6801,
      "und__": 6802,
      "lear__": 6803,
      "leberry__": 6804,
      "where": 6805,
      "ette__": 6806,
      "frag": 6807,
      "ull": 6808,
      "occurr": 6809,
      "destruc": 6810,
      "terminal__": 6811,
      "prohib": 6812,
      "that__would__": 6813,
      "true__": 6814,
      "seek": 6815,
      ".[17]__": 6816,
      "e,__\"": 6817,
      "tion__to__the__": 6818,
      "theat": 6819,
      "ers__in__the__": 6820,
      "percent": 6821,
      "aving__": 6822,
      "aves": 6823,
      "recru": 6824,
      "were__the__": 6825,
      "_The__following__": 6826,
      ".[25]__": 6827,
      "gif": 6828,
      "poem__": 6829,
      "s.__S": 6830,
      "s.____": 6831,
      "week__": 6832,
      "format__": 6833,
      "story": 6834,
      "tware__": 6835,
      "assass": 6836,
      ":__[": 6837,
      "ike__": 6838,
      "Arth": 6839,
      "Armen": 6840,
      "ard__the__": 6841,
      "ency": 6842,
      "pregn": 6843,
      "serving__": 6844,
      "feet__(": 6845,
      "dram": 6846,
      "draw__": 6847,
      "bodi": 6848,
      ".__He__is__": 6849,
      "Frank": 6850,
      "Alb": 6851,
      "Norfolk__": 6852,
      "_At__": 6853,
      "_At__the__": 6854,
      "coordin": 6855,
      "genus__": 6856,
      "elecom": 6857,
      "build__": 6858,
      "counter": 6859,
      "owned__by__": 6860,
      "e.____": 6861,
      "Lead": 6862,
      "1940": 6863,
      "ship__was__": 6864,
      "Connec": 6865,
      "ignor": 6866,
      "register": 6867,
      "curle": 6868,
      "historic__": 6869,
      "Shapur__": 6870,
      "such__a__": 6871,
      "Work": 6872,
      "Spain": 6873,
      ".[1]__In__": 6874,
      "takes__": 6875,
      "transmit": 6876,
      "DeBe": 6877,
      "extensive__": 6878,
      "Organ": 6879,
      "held__in__": 6880,
      "high-": 6881,
      "course__": 6882,
      "related__to__the__": 6883,
      "purpos": 6884,
      "solo__": 6885,
      "Russell__": 6886,
      "break__": 6887,
      ".[1][2][": 6888,
      "longer__": 6889,
      "runn": 6890,
      "country": 6891,
      "_This__article__about__an__": 6892,
      "Team__": 6893,
      "featuring__": 6894,
      "companies__": 6895,
      "quarters__": 6896,
      "equival": 6897,
      "passeng": 6898,
      ".[2][3]__": 6899,
      "letter": 6900,
      "London": 6901,
      "process__": 6902,
      "growing__": 6903,
      "employment__": 6904,
      "Engine": 6905,
      "addition__to__": 6906,
      "front__": 6907,
      ".__While__": 6908,
      "became__the__first__": 6909,
      "Captain__": 6910,
      "reput": 6911,
      "Medal__": 6912,
      "treatment__": 6913,
      "daughter__of__": 6914,
      "California__": 6915,
      "temperature": 6916,
      "respectivel": 6917,
      "COVI": 6918,
      "figure__": 6919,
      "Public__Library__": 6920,
      "detail": 6921,
      "Discours": 6922,
      "Texas__": 6923,
      "necessary__": 6924,
      "tells__": 6925,
      "associated__with__": 6926,
      "prevent__": 6927,
      "responsible__for__": 6928,
      "chamber": 6929,
      "Gwynllyw__": 6930,
      "industrial__": 6931,
      "Chris__": 6932,
      "Duke__of__": 6933,
      "exercis": 6934,
      "spectrum__": 6935,
      "Elfwood__": 6936,
      "COVID-": 6937,
      "-day__": 6938,
      "-year-": 6939,
      ".9": 6940,
      "21,__": 6941,
      "25,__": 6942,
      "27,__": 6943,
      "61": 6944,
      "65": 6945,
      "Bach": 6946,
      "Dep": 6947,
      "Eliz": 6948,
      "Fate/": 6949,
      "Good": 6950,
      "Hum": 6951,
      "Hell__Creek__": 6952,
      "Journ": 6953,
      "Ker": 6954,
      "Loc": 6955,
      "Land": 6956,
      "Medit": 6957,
      "Maur": 6958,
      "NR": 6959,
      "Ni": 6960,
      "Om": 6961,
      "Pi": 6962,
      "Por": 6963,
      "Pic": 6964,
      "Pit": 6965,
      "Paul": 6966,
      "Qut": 6967,
      "RE": 6968,
      "Rabbi__": 6969,
      "Ti": 6970,
      "Ty": 6971,
      "Tha": 6972,
      "Um": 6973,
      "WGN": 6974,
      "[2]__": 6975,
      "ble": 6976,
      "bought__": 6977,
      "bomb": 6978,
      "cell__": 6979,
      "cultural__": 6980,
      "d-": 6981,
      "d's__": 6982,
      "gas__": 6983,
      "hr": 6984,
      "ians": 6985,
      "lap": 6986,
      "otiv": 6987,
      "pet": 6988,
      "pay__": 6989,
      "ro__": 6990,
      "sent": 6991,
      "sh__": 6992,
      "sultan": 6993,
      "tes": 6994,
      "uil": 6995,
      "ures": 6996,
      "ve-": 6997,
      "wash": 6998,
      "yc": 6999,
      "ya__": 7000,
      "yn__": 7001,
      "ée__": 7002,
      "s__for__the__": 7003,
      "s__such__as__": 7004,
      "thal": 7005,
      "ina,__": 7006,
      "ines,__": 7007,
      "erran": 7008,
      ",__an__": 7009,
      "enh": 7010,
      "arash": 7011,
      "alty__": 7012,
      "red": 7013,
      "report__": 7014,
      "ings__of__": 7015,
      "oul": 7016,
      "as__part__of__": 7017,
      "er__B": 7018,
      "in__their__": 7019,
      "itation__": 7020,
      "chor": 7021,
      "was__first__": 7022,
      "acted__": 7023,
      "ection__": 7024,
      "emo": 7025,
      "emphas": 7026,
      "]__and__": 7027,
      "th__Fle": 7028,
      "sively__": 7029,
      "eding__": 7030,
      "unci": 7031,
      "unable__to__": 7032,
      "20,__": 7033,
      "wide": 7034,
      "ago": 7035,
      "hid": 7036,
      "conver": 7037,
      "confer": 7038,
      "ve__the__": 7039,
      "le__of__the__": 7040,
      "depar": 7041,
      "degre": 7042,
      "plement": 7043,
      "that__they__": 7044,
      "trad": 7045,
      "s,__such__as__": 7046,
      "sei__": 7047,
      ".[18]\n": 7048,
      "e,__a__": 7049,
      "it__of__": 7050,
      "from__his__": 7051,
      "igg": 7052,
      "ity__of__the__": 7053,
      "Cham": 7054,
      "China__": 7055,
      "ender": 7056,
      "ender-": 7057,
      "ts__in__the__": 7058,
      "2006,__": 7059,
      "out__of__the__": 7060,
      "ange__": 7061,
      "0__to__": 7062,
      "portr": 7063,
      "brand": 7064,
      "Mary": 7065,
      "formally__": 7066,
      "titles__": 7067,
      "attach": 7068,
      "attended__": 7069,
      "commit": 7070,
      "played__in__": 7071,
      "Anth": 7072,
      "name": 7073,
      "secretary__": 7074,
      "drum": 7075,
      "box": 7076,
      "boat__": 7077,
      "Frank__": 7078,
      "preserv": 7079,
      "ting__a__": 7080,
      "migr": 7081,
      "entially__": 7082,
      "basis__": 7083,
      "council": 7084,
      "officers__": 7085,
      "only__one__": 7086,
      "ed__on__a__": 7087,
      "mechan": 7088,
      "1984": 7089,
      "where__she__": 7090,
      "Club__": 7091,
      "guest__": 7092,
      "When__": 7093,
      "surv": 7094,
      "Council": 7095,
      "museum": 7096,
      ",__which__is__": 7097,
      "Foreign__": 7098,
      "Spade__": 7099,
      "sister__": 7100,
      "goals__": 7101,
      "ski__": 7102,
      "DeLong": 7103,
      "Greec": 7104,
      "correspond": 7105,
      "India__": 7106,
      "oldest__": 7107,
      "appear__": 7108,
      "One__of__the__": 7109,
      "believe__": 7110,
      "called__the__": 7111,
      ".__Mc": 7112,
      "receive__": 7113,
      "dots__": 7114,
      "300__": 7115,
      "Montre": 7116,
      "certi": 7117,
      "Adam": 7118,
      ".__Both__": 7119,
      "related__to__a__": 7120,
      "a__major__": 7121,
      "left": 7122,
      "member": 7123,
      "district": 7124,
      "established__in__": 7125,
      "news__": 7126,
      "New__York": 7127,
      "Europe__": 7128,
      ".[1][2]__": 7129,
      "general": 7130,
      ".[4]__In__": 7131,
      "long__and__": 7132,
      "US$": 7133,
      "projects__": 7134,
      "running__": 7135,
      "Swiss__": 7136,
      "Regen": 7137,
      "mainten": 7138,
      "forces__": 7139,
      "forced__to__": 7140,
      "defeat__": 7141,
      "barrel": 7142,
      "weeks__": 7143,
      "weekly__": 7144,
      "like__the__": 7145,
      "Victory__": 7146,
      "firmary__": 7147,
      "field__of__": 7148,
      "explor": 7149,
      "London,__": 7150,
      "process": 7151,
      "travel": 7152,
      "Philadel": 7153,
      "Scotland__": 7154,
      ".__Other__": 7155,
      "Sea__": 7156,
      "Salt__": 7157,
      "Supreme__": 7158,
      "transi": 7159,
      "birth__": 7160,
      "chemistr": 7161,
      "technical__": 7162,
      "graduate__": 7163,
      "Revi": 7164,
      "languag": 7165,
      "involved__in__": 7166,
      "leaving__": 7167,
      "talk__": 7168,
      "World__War__II__": 7169,
      "focus__": 7170,
      "reached__": 7171,
      ".__Although__": 7172,
      "_While__": 7173,
      "mountain": 7174,
      "Film__": 7175,
      "figur": 7176,
      "architectur": 7177,
      "orient": 7178,
      "Argentina__": 7179,
      "powerful__": 7180,
      "print__": 7181,
      "Australia": 7182,
      "occupi": 7183,
      "Corps__": 7184,
      "Power__": 7185,
      "ix__Week": 7186,
      "Earth__": 7187,
      "Catholic__": 7188,
      "With__the__": 7189,
      "Victoria__": 7190,
      "premier": 7191,
      "translated__": 7192,
      "investment__": 7193,
      "Freedom__Mobile__": 7194,
      "threaten": 7195,
      "citizen": 7196,
      "Stadium__": 7197,
      "Gretel__": 7198,
      "Author": 7199,
      "Vietnam__": 7200,
      "Stanley__Cup__": 7201,
      "agouti__": 7202,
      "permanent__": 7203,
      "Columbi": 7204,
      "Lancash": 7205,
      "starring__": 7206,
      "specifically__": 7207,
      "Keywords__Studi": 7208,
      "quickly__": 7209,
      "kept__": 7210,
      "Wayne__": 7211,
      "Wikimedia__": 7212,
      "Columbia__": 7213,
      "etween__": 7214,
      "Econom": 7215,
      "slightly__": 7216,
      "Ahmadnag": 7217,
      "Mediterran": 7218,
      "Philadelphi": 7219,
      "ix__Weeks'__": 7220,
      "\"\n": 7221,
      "\".__The__": 7222,
      "-up__": 7223,
      "/0": 7224,
      "5-": 7225,
      "7__and__": 7226,
      "By__": 7227,
      "Bay": 7228,
      "Brit": 7229,
      "CM": 7230,
      "Cousins__": 7231,
      "D.": 7232,
      "Dam": 7233,
      "Eg": 7234,
      "Follow": 7235,
      "Go": 7236,
      "Gur": 7237,
      "Hun": 7238,
      "Hong__K": 7239,
      "Iv": 7240,
      "Kenn": 7241,
      "Mir": 7242,
      "NCA": 7243,
      "Ori": 7244,
      "Pop": 7245,
      "Penn": 7246,
      "Raj": 7247,
      "Sur": 7248,
      "Sun": 7249,
      "TC": 7250,
      "Wind": 7251,
      "Yugoslav": 7252,
      "_5": 7253,
      "aer": 7254,
      "aud": 7255,
      "bloc": 7256,
      "co__": 7257,
      "cow": 7258,
      "eur": 7259,
      "east": 7260,
      "flight__": 7261,
      "host__": 7262,
      "ool": 7263,
      "otr": 7264,
      "pag": 7265,
      "ras__": 7266,
      "sain": 7267,
      "s),__": 7268,
      "s.[2]\n": 7269,
      "test__": 7270,
      "temp": 7271,
      "uch": 7272,
      "uff": 7273,
      "wer": 7274,
      "wear": 7275,
      " in__(": 7276,
      "án__": 7277,
      "’__": 7278,
      "″E﻿__/__﻿": 7279,
      "th's__": 7280,
      "then__the__": 7281,
      "inf": 7282,
      "ine,__": 7283,
      "ana,__": 7284,
      "on's__": 7285,
      "online__": 7286,
      ",__K": 7287,
      "orav": 7288,
      "ar__and__": 7289,
      "ed__over__": 7290,
      "tively__": 7291,
      "restric": 7292,
      "a__is__a__": 7293,
      "stage__": 7294,
      "stock__": 7295,
      ".__Its__": 7296,
      "as__well": 7297,
      "in__O": 7298,
      "in__August__": 7299,
      "of__its__": 7300,
      "is__and__": 7301,
      "it's__": 7302,
      "esse": 7303,
      "ile__the__": 7304,
      "ilian__": 7305,
      "islat": 7306,
      "island__": 7307,
      "ect__": 7308,
      "edg": 7309,
      "edral__": 7310,
      "ush__": 7311,
      "usual__": 7312,
      "agents__": 7313,
      "versi": 7314,
      "in__the__early__": 7315,
      "etary__": 7316,
      "consecu": 7317,
      "for__their__": 7318,
      "hav": 7319,
      "ulty__": 7320,
      "ation__is__": 7321,
      "that__is__": 7322,
      "that__it__": 7323,
      "suck": 7324,
      "tru": 7325,
      "trou": 7326,
      "s,__a__": 7327,
      "spot": 7328,
      "ource": 7329,
      "tion__in__": 7330,
      "ident": 7331,
      "que": 7332,
      "quality__": 7333,
      "tions__in__": 7334,
      "gren": 7335,
      "ity__to__": 7336,
      "Church": 7337,
      "are__also__": 7338,
      "recover": 7339,
      "Infirmary__": 7340,
      "pric": 7341,
      "prais": 7342,
      "epher": 7343,
      ".[23]\n": 7344,
      "185": 7345,
      "series,__": 7346,
      "That__": 7347,
      "auch": 7348,
      "Marian": 7349,
      "egg": 7350,
      "stories__": 7351,
      "sculp": 7352,
      "twel": 7353,
      "expos": 7354,
      "who__is__": 7355,
      "1__to__": 7356,
      "esson__": 7357,
      "commonly__": 7358,
      "phon": 7359,
      "achus": 7360,
      "serves__": 7361,
      "Ander": 7362,
      "names__": 7363,
      "up__the__": 7364,
      "annivers": 7365,
      "flag": 7366,
      "Fron": 7367,
      "side__of__the__": 7368,
      "known": 7369,
      ",[7]__": 7370,
      "2023__": 7371,
      "interpre": 7372,
      ".__It__is__a__": 7373,
      "ization__": 7374,
      "_As__": 7375,
      "_As__of__": 7376,
      "_After__the__": 7377,
      "he__was__the__": 7378,
      ".__Some__": 7379,
      "intellig": 7380,
      "decad": 7381,
      "man__and__": 7382,
      "1988": 7383,
      "y__of__a__S": 7384,
      "guest": 7385,
      "produced__by__": 7386,
      "time__in__": 7387,
      "surname__": 7388,
      "surface__": 7389,
      "struck__": 7390,
      "azz": 7391,
      "azim": 7392,
      "famili": 7393,
      "ology,__": 7394,
      "ology__and__": 7395,
      "captain__": 7396,
      "County": 7397,
      "release__": 7398,
      "most__of__the__": 7399,
      "ensus,__": 7400,
      "history,__": 7401,
      "color__": 7402,
      "crick": 7403,
      "moving__": 7404,
      "locom": 7405,
      "Spies__": 7406,
      "Canada": 7407,
      "sky": 7408,
      "Green__": 7409,
      "some__of__the__": 7410,
      "organic__": 7411,
      "ships__": 7412,
      "makes__": 7413,
      "develop__": 7414,
      "designed__by__": 7415,
      "Island__": 7416,
      "located__in__the__": 7417,
      "received__a__": 7418,
      "purp": 7419,
      "victim": 7420,
      "particular__": 7421,
      "Edin": 7422,
      "in__189": 7423,
      "Polish__": 7424,
      "Prefec": 7425,
      "Japan__": 7426,
      "South__African__": 7427,
      "distingu": 7428,
      " m)__": 7429,
      "throughout__": 7430,
      "headed__": 7431,
      "postseason__": 7432,
      "mainly__": 7433,
      "edition__": 7434,
      "West__Coast__": 7435,
      "equipp": 7436,
      "New__York__City": 7437,
      "head__of__the__": 7438,
      "patch": 7439,
      "successfully__": 7440,
      "set__up__": 7441,
      "Creek": 7442,
      "Germany": 7443,
      "educational__": 7444,
      "actually__": 7445,
      "become__the__": 7446,
      "Scotland": 7447,
      "José__": 7448,
      "painting__": 7449,
      "identif": 7450,
      "transpor": 7451,
      "range__of__": 7452,
      "effective__": 7453,
      "Valley__": 7454,
      "sugges": 7455,
      "Atlantic__": 7456,
      "ushn": 7457,
      "combined__": 7458,
      "Department__": 7459,
      "habitat__": 7460,
      "Toronto": 7461,
      "taik": 7462,
      "Alexand": 7463,
      "subsequent__": 7464,
      "ville__": 7465,
      "_This__biographical__article__relating__to__": 7466,
      "greatest__": 7467,
      "Communist__": 7468,
      "fantry__": 7469,
      "_All__": 7470,
      "Cuth": 7471,
      "Development__": 7472,
      "ability__to__": 7473,
      "fighting__": 7474,
      "behind__the__": 7475,
      "analys": 7476,
      "granted__": 7477,
      "judg": 7478,
      "mixed__": 7479,
      "material__": 7480,
      "Star__Tre": 7481,
      "provincial__": 7482,
      "struggl": 7483,
      "Rogers__": 7484,
      "Communications__": 7485,
      "Singapore__": 7486,
      "Grand__Falls__": 7487,
      "Huckleberry__": 7488,
      "punk__": 7489,
      "congenital__syphilis__": 7490,
      "pronunci": 7491,
      "abandon": 7492,
      "&__Wesson__": 7493,
      "briefly__": 7494,
      "Croati": 7495,
      "pandem": 7496,
      "COVID-19__": 7497,
      "y__of__a__Six__Weeks'__": 7498,
      "!__": 7499,
      "(M": 7500,
      "(now__": 7501,
      ".7": 7502,
      ".8": 7503,
      "11]__": 7504,
      "2__c": 7505,
      "35__": 7506,
      "31,__": 7507,
      "5__and__": 7508,
      "500": 7509,
      "88": 7510,
      ":__the__": 7511,
      "Are": 7512,
      "Ast": 7513,
      "Abr": 7514,
      "As__of__": 7515,
      "Asian__": 7516,
      "Bil": 7517,
      "Bure": 7518,
      "Der": 7519,
      "Dom": 7520,
      "Fal": 7521,
      "Gir": 7522,
      "Gul": 7523,
      "Gav": 7524,
      "Her__": 7525,
      "However,__the__": 7526,
      "Jack__": 7527,
      "La__": 7528,
      "LGB": 7529,
      "Nar": 7530,
      "Nep": 7531,
      "Pé": 7532,
      "Ral": 7533,
      "Rac": 7534,
      "San": 7535,
      "TA": 7536,
      "Tub": 7537,
      "UK": 7538,
      "Ut": 7539,
      "_Ar": 7540,
      "auc": 7541,
      "bes": 7542,
      "bil": 7543,
      "block": 7544,
      "big__": 7545,
      "cue__": 7546,
      "daily__": 7547,
      "eh": 7548,
      "food": 7549,
      "gle__": 7550,
      "hen": 7551,
      "hic": 7552,
      "hall__": 7553,
      "hard__": 7554,
      "hood": 7555,
      "ius__": 7556,
      "ium__": 7557,
      "jour": 7558,
      "ket": 7559,
      "last": 7560,
      "lah": 7561,
      "mouth__": 7562,
      "nes": 7563,
      "oon__": 7564,
      "ped__": 7565,
      "pati": 7566,
      "post__": 7567,
      "rabb": 7568,
      "sha": 7569,
      "s.[4": 7570,
      "tin": 7571,
      "tel": 7572,
      "tub": 7573,
      "uz": 7574,
      "uer": 7575,
      "wing": 7576,
      "wound": 7577,
      "yellow__": 7578,
      "yeshiv": 7579,
      " –__": 7580,
      "ón": 7581,
      "__was__": 7582,
      "that": 7583,
      "thank": 7584,
      "ana": 7585,
      "ory": 7586,
      "or's__": 7587,
      "aries__": 7588,
      "army__": 7589,
      "al,__and__": 7590,
      "resist": 7591,
      "report": 7592,
      "a__and__the__": 7593,
      "ing.__The__": 7594,
      "oud": 7595,
      ".__In": 7596,
      "at-": 7597,
      "in__P": 7598,
      "in__this__": 7599,
      "oma__": 7600,
      "ing__an__": 7601,
      "ama": 7602,
      "an__inter": 7603,
      "ison": 7604,
      "olish": 7605,
      "was__found": 7606,
      "acts__": 7607,
      "20]__": 7608,
      "ently,__": 7609,
      "used__by__": 7610,
      "used__for__": 7611,
      "uscrip": 7612,
      "by__his__": 7613,
      "lig": 7614,
      "dition": 7615,
      "conclu": 7616,
      "exhib": 7617,
      "ultim": 7618,
      "deal": 7619,
      "depression__": 7620,
      "ation,__and__": 7621,
      "ter's__": 7622,
      "produce__": 7623,
      "that__\"": 7624,
      "su__": 7625,
      ".[12][": 7626,
      "been__the__": 7627,
      "e,__but__": 7628,
      "spok": 7629,
      "claim__": 7630,
      ",__the__first__": 7631,
      "parts__of__the__": 7632,
      "aves__": 7633,
      "endann": 7634,
      "2011,__": 7635,
      "2004__": 7636,
      "2007__": 7637,
      "ing__the__first__": 7638,
      "which__are__": 7639,
      "utt": 7640,
      "manuscrip": 7641,
      "bra": 7642,
      "brain": 7643,
      "auti": 7644,
      "overse": 7645,
      "five-": 7646,
      "Maria__": 7647,
      "at__the__time__": 7648,
      "formal__": 7649,
      "has__an__": 7650,
      "og__": 7651,
      "obtain": 7652,
      "score__": 7653,
      "1993": 7654,
      "1996__": 7655,
      "discrimin": 7656,
      "title__of__": 7657,
      "marine__": 7658,
      ".__After__the__": 7659,
      "commod": 7660,
      "phr": 7661,
      "health": 7662,
      "served__as__a__": 7663,
      "both__the__": 7664,
      "speci": 7665,
      "know": 7666,
      ",[2": 7667,
      "mond__": 7668,
      "_According__to__": 7669,
      "ision,__": 7670,
      "lands__": 7671,
      "owned__": 7672,
      "sylv": 7673,
      ".[6]__The__": 7674,
      "remak": 7675,
      "only__a__": 7676,
      "eful__": 7677,
      "appli": 7678,
      "1944": 7679,
      "sub-": 7680,
      "_She__": 7681,
      "_Source": 7682,
      "ions__": 7683,
      ".__Her__": 7684,
      "region,__": 7685,
      ".____In__": 7686,
      "museum__": 7687,
      "when__he__was__": 7688,
      ".__Their__": 7689,
      "World": 7690,
      "moved__": 7691,
      "directly__": 7692,
      "going__": 7693,
      "eysuck": 7694,
      "changed__to__": 7695,
      "Greek": 7696,
      "extended__": 7697,
      "Train": 7698,
      "ed__for__a__": 7699,
      "ship,__": 7700,
      "Once__": 7701,
      "deputy__": 7702,
      "people,__": 7703,
      "Orthod": 7704,
      "game": 7705,
      "rick__": 7706,
      "rule__": 7707,
      "Adil__": 7708,
      "Series__": 7709,
      "vehic": 7710,
      "fund__": 7711,
      "may__have__": 7712,
      "It's__": 7713,
      "metal__": 7714,
      "Plan": 7715,
      "_L\n": 7716,
      "setting__": 7717,
      "descrip": 7718,
      "axim": 7719,
      "reference__": 7720,
      "voic": 7721,
      "target__": 7722,
      "studied__": 7723,
      "_C\n": 7724,
      "barrel__": 7725,
      "form__of__": 7726,
      "tradition": 7727,
      "Vienn": 7728,
      "Global__": 7729,
      "part__of__a__": 7730,
      "retir": 7731,
      "alized__": 7732,
      "editor": 7733,
      "1][2": 7734,
      "becoming__": 7735,
      "result__of__": 7736,
      "indicate__": 7737,
      "th__century,__": 7738,
      "femal": 7739,
      "girl__": 7740,
      "During__this__": 7741,
      "Society__": 7742,
      "Sensei__": 7743,
      "ed__into__a__": 7744,
      "employe": 7745,
      "approval__": 7746,
      "autom": 7747,
      "commandant__": 7748,
      "stream": 7749,
      ".[20]\n": 7750,
      "physical__": 7751,
      "album,__": 7752,
      "nominated__": 7753,
      "architect__": 7754,
      "Academy__of__": 7755,
      "soldiers__": 7756,
      "therefore__": 7757,
      "corporate__": 7758,
      "Church__of__": 7759,
      "Women's__": 7760,
      "Spanish": 7761,
      "gained__": 7762,
      "lieutenant__general__": 7763,
      "credit": 7764,
      "naval__": 7765,
      "narrative__": 7766,
      "completely__": 7767,
      "cycling__": 7768,
      "murder": 7769,
      "revolver": 7770,
      "served__as__the__": 7771,
      "affiliated__": 7772,
      "United__Kingdom__": 7773,
      "Swedish__": 7774,
      "made__the__": 7775,
      "Portug": 7776,
      "Republic__of__": 7777,
      "length": 7778,
      "Classic__": 7779,
      "Commonwealth__": 7780,
      "renamed__": 7781,
      "Yankees__": 7782,
      "problem": 7783,
      "Kierkegaard__": 7784,
      "coastal__": 7785,
      "festival__": 7786,
      "iezendann": 7787,
      "FIFA__": 7788,
      "Mississippi__": 7789,
      "benef": 7790,
      "enjoy": 7791,
      "digital__": 7792,
      "themselves__": 7793,
      "kind__of__": 7794,
      "software__": 7795,
      "source__": 7796,
      "descend": 7797,
      "ink-18": 7798,
      "consensus__": 7799,
      "bronze__": 7800,
      "Macdonald__": 7801,
      "Hell__Creek__C": 7802,
      "consecutive__": 7803,
      "y__of__a__Six__Weeks'__Tour__": 7804,
      "+\n": 7805,
      "31": 7806,
      "5,__the__": 7807,
      "83": 7808,
      "Bak": 7809,
      "Book__": 7810,
      "CF": 7811,
      "EP": 7812,
      "Fuse__": 7813,
      "Gi": 7814,
      "Gut": 7815,
      "Ho": 7816,
      "Het__": 7817,
      "Ky": 7818,
      "Kur": 7819,
      "L'": 7820,
      "Men": 7821,
      "Mul": 7822,
      "Mand": 7823,
      "Mill": 7824,
      "Op": 7825,
      "PS__": 7826,
      "RG": 7827,
      "She": 7828,
      "Social__": 7829,
      "Temp": 7830,
      "Vid": 7831,
      "Vill": 7832,
      "Wy": 7833,
      "Year": 7834,
      "Yang": 7835,
      "Zagre": 7836,
      "_x": 7837,
      "_+\n": 7838,
      "astr": 7839,
      "bout__": 7840,
      "border__": 7841,
      "c.__": 7842,
      "ced": 7843,
      "eing__": 7844,
      "fell__": 7845,
      "hu": 7846,
      "here__": 7847,
      "hospital__": 7848,
      "iy": 7849,
      "led__to__": 7850,
      "male__": 7851,
      "night__": 7852,
      "oti": 7853,
      "poll": 7854,
      "ram": 7855,
      "ric__": 7856,
      "rain__": 7857,
      "red__to__the__": 7858,
      "tag": 7859,
      "taught__": 7860,
      "wish__": 7861,
      "x_{": 7862,
      " sq": 7863,
      "án": 7864,
      "s__at__the__": 7865,
      "thers__": 7866,
      "ini__": 7867,
      "instruc": 7868,
      "insist": 7869,
      "infec": 7870,
      "onim": 7871,
      ",__H": 7872,
      ",__T": 7873,
      ",__it__": 7874,
      "ory__of__": 7875,
      "restor": 7876,
      "repe": 7877,
      "ings": 7878,
      "ings__and__": 7879,
      "st,__": 7880,
      "stol": 7881,
      "stanc": 7882,
      ".__During__the__": 7883,
      "as__V": 7884,
      "er__for__the__": 7885,
      "in__A": 7886,
      "in__R": 7887,
      "in__March__": 7888,
      "in__July__": 7889,
      "in__November__": 7890,
      "of__her__": 7891,
      "ich__": 7892,
      "on__of__": 7893,
      "on__was__": 7894,
      "on__August__": 7895,
      "on__May__": 7896,
      "to__make__": 7897,
      "es.[2": 7898,
      "escor": 7899,
      "essive__": 7900,
      "chanc": 7901,
      "es__at__": 7902,
      "isk": 7903,
      "olv": 7904,
      "was__in__": 7905,
      "acion": 7906,
      "accompan": 7907,
      "ecaus": 7908,
      "rog": 7909,
      "th__of__": 7910,
      "rig": 7911,
      "wides": 7912,
      "ver,__": 7913,
      "took": 7914,
      "ent__of__": 7915,
      "ab__": 7916,
      "exclu": 7917,
      "and-": 7918,
      "debu": 7919,
      "deep": 7920,
      ".[11][": 7921,
      "ays__": 7922,
      "bey": 7923,
      "ted__and__": 7924,
      ")__of__the__": 7925,
      ")__in__the__": 7926,
      "bust": 7927,
      "imm": 7928,
      "impres": 7929,
      "tions__to__": 7930,
      "park": 7931,
      "park__": 7932,
      "ate__to__": 7933,
      "udd": 7934,
      "ts__from__": 7935,
      "2014__": 7936,
      "2012,__": 7937,
      "Independ": 7938,
      "were__also__": 7939,
      "shr": 7940,
      "e__of__his__": 7941,
      "ed__to__have__": 7942,
      "is__a__village__": 7943,
      "2008,__": 7944,
      "gie__": 7945,
      "These__": 7946,
      "ishop": 7947,
      "pool__": 7948,
      "ficial__": 7949,
      "obile__": 7950,
      "ode__": 7951,
      "who__were__": 7952,
      "Ark": 7953,
      "ugby__": 7954,
      "not__to__": 7955,
      "attend__": 7956,
      ".__At__": 7957,
      "secre": 7958,
      "neu": 7959,
      "boat": 7960,
      "_In__July__": 7961,
      "athle": 7962,
      "Competi": 7963,
      "Although__": 7964,
      "presents__": 7965,
      ",[8]__": 7966,
      "articles__": 7967,
      "2024__": 7968,
      ".__It__also__": 7969,
      "ates__the__": 7970,
      "monum": 7971,
      "born": 7972,
      "ures__of__": 7973,
      "they__had__": 7974,
      ".__Since__": 7975,
      "entire": 7976,
      "base__": 7977,
      "ownership__": 7978,
      "crim": 7979,
      "son__and__": 7980,
      "effic": 7981,
      "University,__": 7982,
      "ly,__the__": 7983,
      "Colchest": 7984,
      "submit": 7985,
      "azz__": 7986,
      "families__": 7987,
      "ight,__": 7988,
      "global__": 7989,
      "1969": 7990,
      "followed__by__": 7991,
      "Shepher": 7992,
      "numb": 7993,
      "singles__": 7994,
      "Ocean__": 7995,
      "ia\n": 7996,
      "made__a__": 7997,
      "Brian__": 7998,
      "sky__": 7999,
      "appeared__in__": 8000,
      "greater__": 8001,
      "required__": 8002,
      "11]\n": 8003,
      "no__longer__": 8004,
      "treated__": 8005,
      "visit__": 8006,
      "rich": 8007,
      "there__are__": 8008,
      "Prom": 8009,
      "outside__": 8010,
      "Assemb": 8011,
      "atorial__": 8012,
      "leader__of__the__": 8013,
      "Administr": 8014,
      "remained__in__": 8015,
      "court__": 8016,
      "profit__": 8017,
      "control": 8018,
      "oppus__": 8019,
      "southe": 8020,
      "them__to__": 8021,
      "British__Columbi": 8022,
      "reading__": 8023,
      "address": 8024,
      "increase__": 8025,
      "William": 8026,
      "patron": 8027,
      "Reserve__": 8028,
      "squad__": 8029,
      "ism,__": 8030,
      "closed__": 8031,
      "Quebec": 8032,
      "individu": 8033,
      "keep__": 8034,
      "supporting__": 8035,
      "resident": 8036,
      "cipl": 8037,
      "ergy__": 8038,
      "Mobil": 8039,
      "bird": 8040,
      "range__": 8041,
      "hosted__the__": 8042,
      "winning__the__": 8043,
      "classical__": 8044,
      "period__of__": 8045,
      "Their__": 8046,
      "Republican__": 8047,
      "Atlanta__": 8048,
      "publication__": 8049,
      "Time__": 8050,
      "ault__": 8051,
      "treatment": 8052,
      "habitat": 8053,
      "sent__to__": 8054,
      "recogni": 8055,
      "respective__": 8056,
      "ranked__": 8057,
      "population__was__": 8058,
      "channel": 8059,
      "Eric__": 8060,
      "Maharash": 8061,
      ".[19]__": 8062,
      ".[19]\n": 8063,
      "agnos": 8064,
      "efforts__": 8065,
      "Upon__": 8066,
      "Professor__of__": 8067,
      "Community__": 8068,
      "rest__of__the__": 8069,
      "declared__": 8070,
      "documentary__": 8071,
      "engineer": 8072,
      "CEO__": 8073,
      "committee__": 8074,
      "Vaze__": 8075,
      "dropp": 8076,
      "UFC__": 8077,
      "climate__": 8078,
      " mm__(0.": 8079,
      "territory__": 8080,
      "occasionally__": 8081,
      "Czech": 8082,
      "Tamil__": 8083,
      "Israel": 8084,
      "Fort__Cann": 8085,
      "wanted__to__": 8086,
      "Idania__": 8087,
      "happen": 8088,
      "machine__gun": 8089,
      "hafia__": 8090,
      "controversi": 8091,
      "Dutch__": 8092,
      "touch": 8093,
      "Shenzhou": 8094,
      "Dakot": 8095,
      "assassin": 8096,
      "Qutb__": 8097,
      "Pennsylv": 8098,
      "azimu": 8099,
      "pronunciation": 8100,
      "_x\n": 8101,
      "widespre": 8102,
      "\"H": 8103,
      "\"M": 8104,
      "\",__and__": 8105,
      "(I": 8106,
      "(the__": 8107,
      ". ": 8108,
      "0–": 8109,
      "48": 8110,
      "5.": 8111,
      "AW": 8112,
      "Afri": 8113,
      "According__to__": 8114,
      "Ali__": 8115,
      "Another__": 8116,
      "Bab": 8117,
      "Bap": 8118,
      "Bill": 8119,
      "Bark": 8120,
      "Cer": 8121,
      "Cop": 8122,
      "Cuc": 8123,
      "ES": 8124,
      "FA": 8125,
      "Gil": 8126,
      "Giezendann": 8127,
      "Hy": 8128,
      "Hal": 8129,
      "Hur": 8130,
      "IX__": 8131,
      "King__of__": 8132,
      "Lem": 8133,
      "Lau": 8134,
      "My": 8135,
      "My__": 8136,
      "MG__": 8137,
      "Nach": 8138,
      "NBC__": 8139,
      "Pom": 8140,
      "PA__": 8141,
      "Q\n": 8142,
      "Sil": 8143,
      "Sus": 8144,
      "Tom": 8145,
      "Town__": 8146,
      "TC__": 8147,
      "Tok": 8148,
      "We__": 8149,
      "Y__": 8150,
      "\\dots__": 8151,
      "_Q\n": 8152,
      "ba": 8153,
      "bab": 8154,
      "bass": 8155,
      "bigg": 8156,
      "crow": 8157,
      "carr": 8158,
      "cinem": 8159,
      "d'": 8160,
      "dar": 8161,
      "du__": 8162,
      "drop": 8163,
      "e.\"[": 8164,
      "foo": 8165,
      "fans__": 8166,
      "feder": 8167,
      "fashi": 8168,
      "hit": 8169,
      "hag": 8170,
      "ieg": 8171,
      "justic": 8172,
      "junc": 8173,
      "lem": 8174,
      "lot": 8175,
      "led__to__the__": 8176,
      "ms__": 8177,
      "memor": 8178,
      "na__": 8179,
      "ra,__": 8180,
      "rapp": 8181,
      "s)": 8182,
      "sle": 8183,
      "send__": 8184,
      "s.[3]__": 8185,
      "ta__": 8186,
      "t,__the__": 8187,
      "un__": 8188,
      "ve,__": 8189,
      " c": 8190,
      "ine__and__": 8191,
      "inher": 8192,
      "an's__": 8193,
      "ans,__": 8194,
      "anus__": 8195,
      "the__same__": 8196,
      ",__or__": 8197,
      "ensur": 8198,
      "enberg": 8199,
      "arri": 8200,
      "ala__": 8201,
      "als__of__": 8202,
      "tist": 8203,
      "really__": 8204,
      "relocated__": 8205,
      "a__s": 8206,
      "a__large__": 8207,
      "o__was__": 8208,
      "o__de__": 8209,
      "stret": 8210,
      "staff": 8211,
      "ato": 8212,
      "atel": 8213,
      "in__17": 8214,
      "ica__": 8215,
      "ing__\"": 8216,
      "is__currently__": 8217,
      "ita__": 8218,
      "he__has__": 8219,
      "an__A": 8220,
      "forest__": 8221,
      "ford,__": 8222,
      "acres__(": 8223,
      "accommod": 8224,
      "The__S": 8225,
      "of__the__same__": 8226,
      "edy__": 8227,
      "uses__": 8228,
      "lim__": 8229,
      "in__the__family__": 8230,
      "ent__of__the__": 8231,
      "abri": 8232,
      "opin": 8233,
      "deep__": 8234,
      "with__its__": 8235,
      "ations.__": 8236,
      "termin": 8237,
      "s,__with__": 8238,
      ".[14]__": 8239,
      ".[17]\n": 8240,
      "best": 8241,
      "ted__a__": 8242,
      "ted__from__": 8243,
      ")__is__the__": 8244,
      "bus__": 8245,
      "spin": 8246,
      "spread__": 8247,
      "tion__for__": 8248,
      "impro": 8249,
      "it__had__": 8250,
      "parent": 8251,
      "ate__for__": 8252,
      "grav": 8253,
      "Cher": 8254,
      "are__not__": 8255,
      "Institu": 8256,
      "eping__": 8257,
      "share": 8258,
      "shoot": 8259,
      "ed__the__season__": 8260,
      "is__a__species__of__": 8261,
      "2002": 8262,
      "2005,__": 8263,
      "compon": 8264,
      "also__a__": 8265,
      "poet": 8266,
      "s.__It__": 8267,
      "s.__They__": 8268,
      "Margar": 8269,
      "ards__the__": 8270,
      "otyp": 8271,
      "ollow__": 8272,
      "\"__in__": 8273,
      "iller__": 8274,
      "twent": 8275,
      "expect": 8276,
      "shire,__": 8277,
      "finds__": 8278,
      "1994__": 8279,
      "discipl": 8280,
      "encour": 8281,
      ".__Ad": 8282,
      ".__Am": 8283,
      ".__As__a__": 8284,
      "phy__": 8285,
      "mind": 8286,
      ";__he__": 8287,
      "Anton": 8288,
      "upgrad": 8289,
      "Fras": 8290,
      "side__of__": 8291,
      ",[6]__": 8292,
      "ize__": 8293,
      "7__to__": 8294,
      "sion__of__": 8295,
      "after__his__": 8296,
      "officer__": 8297,
      "everal__": 8298,
      "1941": 8299,
      "lying__": 8300,
      "lyric": 8301,
      "charge__": 8302,
      "surfac": 8303,
      "Canadi": 8304,
      "factor": 8305,
      ".[7]__The__": 8306,
      "legislat": 8307,
      "operational__": 8308,
      "ement__of__": 8309,
      "1959": 8310,
      "trip__": 8311,
      "him,__": 8312,
      "Progr": 8313,
      "tor__of__": 8314,
      "Phys": 8315,
      "faul": 8316,
      "watch__": 8317,
      "Carl__": 8318,
      "visited__": 8319,
      "Princ": 8320,
      "Music": 8321,
      "Advent": 8322,
      "Ell": 8323,
      "points__": 8324,
      "related__article__is__a__stub.__You__can__help__Wikipedia__by__expanding__it.": 8325,
      "is__an__American__": 8326,
      "during__his__": 8327,
      "opened__on__": 8328,
      "south-": 8329,
      "summer__": 8330,
      "issues__": 8331,
      "back__to__the__": 8332,
      "Polic": 8333,
      "district__of__": 8334,
      "asked__": 8335,
      "one__of__the__most__": 8336,
      "Guill": 8337,
      "Guine": 8338,
      "USS": 8339,
      "divided__into__": 8340,
      "Bern": 8341,
      "_He__was__": 8342,
      "Francis__": 8343,
      "band's__": 8344,
      "Hart": 8345,
      ".[2][3": 8346,
      "east__of__": 8347,
      "one__of__his__": 8348,
      "high__school__": 8349,
      "refused__to__": 8350,
      "education__": 8351,
      "Heritage__": 8352,
      "responsib": 8353,
      "grown__": 8354,
      "individual": 8355,
      "insul": 8356,
      "residential__": 8357,
      "impact__": 8358,
      "rainfall__": 8359,
      ".38__": 8360,
      "towards__the__": 8361,
      "England,__": 8362,
      "mosqu": 8363,
      ".[citation__needed]__": 8364,
      "South": 8365,
      "Republican": 8366,
      "repair": 8367,
      "favour": 8368,
      "model__": 8369,
      ".__All__": 8370,
      "similar__to__": 8371,
      "Nether": 8372,
      "assigned__to__the__": 8373,
      "Cambridg": 8374,
      "ridge__": 8375,
      "Science__": 8376,
      "south__of__": 8377,
      "affected__": 8378,
      "director__of__the__": 8379,
      "failed__to__": 8380,
      "function": 8381,
      "radical__": 8382,
      "-in-": 8383,
      "secondary__": 8384,
      "might__be__": 8385,
      "safety__": 8386,
      "er__who__play": 8387,
      "felt__": 8388,
      "must__be__": 8389,
      "Bahmani__": 8390,
      "silver__": 8391,
      "Sandinist": 8392,
      "neighbour": 8393,
      "except__": 8394,
      "science__fic": 8395,
      "Air__Force__": 8396,
      "High__School__": 8397,
      "dedicated__": 8398,
      "Football__League__": 8399,
      "president": 8400,
      "simply__": 8401,
      "Museum__of__": 8402,
      "July,__": 8403,
      "Smith__&__Wesson__": 8404,
      "RAN__": 8405,
      " mm)__": 8406,
      "Lady__": 8407,
      "San__Diego__": 8408,
      "given__the__": 8409,
      "pharmac": 8410,
      "Athle": 8411,
      "Chop-": 8412,
      "Monterrey__": 8413,
      "reign__of__": 8414,
      "Nilgiri__": 8415,
      "elecommunic": 8416,
      "Connectic": 8417,
      "-year-old__": 8418,
      "Lancashire__": 8419,
      "Mediterranean__": 8420,
      "Egyp": 8421,
      "anniversary__": 8422,
      "familiar__": 8423,
      "purpose__": 8424,
      "ushnir__": 8425,
      "Huckleberry__Finn__": 8426,
      "COVID-19__pandem": 8427,
      "Orthodox__": 8428,
      "took__the__": 8429,
      "beyond__": 8430,
      "pronunciation:__[": 8431,
      "\"I__": 8432,
      "(S": 8433,
      "(16": 8434,
      ".com": 8435,
      "14]__": 8436,
      "2°": 8437,
      "9th__": 8438,
      "90__": 8439,
      "App": 8440,
      "Ba": 8441,
      "Bank__": 8442,
      "CD__": 8443,
      "Dor": 8444,
      "Det": 8445,
      "DS__": 8446,
      "Domin": 8447,
      "Eu": 8448,
      "Eis": 8449,
      "Fel": 8450,
      "Fac": 8451,
      "GA": 8452,
      "Galli": 8453,
      "Holl": 8454,
      "Hair": 8455,
      "I'": 8456,
      "Jean__": 8457,
      "Kor": 8458,
      "Kent": 8459,
      "Kore": 8460,
      "Lim": 8461,
      "Member__": 8462,
      "No__": 8463,
      "Nag": 8464,
      "Ol": 8465,
      "Ohi": 8466,
      "Pap": 8467,
      "RI": 8468,
      "Senti": 8469,
      "Sports__": 8470,
      "TS": 8471,
      "Tues": 8472,
      "U__": 8473,
      "Vo": 8474,
      "WD": 8475,
      "Winn": 8476,
      "YR": 8477,
      "[2": 8478,
      "_…": 8479,
      "_Inter": 8480,
      "_It__is__": 8481,
      "bell": 8482,
      "bird__": 8483,
      "cot": 8484,
      "cous": 8485,
      "cros": 8486,
      "carry__": 8487,
      "dang": 8488,
      "eb": 8489,
      "etic": 8490,
      "fit": 8491,
      "fantasy__": 8492,
      "follow__": 8493,
      "god": 8494,
      "hap": 8495,
      "hall": 8496,
      "ief": 8497,
      "kin__": 8498,
      "ken__": 8499,
      "kick": 8500,
      "lay": 8501,
      "les,__": 8502,
      "look__": 8503,
      "mm": 8504,
      "mo__": 8505,
      "mad__": 8506,
      "nor__": 8507,
      "night": 8508,
      "oj": 8509,
      "oto__": 8510,
      "och": 8511,
      "ote": 8512,
      "pa": 8513,
      "ror__": 8514,
      "raf": 8515,
      "swi": 8516,
      "sav": 8517,
      "s:\n": 8518,
      "s:[": 8519,
      "soccer__": 8520,
      "tol": 8521,
      "t,__and__": 8522,
      "taw": 8523,
      "uti": 8524,
      "vess": 8525,
      "ws": 8526,
      "wick__": 8527,
      "wild": 8528,
      "yz": 8529,
      "yan__": 8530,
      "áve": 8531,
      "′0": 8532,
      "s__who__": 8533,
      "s__have__been__": 8534,
      "inch": 8535,
      "institut": 8536,
      "era": 8537,
      ",__A": 8538,
      ",__she__": 8539,
      "orn__": 8540,
      "ene__": 8541,
      "enge__": 8542,
      "ensus__": 8543,
      "ed__several__": 8544,
      "y__is__": 8545,
      "als__and__": 8546,
      "alco": 8547,
      "alism__": 8548,
      "reign": 8549,
      "remark": 8550,
      "resum": 8551,
      "reward": 8552,
      "realiz": 8553,
      "ing.__": 8554,
      "ing,__the__": 8555,
      "stating__": 8556,
      "as__of__": 8557,
      "atell": 8558,
      "in__October__": 8559,
      "ico__": 8560,
      "ican__": 8561,
      "icity": 8562,
      "eley__": 8563,
      "es\"": 8564,
      "ess__in__": 8565,
      "ese:__": 8566,
      "es__on__the__": 8567,
      "es__at__the__": 8568,
      "es__for__the__": 8569,
      "isol": 8570,
      "olot": 8571,
      "simul": 8572,
      "union__": 8573,
      "lear": 8574,
      "le.\n": 8575,
      "using__a__": 8576,
      "agle__": 8577,
      "di__": 8578,
      "diagnos": 8579,
      "appl": 8580,
      "const": 8581,
      "conce": 8582,
      "confron": 8583,
      "oslov": 8584,
      "for__\"": 8585,
      "for__this__": 8586,
      "for__several__": 8587,
      "comic__": 8588,
      "dead__": 8589,
      "plans__": 8590,
      "ation__was__": 8591,
      "ter,__": 8592,
      "trust": 8593,
      "seud": 8594,
      "beat__": 8595,
      "cler": 8596,
      "quot": 8597,
      "][3": 8598,
      "ate__in__": 8599,
      "resourc": 8600,
      "perfec": 8601,
      "Cháve": 8602,
      "endar__": 8603,
      "2010,__": 8604,
      "Station__": 8605,
      "shel": 8606,
      "2005__": 8607,
      ".[24]__": 8608,
      ".[26]\n": 8609,
      "times,__": 8610,
      "es,__which__": 8611,
      "weap": 8612,
      "had__to__": 8613,
      "eginn": 8614,
      "years.\n": 8615,
      "scop": 8616,
      "scap": 8617,
      "twice__": 8618,
      "who__are__": 8619,
      "not__only__": 8620,
      ".__An__": 8621,
      "essor": 8622,
      "player": 8623,
      "played__a__": 8624,
      "include__the__": 8625,
      "mini": 8626,
      "as__a__member__of__the__": 8627,
      "boy": 8628,
      "box__": 8629,
      "upon__the__": 8630,
      "_In__199": 8631,
      "Al-": 8632,
      "crew": 8633,
      "creating__": 8634,
      "crew__": 8635,
      "ates__and__": 8636,
      "border": 8637,
      "_An__": 8638,
      "relations__": 8639,
      ".[5]__The__": 8640,
      "would__not__": 8641,
      "inten": 8642,
      "after__a__": 8643,
      "meant__": 8644,
      "Club": 8645,
      "Contr": 8646,
      "Color": 8647,
      "production__of__": 8648,
      "177": 8649,
      "1971": 8650,
      "rival__": 8651,
      "begin__": 8652,
      "regiment": 8653,
      "faced__": 8654,
      "1963": 8655,
      "line": 8656,
      "September,__": 8657,
      "Spain__": 8658,
      "politician": 8659,
      "National__Regi": 8660,
      "ed__as__an__": 8661,
      ".[1]__It__": 8662,
      "Canada's__": 8663,
      "got__": 8664,
      "way__to__": 8665,
      "Dead__": 8666,
      "extend": 8667,
      "corn": 8668,
      "green__": 8669,
      "Only__": 8670,
      "Projec": 8671,
      "success__": 8672,
      "Philli": 8673,
      "belli": 8674,
      "below__": 8675,
      "tainment__": 8676,
      "development": 8677,
      "until__his__": 8678,
      "Carne": 8679,
      "there__is__a__": 8680,
      "married__to__": 8681,
      "same__year": 8682,
      "under__a__": 8683,
      "if__the__": 8684,
      "located__in__": 8685,
      "Serv": 8686,
      "sought__": 8687,
      "duties__": 8688,
      "Premi": 8689,
      "Genev": 8690,
      "Head": 8691,
      "project": 8692,
      "managed__to__": 8693,
      "runs__": 8694,
      "notably__": 8695,
      "characters__": 8696,
      "added__": 8697,
      "representing__": 8698,
      "China": 8699,
      "because__of__": 8700,
      "edition": 8701,
      "New__York__City__": 8702,
      "Harb": 8703,
      "collection__": 8704,
      "Association__of__": 8705,
      "Georgi": 8706,
      "Germany,__": 8707,
      "Amendment__": 8708,
      "launch__": 8709,
      "went__to__": 8710,
      "becomes__": 8711,
      "advoc": 8712,
      "advance__": 8713,
      "th__century__": 8714,
      "Scott__": 8715,
      "Broadc": 8716,
      "activity__": 8717,
      "had__a__population__of__": 8718,
      "competed__in__the__": 8719,
      "Blackhawk__#": 8720,
      "Publish": 8721,
      "Senate__": 8722,
      "_Other__": 8723,
      "a-Gav": 8724,
      "label": 8725,
      "features__a__": 8726,
      "College,__": 8727,
      "holding__": 8728,
      "house,__": 8729,
      "Terminal__": 8730,
      "School__of__": 8731,
      "teaching__": 8732,
      "board__of__": 8733,
      "Compan": 8734,
      "Company__": 8735,
      "Duke__": 8736,
      "California,__": 8737,
      "Scienc": 8738,
      "gave__the__": 8739,
      "ernal__": 8740,
      "youngest__": 8741,
      "episode__": 8742,
      "Argentine__": 8743,
      "Arab__": 8744,
      "Academy__": 8745,
      "city's__": 8746,
      "grov": 8747,
      "second-": 8748,
      ",000 ": 8749,
      "Professor__": 8750,
      "Italy": 8751,
      "franchise__": 8752,
      "credited__": 8753,
      "Oklah": 8754,
      "ethn": 8755,
      "question": 8756,
      "{\\frac__{": 8757,
      "murder__": 8758,
      "roughly__": 8759,
      "Laura__": 8760,
      "Pengu": 8761,
      "tomb__": 8762,
      "Venezuelan__": 8763,
      "partial__": 8764,
      "complain": 8765,
      "Childr": 8766,
      "double__": 8767,
      "activities__": 8768,
      "Education__": 8769,
      "Israel__": 8770,
      "Festival": 8771,
      "Bear\n": 8772,
      "expected__to__": 8773,
      "knowledge__": 8774,
      "People's__": 8775,
      "magazine__": 8776,
      "billion__": 8777,
      "alternative__": 8778,
      "for__the__first__time__": 8779,
      "Province,__": 8780,
      "ieux__": 8781,
      "prototype__": 8782,
      "circum": 8783,
      "saw__the__": 8784,
      "Brooks__": 8785,
      "Theatre__": 8786,
      "smaller__": 8787,
      "equipment__": 8788,
      "Boston__": 8789,
      "strongly__": 8790,
      "guarante": 8791,
      "Massachus": 8792,
      "Levinsohn__": 8793,
      "Elizab": 8794,
      "thalm": 8795,
      "architectural__": 8796,
      "twelve__": 8797,
      "Edinburgh__": 8798,
      "Pére": 8799,
      "ultimately__": 8800,
      "Hell__Creek__Cave__": 8801,
      "Czechoslov": 8802,
      "Fort__Canning__": 8803,
      "widespread__": 8804,
      "elecommunications__": 8805,
      "Gallien": 8806,
      "Kentuck": 8807,
      "_…\n": 8808,
      "\".__": 8809,
      "(T": 8810,
      "-4": 8811,
      ".The__": 8812,
      "26,__": 8813,
      "53": 8814,
      "65__": 8815,
      "600": 8816,
      "74": 8817,
      "8),__": 8818,
      "?\",__\"": 8819,
      "Av": 8820,
      "BS": 8821,
      "Böck": 8822,
      "CP": 8823,
      "C,__": 8824,
      "Cas": 8825,
      "Cur": 8826,
      "Call__": 8827,
      "City,__": 8828,
      "Famil": 8829,
      "Figh": 8830,
      "Fern": 8831,
      "HM": 8832,
      "Hil": 8833,
      "Hay": 8834,
      "Harry__": 8835,
      "Hospital__": 8836,
      "Kaz": 8837,
      "Lar": 8838,
      "Lew": 8839,
      "Mes": 8840,
      "Mot": 8841,
      "Nation": 8842,
      "OC": 8843,
      "Out": 8844,
      "Pur": 8845,
      "Pear": 8846,
      "RS": 8847,
      "Rot": 8848,
      "Sir__": 8849,
      "Saw": 8850,
      "Ta": 8851,
      "Tog": 8852,
      "Top__": 8853,
      "Vanc": 8854,
      "Z__": 8855,
      "[5]__": 8856,
      "\\right": 8857,
      "\\left": 8858,
      "_9": 8859,
      "_n": 8860,
      "_Le": 8861,
      "_It__was__": 8862,
      "a__the__": 8863,
      "ax__": 8864,
      "a.__In__": 8865,
      "bed__": 8866,
      "bbe": 8867,
      "bourn": 8868,
      "brown__": 8869,
      "cited__": 8870,
      "core__": 8871,
      "dal": 8872,
      "date__": 8873,
      "dens": 8874,
      "e.__He__": 8875,
      "etic__": 8876,
      "fus": 8877,
      "gar__": 8878,
      "ha__": 8879,
      "hot": 8880,
      "ion,__": 8881,
      "ible__": 8882,
      "ky__": 8883,
      "less": 8884,
      "ming": 8885,
      "mas": 8886,
      "mm__": 8887,
      "now": 8888,
      "née__": 8889,
      "past": 8890,
      "rick": 8891,
      "sed": 8892,
      "say__": 8893,
      "task__": 8894,
      "u__and__": 8895,
      "van__": 8896,
      "veg": 8897,
      "win__the__": 8898,
      "wak": 8899,
      "winter": 8900,
      "yo__": 8901,
      "ycl": 8902,
      "ía__": 8903,
      "ō__": 8904,
      "s__an__": 8905,
      "thel": 8906,
      "insur": 8907,
      "anz": 8908,
      "ann__": 8909,
      "an.\n": 8910,
      "ans__and__": 8911,
      "ero__": 8912,
      "en-": 8913,
      "arts__": 8914,
      "ed__two__": 8915,
      "al.\n": 8916,
      "ality__of__": 8917,
      "ties__of__": 8918,
      "of-": 8919,
      "represent__": 8920,
      "a__I": 8921,
      "stop": 8922,
      "ster__of__": 8923,
      "stopp": 8924,
      ".__[": 8925,
      "as__his__": 8926,
      "atom": 8927,
      "ating__a__": 8928,
      "in__of__": 8929,
      "ici": 8930,
      "ic:__": 8931,
      "on__June__": 8932,
      "on__September ": 8933,
      "is__of__": 8934,
      "to__give__": 8935,
      "amend": 8936,
      "isch": 8937,
      "island": 8938,
      "older__": 8939,
      "was__one__of__the__": 8940,
      "was__built__": 8941,
      "was__appointed__": 8942,
      "acent__": 8943,
      "roo": 8944,
      "at__that__": 8945,
      "n__and__": 8946,
      "1920": 8947,
      "ador": 8948,
      "administ": 8949,
      "wireless__": 8950,
      "ver__the__": 8951,
      "in__the__first__": 8952,
      "able,__": 8953,
      "die__": 8954,
      "died__on__": 8955,
      "dimen": 8956,
      "ophon": 8957,
      "exual__": 8958,
      "excell": 8959,
      "for__an__": 8960,
      "or__more__": 8961,
      "ander": 8962,
      "plo": 8963,
      "plot__": 8964,
      "with__her__": 8965,
      "ation,__the__": 8966,
      "superi": 8967,
      "trade__": 8968,
      "seg": 8969,
      "sey": 8970,
      "sey__": 8971,
      ".[12": 8972,
      "tick": 8973,
      "beat": 8974,
      "beauti": 8975,
      "ated__and__": 8976,
      "ated__by__the__": 8977,
      "strai": 8978,
      "tion__in__the__": 8979,
      "__and__was__": 8980,
      "implement": 8981,
      "quite__": 8982,
      "tion,__the__": 8983,
      "evacu": 8984,
      "parts__of__": 8985,
      "from__197": 8986,
      "emble__": 8987,
      "ay__and__": 8988,
      "aked__": 8989,
      "recip": 8990,
      "ts__that__": 8991,
      "ongst__": 8992,
      "pray": 8993,
      "_The__film__": 8994,
      "notic": 8995,
      "2006__": 8996,
      "computer__": 8997,
      "gives__": 8998,
      "port,__": 8999,
      "all__of__the__": 9000,
      "Third__": 9001,
      "aus__": 9002,
      "poem": 9003,
      "s.__A__": 9004,
      "a,__a__": 9005,
      "__cou": 9006,
      "__col": 9007,
      "alid__": 9008,
      "alities__": 9009,
      "one__and__": 9010,
      "finish__": 9011,
      "1991": 9012,
      "disp": 9013,
      "titud": 9014,
      "attribu": 9015,
      "essend": 9016,
      "have__the__": 9017,
      "named__the__": 9018,
      "sector": 9019,
      "flying__": 9020,
      "Comb": 9021,
      "pressur": 9022,
      "You__": 9023,
      "up__in__": 9024,
      "baseball__": 9025,
      "basket": 9026,
      "critic__": 9027,
      "1986": 9028,
      "mother,__": 9029,
      "Cloud": 9030,
      "ations__are__": 9031,
      "1945": 9032,
      "1944,__": 9033,
      "New__Jer": 9034,
      "ing__to__a__": 9035,
      "10]\n": 9036,
      "15]__": 9037,
      "15]\n": 9038,
      "Germany__": 9039,
      "ity,__and__": 9040,
      "_Since__": 9041,
      "glob": 9042,
      "invent": 9043,
      "9__to__": 9044,
      "aham": 9045,
      "capable__": 9046,
      "released__": 9047,
      "history__of__": 9048,
      "Sher": 9049,
      "Shir": 9050,
      "operates__": 9051,
      "Diam": 9052,
      "movie__": 9053,
      "loan__": 9054,
      "load": 9055,
      "Spir": 9056,
      "Space__": 9057,
      "Person": 9058,
      "made__by__": 9059,
      ".[1]__It__was__": 9060,
      "broad": 9061,
      "broad__": 9062,
      "ski": 9063,
      "changed__": 9064,
      "changes__": 9065,
      "grapher__": 9066,
      "corp": 9067,
      "correc": 9068,
      "Tradi": 9069,
      "partner__": 9070,
      "shipp": 9071,
      "Grup": 9072,
      "founded__the__": 9073,
      "Pho": 9074,
      "held__the__": 9075,
      "Carri": 9076,
      "door__": 9077,
      "game,__": 9078,
      "Museum": 9079,
      ".__By__": 9080,
      "study__of__": 9081,
      "limit": 9082,
      "received__his__": 9083,
      "before__being__": 9084,
      "is__a__stub.__You__can__help__Wikipedia__by__expanding__it.The__": 9085,
      "art__and__": 9086,
      "viewed__": 9087,
      "Poland": 9088,
      "Hebre": 9089,
      "USA": 9090,
      "honour": 9091,
      "honeysuck": 9092,
      "life,__": 9093,
      "myth": 9094,
      "Berlin": 9095,
      "characteriz": 9096,
      "_Follow": 9097,
[...]
