[PAD]	0
<unk>	0
<s>	0
</s>	0
<|im_start|>	0
<|im_end|>	0
▁t	-0
he	-1
▁a	-2
in	-3
er	-4
▁the	-5
on	-6
ed	-7
re	-8
nd	-9
▁o	-10
at	-11
▁w	-12
▁s	-13
is	-14
or	-15
en	-16
an	-17
it	-18
ar	-19
al	-20
▁in	-21
▁c	-22
es	-23
▁f	-24
▁of	-25
▁b	-26
as	-27
▁and	-28
ing	-29
ic	-30
▁p	-31
ou	-32
ion	-33
▁to	-34
▁m	-35
le	-36
om	-37
▁d	-38
▁T	-39
▁S	-40
▁h	-41
▁A	-42
▁C	-43
il	-44
ent	-45
▁1	-46
.[	-47
st	-48
▁re	-49
am	-50
ro	-51
▁M	-52
▁was	-53
el	-54
▁l	-55
▁e	-56
▁n	-57
ac	-58
ol	-59
▁I	-60
ad	-61
▁H	-62
▁2	-63
ur	-64
▁The	-65
ec	-66
▁th	-67
▁B	-68
ir	-69
iv	-70
ly	-71
ation	-72
▁on	-73
ter	-74
▁is	-75
▁for	-76
▁P	-77
im	-78
us	-79
▁g	-80
et	-81
ot	-82
ig	-83
▁as	-84
▁he	-85
id	-86
ut	-87
▁(	-88
▁19	-89
▁W	-90
ith	-91
em	-92
▁st	-93
▁F	-94
▁R	-95
ay	-96
▁by	-97
and	-98
un	-99
▁N	-100
▁20	-101
▁D	-102
ow	-103
ers	-104
▁with	-105
ch	-106
▁L	-107
▁G	-108
ist	-109
ct	-110
ce	-111
th	-112
▁be	-113
ul	-114
▁wh	-115
▁at	-116
▁it	-117
ag	-118
ver	-119
▁J	-120
▁E	-121
▁O	-122
▁an	-123
▁r	-124
ain	-125
os	-126
▁con	-127
rom	-128
her	-129
▁al	-130
▁In	-131
ia	-132
est	-133
oc	-134
ber	-135
av	-136
ip	-137
▁that	-138
▁com	-139
um	-140
ub	-141
.[1	-142
▁K	-143
▁his	-144
ies	-145
▁pro	-146
▁from	-147
ate	-148
ian	-149
ity	-150
ap	-151
op	-152
res	-153
▁ex	-154
▁v	-155
ab	-156
od	-157
▁"	-158
ated	-159
if	-160
art	-161
ud	-162
▁U	-163
ear	-164
▁de	-165
all	-166
ew	-167
ill	-168
our	-169
▁or	-170
ard	-171
ary	-172
ld	-173
ort	-174
ant	-175
ri	-176
ich	-177
up	-178
ak	-179
ame	-180
ess	-181
▁se	-182
qu	-183
ive	-184
▁St	-185
▁ch	-186
][	-187
ment	-188
igh	-189
oun	-190
ore	-191
▁ar	-192
ere	-193
ov	-194
▁are	-195
▁pl	-196
ge	-197
ial	-198
▁201	-199
ect	-200
▁He	-201
se	-202
▁Ch	-203
▁were	-204
gh	-205
▁k	-206
ust	-207
ical	-208
ong	-209
ell	-210
▁Th	-211
ound	-212
ep	-213
.[2	-214
ast	-215
▁sp	-216
uc	-217
▁le	-218
▁which	-219
▁Y	-220
▁y	-221
▁V	-222
▁comp	-223
▁tr	-224
ost	-225
▁sh	-226
irst	-227
00	-228
og	-229
ack	-230
mer	-231
ish	-232
ions	-233
ik	-234
so	-235
out	-236
3]	-237
▁It	-238
ie	-239
ue	-240
ra	-241
cl	-242
▁first	-243
▁200	-244
ember	-245
ord	-246
end	-247
ight	-248
ire	-249
▁exp	-250
▁un	-251
ork	-252
ans	-253
erv	-254
ign	-255
▁Un	-256
ous	-257
ough	-258
ok	-259
▁also	-260
ine	-261
pp	-262
▁not	-263
fter	-264
ff	-265
▁its	-266
ave	-267
ome	-268
hed	-269
ure	-270
ther	-271
▁18	-272
4]	-273
ric	-274
▁had	-275
ru	-276
iz	-277
▁whe	-278
▁int	-279
ass	-280
▁cont	-281
▁has	-282
aw	-283
▁ab	-284
ib	-285
rit	-286
ry	-287
ice	-288
▁can	-289
man	-290
own	-291
und	-292
▁3	-293
ount	-294
▁j	-295
ond	-296
▁cl	-297
),	-298
age	-299
▁This	-300
ang	-301
5]	-302
▁who	-303
ren	-304
ational	-305
ations	-306
wo	-307
▁art	-308
▁res	-309
▁their	-310
clud	-311
▁te	-312
.[1]	-313
ree	-314
ime	-315
▁her	-316
ubl	-317
ult	-318
▁but	-319
▁off	-320
ition	-321
▁Mar	-322
▁year	-323
▁us	-324
ace	-325
ater	-326
▁ac	-327
▁gr	-328
ited	-329
▁part	-330
ould	-331
eg	-332
lect	-333
ence	-334
ide	-335
ach	-336
▁ag	-337
ates	-338
ory	-339
per	-340
6]	-341
ey	-342
▁199	-343
▁app	-344
▁includ	-345
pl	-346
ted	-347
uring	-348
ally	-349
orn	-350
▁Ar	-351
▁one	-352
port	-353
▁bec	-354
wn	-355
▁ad	-356
land	-357
▁loc	-358
ug	-359
▁have	-360
ile	-361
ob	-362
▁Al	-363
low	-364
▁202	-365
iss	-366
over	-367
▁this	-368
ts	-369
ran	-370
▁play	-371
ild	-372
▁been	-373
▁per	-374
ath	-375
ens	-376
te	-377
▁On	-378
amp	-379
▁sc	-380
▁two	-381
oin	-382
ade	-383
ind	-384
2]	-385
▁reg	-386
tern	-387
▁work	-388
7]	-389
▁hel	-390
▁rec	-391
▁after	-392
▁As	-393
▁man	-394
act	-395
▁ro	-396
ied	-397
ark	-398
▁dis	-399
ased	-400
▁new	-401
▁comm	-402
urn	-403
▁4	-404
orm	-405
▁serv	-406
1]	-407
edia	-408
▁und	-409
meric	-410
anding	-411
ward	-412
ah	-413
▁help	-414
▁Com	-415
gan	-416
old	-417
ors	-418
▁ev	-419
▁out	-420
▁up	-421
ivers	-422
.[2]	-423
uch	-424
amil	-425
▁des	-426
▁over	-427
inal	-428
ood	-429
▁him	-430
▁about	-431
▁Americ	-432
enc	-433
▁ne	-434
ents	-435
▁other	-436
8]	-437
▁artic	-438
▁under	-439
▁bo	-440
▁5	-441
▁You	-442
are	-443
▁into	-444
we	-445
ason	-446
▁she	-447
ase	-448
,[	-449
▁An	-450
▁Sh	-451
▁pr	-452
ail	-453
ely	-454
ters	-455
▁fil	-456
▁Wik	-457
9]	-458
▁article	-459
.[3]	-460
▁they	-461
fer	-462
ite	-463
▁ret	-464
▁time	-465
orth	-466
ished	-467
▁im	-468
▁rel	-469
▁col	-470
▁pre	-471
▁(1	-472
▁She	-473
oy	-474
hip	-475
▁att	-476
ress	-477
ool	-478
ton	-479
▁198	-480
io	-481
ction	-482
0]	-483
▁publ	-484
▁kn	-485
▁would	-486
ont	-487
ered	-488
▁all	-489
▁ass	-490
▁ind	-491
▁pol	-492
▁New	-493
able	-494
rough	-495
ose	-496
iversity	-497
ft	-498
▁Wikip	-499
▁Le	-500
▁Wikipedia	-501
les	-502
▁team	-503
▁expanding	-504
als	-505
ics	-506
▁en	-507
ious	-508
▁stub	-509
ral	-510
▁sec	-511
ings	-512
).	-513
▁194	-514
▁United	-515
▁during	-516
ance	-517
▁found	-518
hn	-519
ks	-520
▁bu	-521
▁cons	-522
▁more	-523
ating	-524
orld	-525
che	-526
outh	-527
oth	-528
▁rem	-529
pr	-530
ict	-531
▁dec	-532
rop	-533
one	-534
ames	-535
▁season	-536
vel	-537
▁where	-538
4,	-539
.[3	-540
oup	-541
way	-542
ener	-543
▁film	-544
▁only	-545
▁act	-546
ollow	-547
▁En	-548
▁197	-549
ative	-550
red	-551
▁we	-552
ident	-553
ake	-554
rib	-555
▁years	-556
ock	-557
▁co	-558
olog	-559
▁again	-560
▁6	-561
▁fe	-562
▁bet	-563
▁American	-564
2,	-565
▁when	-566
ual	-567
ince	-568
ons	-569
▁University	-570
cess	-571
chool	-572
form	-573
▁spec	-574
.[4]	-575
ween	-576
ning	-577
▁three	-578
gr	-579
▁Bl	-580
▁Can	-581
▁ear	-582
du	-583
▁Sp	-584
▁Col	-585
att	-586
use	-587
▁sup	-588
."	-589
au	-590
▁trans	-591
▁ent	-592
pt	-593
duc	-594
0,	-595
ph	-596
anc	-597
ept	-598
▁Ind	-599
▁pres	-600
▁later	-601
air	-602
emb	-603
ash	-604
▁Z	-605
ular	-606
▁prov	-607
led	-608
▁me	-609
ific	-610
▁196	-611
▁sub	-612
ier	-613
fore	-614
▁195	-615
ained	-616
▁became	-617
▁sy	-618
▁Ger	-619
5,	-620
▁7	-621
▁through	-622
▁inv	-623
ities	-624
▁between	-625
irect	-626
ision	-627
cc	-628
▁cent	-629
▁then	-630
▁famil	-631
ix	-632
rov	-633
▁am	-634
oci	-635
ived	-636
▁form	-637
▁follow	-638
1,	-639
ouse	-640
▁most	-641
stit	-642
eries	-643
▁rele	-644
reat	-645
▁end	-646
▁stud	-647
▁them	-648
az	-649
ober	-650
ley	-651
ounc	-652
ourn	-653
aj	-654
ros	-655
▁Comm	-656
▁At	-657
▁mov	-658
▁rev	-659
other	-660
▁inter	-661
▁States	-662
▁second	-663
ement	-664
overn	-665
3,	-666
ev	-667
ina	-668
ather	-669
▁dist	-670
▁Cl	-671
oot	-672
▁qu	-673
ject	-674
usic	-675
▁elect	-676
ick	-677
▁pe	-678
▁def	-679
9,	-680
▁name	-681
any	-682
til	-683
6,	-684
▁made	-685
8,	-686
▁ed	-687
arri	-688
▁mon	-689
▁rep	-690
▁such	-691
▁offic	-692
uth	-693
▁char	-694
▁hist	-695
eld	-696
.[5]	-697
▁After	-698
rap	-699
ague	-700
ever	-701
▁known	-702
ugust	-703
▁there	-704
my	-705
][1	-706
ired	-707
ays	-708
hen	-709
ional	-710
ife	-711
▁own	-712
▁cap	-713
▁Sept	-714
.[4	-715
ten	-716
▁book	-717
▁orig	-718
▁Canad	-719
ank	-720
▁writ	-721
▁well	-722
ins	-723
▁cre	-724
▁August	-725
▁National	-726
▁including	-727
0.	-728
▁Q	-729
▁num	-730
eb	-731
amed	-732
▁some	-733
▁inc	-734
hy	-735
.[6]	-736
▁September	-737
ise	-738
une	-739
▁Gr	-740
▁bl	-741
▁so	-742
ures	-743
▁Jan	-744
▁sing	-745
▁polit	-746
▁while	-747
xt	-748
▁Ju	-749
stitut	-750
▁pop	-751
▁until	-752
oss	-753
ball	-754
▁than	-755
▁used	-756
▁return	-757
7,	-758
iew	-759
▁sever	-760
ural	-761
sh	-762
ann	-763
▁/	-764
ines	-765
▁call	-766
▁oper	-767
very	-768
▁do	-769
ople	-770
rict	-771
▁series	-772
▁bro	-773
velop	-774
▁–	-775
ists	-776
▁Eng	-777
▁May	-778
▁lead	-779
▁before	-780
ibr	-781
▁De	-782
▁Jo	-783
▁acc	-784
▁ann	-785
▁group	-786
▁family	-787
ron	-788
▁being	-789
▁build	-790
erson	-791
▁North	-792
▁Aust	-793
ai	-794
▁8	-795
ized	-796
▁four	-797
▁prom	-798
▁sign	-799
ale	-800
ives	-801
▁count	-802
▁against	-803
arg	-804
ism	-805
por	-806
uary	-807
▁For	-808
▁Br	-809
▁War	-810
▁organ	-811
000	-812
▁fl	-813
▁go	-814
▁Nov	-815
▁fin	-816
▁dep	-817
▁record	-818
."[	-819
pril	-820
▁July	-821
▁same	-822
▁gener	-823
▁several	-824
▁join	-825
▁main	-826
–1	-827
ital	-828
▁direct	-829
iver	-830
▁est	-831
ctober	-832
▁9	-833
ets	-834
▁won	-835
▁March	-836
▁no	-837
enn	-838
▁Ad	-839
ially	-840
▁April	-841
iam	-842
uss	-843
▁Dec	-844
▁His	-845
pen	-846
▁Sc	-847
owever	-848
▁World	-849
ield	-850
ting	-851
▁Con	-852
▁comple	-853
▁design	-854
▁October	-855
ern	-856
▁em	-857
▁January	-858
▁November	-859
ird	-860
▁193	-861
overnment	-862
{\	-863
aid	-864
▁tit	-865
▁rece	-866
uk	-867
▁June	-868
▁city	-869
ex	-870
uck	-871
ued	-872
▁And	-873
▁early	-874
▁[	-875
ert	-876
son	-877
ury	-878
▁air	-879
▁disc	-880
▁15	-881
▁17	-882
▁feat	-883
ission	-884
▁Black	-885
▁appear	-886
ful	-887
▁Reg	-888
▁Fran	-889
▁both	-890
▁public	-891
▁people	-892
▁Ass	-893
▁sur	-894
eded	-895
ll	-896
sp	-897
▁suc	-898
ibrary	-899
▁Count	-900
..	-901
its	-902
ross	-903
▁min	-904
▁run	-905
▁began	-906
▁develop	-907
ograp	-908
ek	-909
yp	-910
ike	-911
ajor	-912
▁set	-913
▁held	-914
▁many	-915
-1	-916
da	-917
arl	-918
ces	-919
▁Ed	-920
▁ext	-921
▁music	-922
ars	-923
ually	-924
ung	-925
▁game	-926
▁event	-927
▁school	-928
der	-929
stru	-930
▁band	-931
▁head	-932
▁near	-933
▁local	-934
▁gu	-935
ower	-936
ured	-937
2.	-938
elf	-939
▁Pro	-940
▁mod	-941
▁King	-942
▁named	-943
▁contin	-944
▁played	-945
20	-946
eal	-947
ull	-948
▁11	-949
ments	-950
▁high	-951
▁long	-952
▁compet	-953
▁Wh	-954
ublic	-955
stem	-956
▁back	-957
ret	-958
fess	-959
ology	-960
illion	-961
the	-962
duced	-963
▁show	-964
",	-965
▁may	-966
▁charac	-967
ham	-968
olv	-969
ues	-970
▁16	-971
lege	-972
▁German	-973
▁number	-974
erm	-975
ains	-976
ians	-977
ided	-978
oman	-979
▁var	-980
ister	-981
▁since	-982
▁start	-983
▁released	-984
urch	-985
▁add	-986
▁ref	-987
abl	-988
ange	-989
ootball	-990
The	-991
▁will	-992
isc	-993
▁med	-994
▁marri	-995
ternational	-996
els	-997
.[7]	-998
▁imp	-999
▁December	-1000
ty	-1001
row	-1002
ient	-1003
▁met	-1004
▁Brit	-1005
▁Cent	-1006
▁area	-1007
▁resp	-1008
aining	-1009
▁former	-1010
▁following	-1011
▁Tr	-1012
▁br	-1013
▁win	-1014
uthor	-1015
resent	-1016
bum	-1017
▁Or	-1018
berg	-1019
ices	-1020
▁bel	-1021
athus	-1022
ribut	-1023
▁born	-1024
▁Ph	-1025
ck	-1026
mp	-1027
▁dif	-1028
▁occ	-1029
▁They	-1030
haw	-1031
ook	-1032
rew	-1033
▁Is	-1034
augh	-1035
osed	-1036
iev	-1037
min	-1038
▁Sy	-1039
ival	-1040
▁str	-1041
▁York	-1042
▁prot	-1043
▁Austral	-1044
fl	-1045
▁$	-1046
ene	-1047
eng	-1048
ipp	-1049
▁km	-1050
▁ph	-1051
▁sm	-1052
▁County	-1053
▁member	-1054
▁single	-1055
▁building	-1056
ner	-1057
▁dr	-1058
daen	-1059
oung	-1060
▁open	-1061
▁published	-1062
▁&	-1063
alth	-1064
hern	-1065
▁due	-1066
▁John	-1067
▁home	-1068
▁South	-1069
daenathus	-1070
ause	-1071
imes	-1072
ience	-1073
ified	-1074
▁child	-1075
▁served	-1076
▁any	-1077
aking	-1078
ature	-1079
ically	-1080
ee	-1081
rug	-1082
vent	-1083
▁son	-1084
▁Odaenathus	-1085
rent	-1086
ended	-1087
▁partic	-1088
▁Mc	-1089
▁town	-1090
▁state	-1091
ax	-1092
▁10	-1093
▁Ge	-1094
aced	-1095
ches	-1096
▁All	-1097
▁Car	-1098
▁cur	-1099
ility	-1100
▁album	-1101
}}	-1102
han	-1103
ium	-1104
ants	-1105
ency	-1106
gram	-1107
▁five	-1108
▁species	-1109
ne	-1110
lev	-1111
ilit	-1112
ised	-1113
▁Chr	-1114
▁major	-1115
▁League	-1116
▁located	-1117
▁government	-1118
sc	-1119
.[5	-1120
▁Man	-1121
▁mat	-1122
▁sim	-1123
▁each	-1124
▁During	-1125
▁company	-1126
ible	-1127
▁Rep	-1128
aving	-1129
▁death	-1130
▁system	-1131
4.	-1132
med	-1133
rat	-1134
▁use	-1135
▁State	-1136
▁station	-1137
▁'	-1138
▁down	-1139
▁British	-1140
▁Co	-1141
▁ob	-1142
▁(19	-1143
▁192	-1144
▁based	-1145
▁establ	-1146
▁history	-1147
▁support	-1148
br	-1149
iet	-1150
▁Pl	-1151
ages	-1152
born	-1153
▁these	-1154
▁called	-1155
▁commun	-1156
▁received	-1157
8.	-1158
▁Pe	-1159
▁dest	-1160
▁list	-1161
embers	-1162
ulation	-1163
3.	-1164
ilt	-1165
▁eff	-1166
ranch	-1167
▁along	-1168
for	-1169
ink	-1170
▁Pol	-1171
▁could	-1172
▁final	-1173
▁region	-1174
ior	-1175
▁Am	-1176
itions	-1177
▁included	-1178
to	-1179
ean	-1180
ploy	-1181
side	-1182
urop	-1183
▁bus	-1184
▁produ	-1185
▁right	-1186
5.	-1187
yn	-1188
iod	-1189
apan	-1190
▁Cup	-1191
▁Nor	-1192
wards	-1193
ection	-1194
▁world	-1195
af	-1196
▁Af	-1197
▁Pr	-1198
omen	-1199
▁national	-1200
1.	-1201
esp	-1202
gin	-1203
▁US	-1204
ales	-1205
cent	-1206
ebru	-1207
▁iss	-1208
ected	-1209
▁ship	-1210
ebruary	-1211
▁However	-1212
▁Blackhaw	-1213
by	-1214
arm	-1215
rol	-1216
▁cr	-1217
ched	-1218
ociation	-1219
▁political	-1220
6.	-1221
of	-1222
ove	-1223
▁El	-1224
▁191	-1225
orpor	-1226
▁house	-1227
▁north	-1228
▁Canada	-1229
▁person	-1230
▁12	-1231
reen	-1232
iment	-1233
▁post	-1234
▁success	-1235
7.	-1236
ald	-1237
▁late	-1238
▁left	-1239
▁place	-1240
▁members	-1241
▁million	-1242
▁February	-1243
hem	-1244
ily	-1245
.[9]	-1246
ator	-1247
.[1][	-1248
▁City	-1249
▁land	-1250
▁pass	-1251
▁song	-1252
▁took	-1253
▁vill	-1254
▁father	-1255
▁program	-1256
▁returned	-1257
ga	-1258
arr	-1259
▁Sw	-1260
▁Japan	-1261
▁class	-1262
▁football	-1263
▁We	-1264
.[8]	-1265
ined	-1266
iness	-1267
▁inst	-1268
ampions	-1269
▁School	-1270
▁needed	-1271
▁period	-1272
▁present	-1273
opp	-1274
tle	-1275
▁14	-1276
▁II	-1277
▁aff	-1278
ounced	-1279
itation	-1280
▁include	-1281
ox	-1282
aim	-1283
aun	-1284
ble	-1285
urg	-1286
omet	-1287
▁vis	-1288
▁Geor	-1289
▁club	-1290
▁cour	-1291
▁mark	-1292
▁month	-1293
".	-1294
▁Her	-1295
ocial	-1296
▁around	-1297
▁differ	-1298
rel	-1299
ling	-1300
▁law	-1301
▁represent	-1302
avy	-1303
▁Bro	-1304
▁Per	-1305
▁West	-1306
▁Europ	-1307
▁small	-1308
▁profess	-1309
▁project	-1310
▁original	-1311
▁Part	-1312
▁life	-1313
▁constru	-1314
ecut	-1315
eder	-1316
▁day	-1317
▁desc	-1318
ouncil	-1319
▁chang	-1320
▁moved	-1321
▁district	-1322
ys	-1323
rac	-1324
▁Re	-1325
raft	-1326
▁nov	-1327
ently	-1328
▁crit	-1329
ording	-1330
▁Christ	-1331
▁general	-1332
ese	-1333
oint	-1334
▁did	-1335
▁lit	-1336
ately	-1337
iving	-1338
▁title	-1339
▁young	-1340
▁promot	-1341
.[6	-1342
arn	-1343
ony	-1344
▁Gu	-1345
▁within	-1346
par	-1347
▁Te	-1348
▁fr	-1349
▁po	-1350
play	-1351
ization	-1352
▁joined	-1353
reek	-1354
▁arr	-1355
▁leg	-1356
osition	-1357
aff	-1358
ata	-1359
yle	-1360
arge	-1361
▁San	-1362
▁dem	-1363
rench	-1364
estern	-1365
ke	-1366
com	-1367
ief	-1368
ott	-1369
roy	-1370
alls	-1371
iven	-1372
▁men	-1373
▁camp	-1374
▁care	-1375
▁trad	-1376
▁vers	-1377
amilton	-1378
▁consid	-1379
▁another	-1380
▁country	-1381
▁announced	-1382
▁ω	-1383
ane	-1384
aul	-1385
aus	-1386
inc	-1387
▁fre	-1388
▁red	-1389
attle	-1390
▁Mary	-1391
▁Russ	-1392
▁requ	-1393
▁Hamilton	-1394
▁population	-1395
ats	-1396
umb	-1397
ven	-1398
▁Sm	-1399
echn	-1400
.[10]	-1401
ences	-1402
▁Afric	-1403
▁There	-1404
▁manag	-1405
ference	-1406
day	-1407
ides	-1408
▁six	-1409
▁even	-1410
▁term	-1411
though	-1412
▁third	-1413
▁led	-1414
▁rad	-1415
▁last	-1416
▁built	-1417
▁intro	-1418
artment	-1419
▁author	-1420
▁report	-1421
▁business	-1422
▁location	-1423
▁character	-1424
▁-	-1425
line	-1426
▁Pal	-1427
earch	-1428
riend	-1429
▁comb	-1430
▁just	-1431
9.	-1432
ki	-1433
ech	-1434
uel	-1435
aint	-1436
reet	-1437
▁par	-1438
▁Will	-1439
▁prev	-1440
▁said	-1441
▁England	-1442
lin	-1443
▁(2	-1444
ense	-1445
▁adv	-1446
▁Ital	-1447
ograph	-1448
▁games	-1449
▁south	-1450
ilitary	-1451
▁College	-1452
▁destroy	-1453
ampionship	-1454
ases	-1455
unic	-1456
▁now	-1457
ering	-1458
▁race	-1459
▁sold	-1460
▁ident	-1461
▁histor	-1462
▁origin	-1463
▁because	-1464
uff	-1465
▁Ab	-1466
oard	-1467
omin	-1468
ored	-1469
▁del	-1470
▁gen	-1471
aster	-1472
▁died	-1473
▁init	-1474
ask	-1475
con	-1476
ote	-1477
▁13	-1478
ords	-1479
▁opp	-1480
▁tour	-1481
que	-1482
rip	-1483
▁Be	-1484
▁bi	-1485
less	-1486
▁age	-1487
illed	-1488
ought	-1489
▁repl	-1490
▁award	-1491
▁collect	-1492
▁describ	-1493
50	-1494
ae	-1495
.[7	-1496
hes	-1497
mit	-1498
▁Ex	-1499
▁mi	-1500
ania	-1501
cast	-1502
▁189	-1503
▁tem	-1504
ether	-1505
▁Sing	-1506
▁fore	-1507
▁stat	-1508
▁involv	-1509
hm	-1510
let	-1511
▁Gl	-1512
▁my	-1513
ared	-1514
rote	-1515
▁Par	-1516
ively	-1517
omega	-1518
▁Comp	-1519
▁defe	-1520
▁cover	-1521
▁incre	-1522
▁related	-1523
adem	-1524
▁Air	-1525
▁command	-1526
▁if	-1527
ably	-1528
cept	-1529
ests	-1530
orts	-1531
▁old	-1532
ality	-1533
▁like	-1534
▁appro	-1535
▁black	-1536
▁founded	-1537
▁remained	-1538
▁ep	-1539
rest	-1540
▁gun	-1541
▁Party	-1542
▁allow	-1543
▁large	-1544
▁power	-1545
▁official	-1546
[1	-1547
ps	-1548
era	-1549
▁av	-1550
▁sl	-1551
ilar	-1552
read	-1553
▁eng	-1554
ellow	-1555
▁conf	-1556
▁find	-1557
▁rest	-1558
▁broad	-1559
▁often	-1560
▁player	-1561
▁service	-1562
▁various	-1563
′′	-1564
][2	-1565
ama	-1566
ety	-1567
rem	-1568
lish	-1569
▁Har	-1570
▁top	-1571
▁war	-1572
epend	-1573
▁came	-1574
▁hand	-1575
▁host	-1576
▁read	-1577
▁Roman	-1578
▁every	-1579
▁those	-1580
▁married	-1581
▁Republic	-1582
][4	-1583
adu	-1584
irm	-1585
akes	-1586
ison	-1587
work	-1588
▁Acc	-1589
▁ant	-1590
▁Shah	-1591
▁next	-1592
▁journ	-1593
▁novel	-1594
▁short	-1595
▁teams	-1596
stitute	-1597
▁Library	-1598
▁Blackhawk	-1599
ged	-1600
inn	-1601
ino	-1602
▁1,	-1603
▁Mon	-1604
▁Tor	-1605
.[11]	-1606
igned	-1607
▁Army	-1608
▁Dist	-1609
▁plan	-1610
▁wrote	-1611
▁result	-1612
uty	-1613
▁Fl	-1614
▁La	-1615
aves	-1616
idge	-1617
▁190	-1618
▁Dav	-1619
▁fac	-1620
▁activ	-1621
▁daugh	-1622
▁mother	-1623
▁current	-1624
▁village	-1625
▁Canadian	-1626
▁Association	-1627
lymp	-1628
self	-1629
ster	-1630
▁Cal	-1631
▁deb	-1632
.[2][	-1633
▁When	-1634
▁capt	-1635
▁vict	-1636
▁what	-1637
▁Olymp	-1638
▁among	-1639
▁Indian	-1640
▁different	-1641
▁conc	-1642
▁full	-1643
▁still	-1644
▁works	-1645
tar	-1646
▁25	-1647
ivid	-1648
ract	-1649
▁Jew	-1650
▁Law	-1651
ondon	-1652
▁expl	-1653
▁poss	-1654
ington	-1655
urther	-1656
▁claim	-1657
▁children	-1658
▁previous	-1659
▁services	-1660
ico	-1661
ots	-1662
tal	-1663
iber	-1664
reed	-1665
▁Res	-1666
▁car	-1667
▁rul	-1668
oppus	-1669
▁From	-1670
▁port	-1671
▁French	-1672
▁Hoppus	-1673
▁continued	-1674
▁contribut	-1675
co	-1676
ze	-1677
ges	-1678
ode	-1679
▁hon	-1680
ument	-1681
▁acqu	-1682
▁best	-1683
▁laun	-1684
▁field	-1685
▁round	-1686
▁water	-1687
▁London	-1688
▁having	-1689
▁worked	-1690
▁century	-1691
LS	-1692
urs	-1693
▁188	-1694
▁ele	-1695
▁non	-1696
▁ren	-1697
ummer	-1698
▁days	-1699
▁much	-1700
ention	-1701
▁friend	-1702
▁America	-1703
HL	-1704
hys	-1705
▁{\	-1706
angu	-1707
▁Dep	-1708
▁Mac	-1709
▁Med	-1710
ensus	-1711
▁Mark	-1712
▁arch	-1713
▁drug	-1714
▁educ	-1715
▁trav	-1716
▁turn	-1717
formed	-1718
▁While	-1719
citation	-1720
▁English	-1721
▁established	-1722
▁international	-1723
_{	-1724
oon	-1725
▁26	-1726
▁Ber	-1727
▁Gra	-1728
▁squ	-1729
useum	-1730
▁Serv	-1731
▁women	-1732
▁become	-1733
▁tw	-1734
cted	-1735
ours	-1736
▁Act	-1737
▁Mor	-1738
▁mid	-1739
craft	-1740
obile	-1741
▁Hist	-1742
▁House	-1743
▁story	-1744
alt	-1745
istr	-1746
ript	-1747
▁McC	-1748
▁div	-1749
▁pat	-1750
ament	-1751
▁lost	-1752
▁prop	-1753
▁sent	-1754
itional	-1755
▁Street	-1756
▁opened	-1757
▁William	-1758
▁individ	-1759
▁library	-1760
ky	-1761
alk	-1762
app	-1763
aut	-1764
ced	-1765
ger	-1766
▁Se	-1767
ries	-1768
ruct	-1769
▁dam	-1770
▁spe	-1771
▁With	-1772
astern	-1773
▁First	-1774
▁Gener	-1775
▁career	-1776
formation	-1777
▁community	-1778
▁z	-1779
ago	-1780
apt	-1781
ead	-1782
ule	-1783
▁Que	-1784
▁cor	-1785
▁equ	-1786
▁way	-1787
ested	-1788
▁Cong	-1789
▁Park	-1790
▁Phil	-1791
▁prim	-1792
▁exper	-1793
▁office	-1794
▁review	-1795
▁written	-1796
ana	-1797
ura	-1798
olut	-1799
ying	-1800
▁fem	-1801
▁rac	-1802
embly	-1803
▁cult	-1804
▁know	-1805
▁Award	-1806
▁given	-1807
orthern	-1808
levision	-1809
▁Australia	-1810
▁introduced	-1811
unk	-1812
▁Em	-1813
▁Sl	-1814
▁Art	-1815
▁Lab	-1816
▁One	-1817
▁few	-1818
▁side	-1819
▁great	-1820
▁similar	-1821
▁District	-1822
...	-1823
hib	-1824
int	-1825
osp	-1826
▁30	-1827
▁No	-1828
itor	-1829
▁typ	-1830
lands	-1831
▁hold	-1832
▁road	-1833
▁attem	-1834
▁exist	-1835
▁frequ	-1836
▁indic	-1837
ecutive	-1838
▁across	-1839
,[1	-1840
ani	-1841
▁22	-1842
aken	-1843
iles	-1844
▁lim	-1845
ocrat	-1846
▁using	-1847
▁months	-1848
▁created	-1849
▁himself	-1850
▁produced	-1851
[1]	-1852
ape	-1853
ara	-1854
▁el	-1855
▁mm	-1856
ards	-1857
ivil	-1858
year	-1859
▁Ang	-1860
▁Bar	-1861
▁Bel	-1862
▁Dem	-1863
▁hig	-1864
▁hum	-1865
▁infl	-1866
ointed	-1867
▁stand	-1868
▁popular	-1869
▁started	-1870
▁independ	-1871
▁particip	-1872
na	-1873
ler	-1874
off	-1875
ugg	-1876
▁By	-1877
▁Dr	-1878
aign	-1879
ness	-1880
▁Sup	-1881
▁inf	-1882
ances	-1883
▁very	-1884
▁order	-1885
▁Europe	-1886
▁league	-1887
▁version	-1888
bor	-1889
ney	-1890
ody	-1891
▁24	-1892
▁Kre	-1893
▁Min	-1894
ories	-1895
▁king	-1896
ederal	-1897
▁brother	-1898
▁control	-1899
▁elected	-1900
▁completed	-1901
98	-1902
go	-1903
ees	-1904
ena	-1905
oyal	-1906
▁Cor	-1907
▁sit	-1908
ached	-1909
▁Thom	-1910
▁fact	-1911
▁larg	-1912
▁meet	-1913
▁India	-1914
▁attack	-1915
▁health	-1916
▁daughter	-1917
▁According	-1918
▁considered	-1919
▁International	-1920
ef	-1921
lo	-1922
▁0	-1923
irl	-1924
ize	-1925
ogn	-1926
▁fa	-1927
bert	-1928
▁Arg	-1929
▁Red	-1930
ailed	-1931
▁2000	-1932
▁Vict	-1933
▁case	-1934
▁miss	-1935
▁went	-1936
ferred	-1937
▁River	-1938
▁areas	-1939
▁total	-1940
▁modern	-1941
▁produc	-1942
▁Congress	-1943
▁director	-1944
▁discover	-1945
ographical	-1946
▁president	-1947
ria	-1948
▁Ac	-1949
▁sw	-1950
▁God	-1951
conom	-1952
ither	-1953
▁2011	-1954
▁High	-1955
▁fund	-1956
▁week	-1957
▁wind	-1958
▁admin	-1959
▁times	-1960
▁military	-1961
▁Australian	-1962
cy	-1963
ams	-1964
ems	-1965
ius	-1966
ple	-1967
▁Ag	-1968
ford	-1969
itte	-1970
sequ	-1971
▁Ear	-1972
▁Jim	-1973
▁NHL	-1974
▁Val	-1975
▁vol	-1976
ockey	-1977
ounds	-1978
▁2009	-1979
▁East	-1980
▁Rich	-1981
▁rank	-1982
▁Palmy	-1983
▁never	-1984
.[1][2]	-1985
ination	-1986
outhern	-1987
▁George	-1988
▁effect	-1989
▁process	-1990
▁construction	-1991
mb	-1992
][3	-1993
dom	-1994
aged	-1995
nder	-1996
ocus	-1997
▁Hob	-1998
▁you	-1999
anded	-2000
ights	-2001
▁Cour	-2002
▁Wind	-2003
▁does	-2004
▁sugg	-2005
▁take	-2006
ending	-2007
▁white	-2008
▁Hobart	-2009
▁common	-2010
▁Japanese	-2011
▁election	-2012
2)	-2013
yl	-2014
ica	-2015
raw	-2016
reg	-2017
burg	-2018
ones	-2019
▁184	-2020
▁fun	-2021
.[12]	-2022
.[13]	-2023
▁mult	-2024
▁surv	-2025
ensive	-2026
▁begin	-2027
olution	-2028
▁operations	-2029
▁particular	-2030
alf	-2031
isl	-2032
mon	-2033
▁21	-2034
quar	-2035
rick	-2036
▁Mex	-2037
▁Rev	-2038
.[16]	-2039
inese	-2040
▁Paul	-2041
▁Pers	-2042
▁good	-2043
ishing	-2044
▁Music	-2045
▁level	-2046
▁space	-2047
▁import	-2048
▁proper	-2049
▁General	-2050
▁campaign	-2051
▁X	-2052
den	-2053
ett	-2054
▁ce	-2055
▁cy	-2056
▁sk	-2057
abor	-2058
iers	-2059
▁Mal	-2060
▁Sec	-2061
▁Navy	-2062
▁make	-2063
▁real	-2064
forman	-2065
▁Grand	-2066
▁James	-2067
▁relig	-2068
▁approv	-2069
▁formed	-2070
▁select	-2071
▁release	-2072
▁special	-2073
▁without	-2074
▁features	-2075
▁finished	-2076
▁signific	-2077
▁Institute	-2078
Ch	-2079
tr	-2080
ve	-2081
ón	-2082
cle	-2083
▁Fr	-2084
uten	-2085
▁Jos	-2086
▁fav	-2087
ician	-2088
iting	-2089
▁2016	-2090
atural	-2091
▁influ	-2092
▁techn	-2093
▁France	-2094
▁events	-2095
▁invest	-2096
▁killed	-2097
▁capital	-2098
▁reported	-2099
▁broadcast	-2100
▁development	-2101
.[8	-2102
▁Ro	-2103
aper	-2104
chol	-2105
ille	-2106
▁Mod	-2107
▁Sen	-2108
▁doc	-2109
▁tog	-2110
▁val	-2111
▁wat	-2112
ators	-2113
▁chem	-2114
▁priv	-2115
▁role	-2116
▁Carol	-2117
▁Smith	-2118
▁becom	-2119
▁party	-2120
▁Mobile	-2121
▁believ	-2122
▁employ	-2123
▁further	-2124
▁aircraft	-2125
▁designed	-2126
▁together	-2127
ili	-2128
olk	-2129
omm	-2130
urb	-2131
▁gl	-2132
lley	-2133
lung	-2134
▁100	-2135
▁Off	-2136
▁how	-2137
▁mer	-2138
▁wid	-2139
.[14]	-2140
.[18]	-2141
aries	-2142
▁2008	-2143
▁Wash	-2144
▁Other	-2145
▁coach	-2146
▁pract	-2147
▁treat	-2148
▁struct	-2149
▁recorded	-2150
▁eventually	-2151
▁production	-2152
▁television	-2153
33	-2154
ij	-2155
▁Qu	-2156
here	-2157
hood	-2158
ilis	-2159
▁186	-2160
▁ill	-2161
▁low	-2162
▁2010	-2163
▁Huck	-2164
etwork	-2165
ieuten	-2166
▁Class	-2167
▁Germany	-2168
▁journal	-2169
ieutenant	-2170
▁Championship	-2171
esh	-2172
rey	-2173
aces	-2174
ills	-2175
vest	-2176
▁ins	-2177
antic	-2178
ender	-2179
ornia	-2180
▁2012	-2181
▁2019	-2182
▁Miss	-2183
▁epis	-2184
▁once	-2185
▁upon	-2186
▁view	-2187
▁wife	-2188
ociety	-2189
▁David	-2190
▁eight	-2191
▁gradu	-2192
▁langu	-2193
▁should	-2194
▁Italian	-2195
▁McClung	-2196
▁awarded	-2197
▁however	-2198
▁writing	-2199
▁position	-2200
▁training	-2201
▁competition	-2202
15	-2203
TV	-2204
–0	-2205
–2	-2206
amb	-2207
lex	-2208
now	-2209
ole	-2210
omb	-2211
abit	-2212
most	-2213
onto	-2214
▁(18	-2215
▁Atl	-2216
▁Lou	-2217
▁beh	-2218
asion	-2219
field	-2220
ultan	-2221
▁Pres	-2222
▁site	-2223
▁Calif	-2224
▁Charl	-2225
▁Court	-2226
▁focus	-2227
related	-2228
▁Public	-2229
▁entire	-2230
▁social	-2231
▁though	-2232
▁travel	-2233
▁Shelley	-2234
▁changed	-2235
▁California	-2236
▁Department	-2237
▁Washington	-2238
gy	-2239
uf	-2240
▁i	-2241
abb	-2242
oph	-2243
ude	-2244
ush	-2245
▁28	-2246
▁ft	-2247
ship	-2248
ston	-2249
time	-2250
west	-2251
wood	-2252
▁Hen	-2253
▁pri	-2254
atter	-2255
▁Stan	-2256
▁aver	-2257
▁grow	-2258
ership	-2259
iction	-2260
▁Social	-2261
▁Thomas	-2262
▁police	-2263
ological	-2264
▁Chinese	-2265
▁college	-2266
▁featured	-2267
▁appointed	-2268
▁described	-2269
▁throughout	-2270
30	-2271
▁,	-2272
▁Sa	-2273
][4]	-2274
airs	-2275
aker	-2276
hest	-2277
oral	-2278
rown	-2279
wain	-2280
▁Fil	-2281
▁Rec	-2282
▁Wil	-2283
▁mag	-2284
▁mar	-2285
.[15]	-2286
anted	-2287
arily	-2288
▁2015	-2289
▁Mich	-2290
▁coll	-2291
▁line	-2292
▁loss	-2293
▁Group	-2294
▁Royal	-2295
▁debut	-2296
▁names	-2297
▁track	-2298
ropical	-2299
▁Labour	-2300
▁others	-2301
▁Council	-2302
▁includes	-2303
▁provided	-2304
▁characters	-2305
,"	-2306
wh	-2307
ye	-2308
cer	-2309
hel	-2310
oll	-2311
▁Cr	-2312
pted	-2313
▁Hof	-2314
▁MLS	-2315
▁Sch	-2316
▁Vir	-2317
▁see	-2318
ample	-2319
itect	-2320
▁conn	-2321
▁conv	-2322
▁decl	-2323
▁east	-2324
▁love	-2325
▁phys	-2326
▁west	-2327
▁2022,	-2328
▁board	-2329
▁cross	-2330
▁faith	-2331
▁radio	-2332
▁access	-2333
▁battle	-2334
▁branch	-2335
▁critic	-2336
▁indust	-2337
▁market	-2338
▁recogn	-2339
▁Toronto	-2340
▁Democrat	-2341
itz	-2342
oms	-2343
str	-2344
▁Er	-2345
▁To	-2346
ways	-2347
▁2020	-2348
▁base	-2349
▁caus	-2350
▁flow	-2351
▁prob	-2352
▁seen	-2353
idence	-2354
▁liter	-2355
estival	-2356
▁Center	-2357
▁Church	-2358
▁associ	-2359
▁screen	-2360
ournament	-2361
▁involved	-2362
▁research	-2363
▁significant	-2364
ua	-2365
acy	-2366
oor	-2367
▁23	-2368
▁27	-2369
▁Rad	-2370
▁kil	-2371
shire	-2372
▁data	-2373
philis	-2374
▁Creek	-2375
▁mount	-2376
▁Virgin	-2377
▁Russian	-2378
▁Western	-2379
▁average	-2380
▁council	-2381
▁leading	-2382
▁regular	-2383
▁defeated	-2384
▁relations	-2385
▁individual	-2386
▁originally	-2387
▁professional	-2388
▁#	-2389
▁.	-2390
ery	-2391
ops	-2392
ands	-2393
iger	-2394
iron	-2395
▁Pat	-2396
▁bre	-2397
▁dev	-2398
▁tre	-2399
▁via	-2400
.[20]	-2401
arian	-2402
ising	-2403
▁Hall	-2404
▁gave	-2405
unicip	-2406
▁Angel	-2407
▁Peter	-2408
▁Rober	-2409
▁maint	-2410
▁range	-2411
▁taken	-2412
.[2][3]	-2413
▁assist	-2414
▁example	-2415
ification	-2416
▁performan	-2417
▁Commission	-2418
▁successful	-2419
▁biographical	-2420
.,	-2421
22	-2422
44	-2423
AS	-2424
BC	-2425
CC	-2426
za	-2427
-19	-2428
esc	-2429
gen	-2430
ios	-2431
men	-2432
atic	-2433
aval	-2434
frac	-2435
oted	-2436
ring	-2437
▁Los	-2438
▁Mos	-2439
▁Pri	-2440
▁bar	-2441
▁let	-2442
▁ord	-2443
▁pur	-2444
▁ten	-2445
imate	-2446
ittee	-2447
▁2006	-2448
▁2013	-2449
▁2021	-2450
▁Fort	-2451
▁pain	-2452
elling	-2453
▁Bourn	-2454
▁Franc	-2455
▁schol	-2456
▁seven	-2457
▁Africa	-2458
▁Argent	-2459
▁listed	-2460
▁making	-2461
▁entered	-2462
▁natural	-2463
▁playing	-2464
▁architect	-2465
▁developed	-2466
ael	-2467
ien	-2468
nam	-2469
–19	-2470
anga	-2471
erve	-2472
stad	-2473
▁Div	-2474
▁Inf	-2475
▁Mah	-2476
▁Tom	-2477
▁bas	-2478
▁deg	-2479
▁ide	-2480
▁lik	-2481
▁ter	-2482
▁tri	-2483
alled	-2484
ecess	-2485
erous	-2486
icago	-2487
▁Prov	-2488
▁Some	-2489
▁anti	-2490
ements	-2491
ertain	-2492
▁These	-2493
▁coast	-2494
▁condu	-2495
▁river	-2496
▁Andrew	-2497
▁deploy	-2498
▁African	-2499
▁product	-2500
stitution	-2501
▁Olympics	-2502
▁Regiment	-2503
▁students	-2504
ift	-2505
uke	-2506
ened	-2507
enth	-2508
oria	-2509
▁181	-2510
▁Kal	-2511
▁Pre	-2512
▁get	-2513
itive	-2514
▁Mont	-2515
▁Stud	-2516
▁away	-2517
▁fire	-2518
ounter	-2519
▁Andre	-2520
▁Falls	-2521
▁cases	-2522
▁whose	-2523
imately	-2524
▁Columb	-2525
▁rights	-2526
▁temper	-2527
▁Chicago	-2528
▁players	-2529
▁respons	-2530
▁Although	-2531
▁Assembly	-2532
▁directed	-2533
▁initially	-2534
ma	-2535
▁Ma	-2536
▁lo	-2537
aren	-2538
cher	-2539
lear	-2540
▁Cad	-2541
▁Pac	-2542
▁Two	-2543
▁inj	-2544
allen	-2545
asing	-2546
▁1990	-2547
▁2007	-2548
▁lack	-2549
▁sour	-2550
▁text	-2551
▁Games	-2552
▁might	-2553
▁point	-2554
▁separ	-2555
▁storm	-2556
overnor	-2557
▁compos	-2558
▁Service	-2559
▁victory	-2560
CA	-2561
▁“	-2562
iol	-2563
ume	-2564
unt	-2565
▁50	-2566
▁183	-2567
▁Its	-2568
▁Ser	-2569
▁Win	-2570
▁enc	-2571
▁fif	-2572
▁lab	-2573
▁mot	-2574
anish	-2575
annel	-2576
▁2017	-2577
▁Jack	-2578
▁cast	-2579
▁goal	-2580
▁hous	-2581
iation	-2582
inberg	-2583
▁2014,	-2584
▁avail	-2585
▁somet	-2586
▁study	-2587
ibility	-2588
ression	-2589
stadter	-2590
▁Academ	-2591
▁Jewish	-2592
▁Robert	-2593
▁econom	-2594
▁engine	-2595
▁regard	-2596
▁edition	-2597
▁officer	-2598
▁percent	-2599
▁private	-2600
▁retired	-2601
▁working	-2602
▁Virginia	-2603
▁although	-2604
▁decision	-2605
▁followed	-2606
▁launched	-2607
▁marriage	-2608
▁promoted	-2609
▁Christian	-2610
▁important	-2611
oo	-2612
ega	-2613
mar	-2614
ows	-2615
▁2,	-2616
▁Ok	-2617
▁ra	-2618
][5]	-2619
apur	-2620
ateg	-2621
ples	-2622
view	-2623
▁Cat	-2624
▁hom	-2625
.[17]	-2626
andid	-2627
anies	-2628
chest	-2629
iding	-2630
▁Char	-2631
▁Gert	-2632
▁cost	-2633
▁must	-2634
▁past	-2635
▁prem	-2636
▁suff	-2637
▁whom	-2638
arliam	-2639
▁color	-2640
▁money	-2641
ography	-2642
▁Direct	-2643
▁active	-2644
▁annual	-2645
▁scient	-2646
▁interest	-2647
▁Hofstadter	-2648
▁independent	-2649
201	-2650
oma	-2651
rup	-2652
ype	-2653
edic	-2654
ells	-2655
face	-2656
hold	-2657
ises	-2658
▁Mag	-2659
▁arg	-2660
▁det	-2661
▁sol	-2662
▁too	-2663
order	-2664
▁Port	-2665
▁Zeal	-2666
▁batt	-2667
▁cele	-2668
▁girl	-2669
▁targ	-2670
▁China	-2671
▁goals	-2672
▁issue	-2673
▁noted	-2674
▁occup	-2675
▁occur	-2676
▁plant	-2677
▁purch	-2678
endment	-2679
ilities	-2680
ospital	-2681
▁centre	-2682
▁church	-2683
▁strong	-2684
▁transl	-2685
▁Command	-2686
▁Kingdom	-2687
▁Zealand	-2688
▁episode	-2689
▁respect	-2690
▁appeared	-2691
▁regional	-2692
▁syphilis	-2693
▁presented	-2694
▁religious	-2695
▁information	-2696
dis	-2697
sex	-2698
ute	-2699
eter	-2700
irth	-2701
itiz	-2702
▁(0.	-2703
▁187	-2704
▁Mus	-2705
▁Not	-2706
▁Sal	-2707
▁hit	-2708
▁put	-2709
▁sen	-2710
0,000	-2711
inals	-2712
istic	-2713
style	-2714
uture	-2715
▁1950	-2716
▁2005	-2717
▁2018	-2718
▁Camp	-2719
▁cond	-2720
▁deal	-2721
▁live	-2722
▁rain	-2723
ential	-2724
▁2015,	-2725
▁fight	-2726
▁nomin	-2727
▁share	-2728
▁store	-2729
▁succe	-2730
ometres	-2731
▁center	-2732
▁change	-2733
▁either	-2734
▁groups	-2735
▁improv	-2736
▁placed	-2737
▁Central	-2738
▁highest	-2739
▁subject	-2740
▁usually	-2741
arliament	-2742
▁addition	-2743
▁currently	-2744
▁destroyer	-2745
▁performed	-2746
▁kilometres	-2747
3)	-2748
kn	-2749
ms	-2750
eep	-2751
eth	-2752
ves	-2753
▁Up	-2754
,000	-2755
anks	-2756
obal	-2757
▁Bah	-2758
▁Sim	-2759
▁Ter	-2760
▁cho	-2761
▁saw	-2762
enced	-2763
▁Kier	-2764
▁anim	-2765
▁rock	-2766
aching	-2767
▁Georg	-2768
▁Model	-2769
▁books	-2770
▁chair	-2771
▁ended	-2772
▁mater	-2773
▁medal	-2774
▁style	-2775
▁candid	-2776
▁census	-2777
▁ground	-2778
▁leader	-2779
▁airport	-2780
▁subsequ	-2781
▁Carolina	-2782
▁document	-2783
▁probably	-2784
▁administr	-2785
▁lieutenant	-2786
▁politician	-2787
▁tournament	-2788
39	-2789
be	-2790
ala	-2791
ida	-2792
lic	-2793
usp	-2794
win	-2795
aded	-2796
back	-2797
ects	-2798
▁Bur	-2799
▁Des	-2800
▁Leg	-2801
▁Tre	-2802
▁aut	-2803
▁cir	-2804
▁fig	-2805
▁von	-2806
acred	-2807
elled	-2808
osing	-2809
▁1980	-2810
▁1999	-2811
▁2004	-2812
▁Just	-2813
▁Town	-2814
▁body	-2815
▁elev	-2816
▁soon	-2817
▁surn	-2818
ampion	-2819
porary	-2820
rought	-2821
▁Louis	-2822
▁Saint	-2823
▁chief	-2824
▁civil	-2825
▁squad	-2826
ecially	-2827
▁Invest	-2828
▁Mexico	-2829
▁Museum	-2830
▁forest	-2831
▁little	-2832
quarters	-2833
▁decided	-2834
▁instead	-2835
▁Weinberg	-2836
▁represented	-2837
▁traditional	-2838
;[	-2839
NA	-2840
me	-2841
leg	-2842
ota	-2843
▁1.	-2844
▁Ir	-2845
iple	-2846
leet	-2847
▁Tex	-2848
▁pen	-2849
vania	-2850
▁Sand	-2851
▁Wood	-2852
▁sect	-2853
▁vide	-2854
reedom	-2855
▁Board	-2856
▁Corps	-2857
▁Greek	-2858
▁deter	-2859
▁flood	-2860
▁match	-2861
▁Norway	-2862
▁celebr	-2863
▁corpor	-2864
▁damage	-2865
▁forces	-2866
▁issues	-2867
▁writer	-2868
▁Angeles	-2869
▁Pacific	-2870
▁account	-2871
▁Division	-2872
▁becoming	-2873
▁elements	-2874
▁language	-2875
▁replaced	-2876
unications	-2877
▁beginning	-2878
▁management	-2879
▁previously	-2880
1)	-2881
bu	-2882
ha	-2883
ka	-2884
erc	-2885
ila	-2886
not	-2887
ope	-2888
vin	-2889
▁40	-2890
▁Me	-2891
▁Ne	-2892
iter	-2893
ustr	-2894
▁Bay	-2895
▁Day	-2896
▁Mad	-2897
chiev	-2898
inent	-2899
viron	-2900
▁Scot	-2901
▁Tour	-2902
▁cred	-2903
▁food	-2904
▁look	-2905
▁situ	-2906
▁unit	-2907
mitted	-2908
▁2016,	-2909
▁2023,	-2910
▁2024,	-2911
▁Inter	-2912
▁Radio	-2913
▁close	-2914
▁human	-2915
▁least	-2916
▁legal	-2917
▁minor	-2918
▁spent	-2919
▁Follow	-2920
▁refere	-2921
▁signed	-2922
▁mention	-2923
▁network	-2924
▁outside	-2925
▁contains	-2926
especially	-2927
▁Following	-2928
▁primarily	-2929
5)	-2930
de	-2931
ump	-2932
▁di	-2933
fect	-2934
rial	-2935
rian	-2936
used	-2937
▁ask	-2938
▁esc	-2939
.[21]	-2940
heast	-2941
lying	-2942
onald	-2943
▁2014	-2944
▁emer	-2945
▁half	-2946
▁test	-2947
▁Coast	-2948
▁front	-2949
▁light	-2950
▁quest	-2951
▁sound	-2952
display	-2953
duction	-2954
▁Commun	-2955
▁course	-2956
▁filter	-2957
▁fourth	-2958
▁franch	-2959
▁taking	-2960
▁threat	-2961
▁Freedom	-2962
▁changes	-2963
▁municip	-2964
▁offered	-2965
▁science	-2966
▁President	-2967
displaystyle	-2968
78	-2969
99	-2970
:[	-2971
sy	-2972
ux	-2973
▁)	-2974
][5	-2975
aze	-2976
elt	-2977
▁(3	-2978
▁Kn	-2979
.[12	-2980
ades	-2981
enez	-2982
medi	-2983
merc	-2984
olic	-2985
ores	-2986
rene	-2987
▁Kar	-2988
▁aim	-2989
▁bur	-2990
▁lic	-2991
▁Cont	-2992
▁free	-2993
▁hard	-2994
▁pers	-2995
▁rail	-2996
action	-2997
iences	-2998
ressed	-2999
▁2020,	-3000
▁added	-3001
▁carri	-3002
▁newsp	-3003
▁parts	-3004
▁sched	-3005
▁achiev	-3006
▁behind	-3007
▁degree	-3008
▁female	-3009
▁Academy	-3010
▁Charlie	-3011
▁section	-3012
▁Columbia	-3013
▁European	-3014
▁regiment	-3015
▁establish	-3016
▁executive	-3017
▁structure	-3018
▁conference	-3019
bs	-3020
hi	-3021
.[9	-3022
awa	-3023
▁Gw	-3024
▁Ot	-3025
▁ap	-3026
anta	-3027
hmad	-3028
inch	-3029
kega	-3030
star	-3031
▁Bra	-3032
▁Fox	-3033
▁Hol	-3034
▁che	-3035
▁cop	-3036
▁neg	-3037
▁pos	-3038
▁saf	-3039
▁sem	-3040
acher	-3041
based	-3042
roves	-3043
▁1970	-3044
▁Arab	-3045
▁Arch	-3046
▁Hans	-3047
▁Many	-3048
▁Mart	-3049
▁come	-3050
▁poet	-3051
atives	-3052
▁2009,	-3053
▁Queen	-3054
▁Since	-3055
▁birth	-3056
▁films	-3057
▁grand	-3058
▁miles	-3059
▁serve	-3060
kegaard	-3061
▁Awards	-3062
▁Island	-3063
▁Police	-3064
▁sports	-3065
▁History	-3066
▁Richard	-3067
▁Society	-3068
▁brought	-3069
▁assigned	-3070
▁competed	-3071
▁possible	-3072
▁available	-3073
▁countries	-3074
▁education	-3075
▁Kierkegaard	-3076
▁championship	-3077
38	-3078
▁′	-3079
ano	-3080
cel	-3081
eks	-3082
ini	-3083
iva	-3084
lew	-3085
▁29	-3086
,[2]	-3087
.[11	-3088
clus	-3089
iety	-3090
mark	-3091
osen	-3092
ream	-3093
uter	-3094
well	-3095
▁Ben	-3096
▁But	-3097
▁Key	-3098
▁Sam	-3099
▁Vol	-3100
▁our	-3101
▁sea	-3102
erved	-3103
isted	-3104
istry	-3105
oints	-3106
ready	-3107
ville	-3108
▁2022	-3109
▁Game	-3110
▁anal	-3111
▁cycl	-3112
▁earl	-3113
▁ever	-3114
▁step	-3115
ansion	-3116
espite	-3117
▁2018,	-3118
▁exhib	-3119
▁habit	-3120
▁night	-3121
▁songs	-3122
▁Histor	-3123
▁Second	-3124
▁Singer	-3125
▁rather	-3126
▁reveal	-3127
▁status	-3128
▁Spanish	-3129
▁already	-3130
▁collabor	-3131
▁officers	-3132
▁tropical	-3133
▁according	-3134
▁treatment	-3135
▁Democratic	-3136
▁Government	-3137
▁especially	-3138
▁organization	-3139
4)	-3140
41	-3141
sk	-3142
wa	-3143
yr	-3144
án	-3145
ato	-3146
eph	-3147
ned	-3148
nel	-3149
pro	-3150
▁$1	-3151
▁31	-3152
▁4,	-3153
▁TV	-3154
."[1	-3155
emor	-3156
idae	-3157
isco	-3158
oved	-3159
▁Ham	-3160
▁Mer	-3161
▁Mid	-3162
▁Syl	-3163
▁cat	-3164
▁don	-3165
▁far	-3166
▁mix	-3167
▁obs	-3168
adium	-3169
▁1996	-3170
▁Lake	-3171
▁Swed	-3172
▁agre	-3173
▁dark	-3174
▁need	-3175
▁phot	-3176
angaon	-3177
arents	-3178
uments	-3179
▁Ahmad	-3180
▁Brown	-3181
▁Earth	-3182
▁Force	-3183
▁Henry	-3184
▁Mount	-3185
▁Union	-3186
▁Venez	-3187
▁favor	-3188
▁heavy	-3189
▁neigh	-3190
▁weeks	-3191
chestra	-3192
▁Graham	-3193
▁Sultan	-3194
▁cities	-3195
▁metres	-3196
▁summer	-3197
▁commerc	-3198
▁federal	-3199
▁limited	-3200
▁Northern	-3201
▁Scotland	-3202
▁Venezuel	-3203
▁acquired	-3204
▁chemical	-3205
▁composed	-3206
▁contract	-3207
▁professor	-3208
25	-3209
61	-3210
SA	-3211
ada	-3212
asc	-3213
ply	-3214
ray	-3215
▁2.	-3216
▁vo	-3217
atre	-3218
outi	-3219
rain	-3220
▁Wal	-3221
▁mur	-3222
▁pot	-3223
.[19]	-3224
atory	-3225
icult	-3226
istan	-3227
known	-3228
▁(200	-3229
▁Best	-3230
▁Duke	-3231
▁Hind	-3232
▁Oper	-3233
▁give	-3234
▁insp	-3235
▁mach	-3236
▁susp	-3237
▁viol	-3238
ground	-3239
▁2019,	-3240
▁Frank	-3241
▁Krehm	-3242
▁Scott	-3243
▁above	-3244
▁confl	-3245
▁means	-3246
▁woman	-3247
▁Battle	-3248
▁action	-3249
▁belong	-3250
▁itself	-3251
▁stated	-3252
▁Charles	-3253
▁allowed	-3254
▁attempt	-3255
▁student	-3256
▁thought	-3257
vironment	-3258
▁attended	-3259
▁northern	-3260
▁soldiers	-3261
▁companies	-3262
▁appearance	-3263
▁participated	-3264
▁particularly	-3265
▁relationship	-3266
40	-3267
60	-3268
8)	-3269
BT	-3270
MS	-3271
dy	-3272
eh	-3273
ari	-3274
bur	-3275
ece	-3276
lim	-3277
osl	-3278
ras	-3279
,[1]	-3280
irit	-3281
sych	-3282
unte	-3283
▁App	-3284
▁Che	-3285
▁Cub	-3286
▁Emp	-3287
▁Mur	-3288
▁Nic	-3289
▁Tal	-3290
▁job	-3291
▁pay	-3292
anned	-3293
aring	-3294
light	-3295
oring	-3296
tario	-3297
▁1960	-3298
▁2002	-3299
▁Hill	-3300
▁That	-3301
▁mean	-3302
▁meas	-3303
▁park	-3304
ctions	-3305
▁2012,	-3306
▁Elect	-3307
▁Italy	-3308
▁lives	-3309
▁shoot	-3310
igation	-3311
▁combat	-3312
▁fellow	-3313
▁financ	-3314
▁latter	-3315
▁native	-3316
▁senior	-3317
▁Michael	-3318
▁contest	-3319
▁matches	-3320
▁mission	-3321
▁reached	-3322
▁towards	-3323
▁winning	-3324
▁approved	-3325
▁politics	-3326
▁associated	-3327
▁collection	-3328
▁commercial	-3329
▁department	-3330
▁university	-3331
▁association	-3332
▁performance	-3333
24	-3334
PA	-3335
uz	-3336
Con	-3337
dle	-3338
fit	-3339
iff	-3340
lad	-3341
mag	-3342
olf	-3343
ped	-3344
yal	-3345
▁EC	-3346
▁Os	-3347
▁UK	-3348
iana	-3349
itch	-3350
ites	-3351
ocal	-3352
ovak	-3353
pass	-3354
rael	-3355
wide	-3356
▁Bet	-3357
▁Gre	-3358
▁Inc	-3359
▁Mat	-3360
▁Met	-3361
▁Pak	-3362
▁Pot	-3363
▁Ray	-3364
▁cut	-3365
▁ess	-3366
▁ste	-3367
.[25]	-3368
amber	-3369
itled	-3370
uties	-3371
▁Finn	-3372
▁Star	-3373
▁Vaze	-3374
▁draw	-3375
▁duty	-3376
▁firm	-3377
▁keep	-3378
▁phil	-3379
idents	-3380
ocated	-3381
▁2017,	-3382
▁2021,	-3383
▁Child	-3384
▁Found	-3385
▁court	-3386
▁label	-3387
▁owned	-3388
▁plans	-3389
▁staff	-3390
ability	-3391
itizens	-3392
ologist	-3393
▁Marine	-3394
▁academ	-3395
▁create	-3396
▁depart	-3397
▁except	-3398
▁groves	-3399
▁hosted	-3400
▁Despite	-3401
▁Jangaon	-3402
▁Profess	-3403
▁arrived	-3404
▁artists	-3405
▁overall	-3406
▁Football	-3407
▁complete	-3408
▁declared	-3409
▁incorpor	-3410
▁movement	-3411
▁practice	-3412
▁producer	-3413
▁selected	-3414
▁southern	-3415
▁stations	-3416
▁compounds	-3417
▁conducted	-3418
▁Blackhawks	-3419
21	-3420
23	-3421
65	-3422
FA	-3423
ez	-3424
iat	-3425
ita	-3426
lyw	-3427
▁0.	-3428
▁Ha	-3429
▁Kh	-3430
▁Mo	-3431
▁Oh	-3432
▁Ol	-3433
][9]	-3434
agar	-3435
aped	-3436
cend	-3437
erse	-3438
ging	-3439
ming	-3440
onse	-3441
reme	-3442
rief	-3443
writ	-3444
▁Fin	-3445
▁Rob	-3446
▁jud	-3447
▁ser	-3448
▁sil	-3449
.[24]	-3450
aches	-3451
aught	-3452
gress	-3453
iring	-3454
ishop	-3455
orner	-3456
▁2023	-3457
▁Alex	-3458
▁Bear	-3459
▁Gold	-3460
▁Gwyn	-3461
▁Most	-3462
▁Year	-3463
▁disp	-3464
▁tomb	-3465
▁Their	-3466
▁dedic	-3467
▁fifth	-3468
▁joint	-3469
▁shown	-3470
▁visit	-3471
ription	-3472
▁Centre	-3473
▁Health	-3474
▁Summer	-3475
▁affili	-3476
▁almost	-3477
▁living	-3478
▁Islands	-3479
▁Mississ	-3480
▁claimed	-3481
▁division	-3482
▁Argentina	-3483
▁Francisco	-3484
▁Palmyrene	-3485
▁constitut	-3486
▁distribut	-3487
eys	-3488
oke	-3489
ula	-3490
▁CE	-3491
▁CO	-3492
▁Hu	-3493
▁Im	-3494
][6]	-3495
ador	-3496
agon	-3497
andy	-3498
cell	-3499
ctor	-3500
head	-3501
illa	-3502
inct	-3503
ippi	-3504
like	-3505
sohn	-3506
uals	-3507
utes	-3508
▁Ann	-3509
▁Mil	-3510
▁Rog	-3511
▁Sub	-3512
▁aud	-3513
▁beg	-3514
▁ens	-3515
▁sat	-3516
▁sex	-3517
▁thr	-3518
][12]	-3519
apore	-3520
azine	-3521
hemat	-3522
irmed	-3523
isher	-3524
ledge	-3525
stitu	-3526
▁Both	-3527
▁bird	-3528
▁feet	-3529
▁news	-3530
▁qual	-3531
illing	-3532
season	-3533
▁2006,	-3534
▁Green	-3535
▁Spain	-3536
▁Texas	-3537
▁Women	-3538
▁force	-3539
▁learn	-3540
▁spect	-3541
▁arrest	-3542
▁barrel	-3543
▁hockey	-3544
▁museum	-3545
▁necess	-3546
▁offers	-3547
▁reason	-3548
▁recent	-3549
▁states	-3550
▁titled	-3551
▁meeting	-3552
▁organiz	-3553
▁parents	-3554
▁Minister	-3555
▁champion	-3556
▁consists	-3557
▁expanded	-3558
▁families	-3559
▁increase	-3560
▁numerous	-3561
▁property	-3562
▁provides	-3563
▁required	-3564
▁franchise	-3565
▁frequency	-3566
▁tradition	-3567
▁identified	-3568
▁Mississippi	-3569
FL	-3570
bo	-3571
gn	-3572
hu	-3573
aps	-3574
can	-3575
gar	-3576
sel	-3577
▁5,	-3578
▁My	-3579
▁_{	-3580
▁ge	-3581
][7]	-3582
atin	-3583
fish	-3584
folk	-3585
note	-3586
omed	-3587
rich	-3588
text	-3589
ties	-3590
▁Ant	-3591
▁Cam	-3592
▁Def	-3593
▁Est	-3594
▁Fer	-3595
▁cal	-3596
▁tal	-3597
amous	-3598
ength	-3599
ipped	-3600
ortun	-3601
peror	-3602
round	-3603
▁1930	-3604
▁1940	-3605
▁Club	-3606
▁Disc	-3607
▁Educ	-3608
▁Fore	-3609
▁Norw	-3610
▁alle	-3611
▁cust	-3612
▁farm	-3613
▁less	-3614
▁star	-3615
▁wide	-3616
▁wood	-3617
ricult	-3618
▁Adams	-3619
▁Brand	-3620
▁Major	-3621
▁brief	-3622
isation	-3623
▁Comics	-3624
▁Edward	-3625
▁Empire	-3626
▁editor	-3627
▁future	-3628
▁retire	-3629
▁sacred	-3630
▁studio	-3631
▁territ	-3632
ximately	-3633
▁Eastern	-3634
▁Olympic	-3635
▁complet	-3636
▁complex	-3637
▁provide	-3638
▁studied	-3639
▁whether	-3640
▁approach	-3641
▁material	-3642
▁personal	-3643
▁proposed	-3644
▁standard	-3645
▁commission	-3646
▁headquarters	-3647
67	-3648
AN	-3649
TC	-3650
ca	-3651
hl	-3652
sw	-3653
▁=	-3654
azz	-3655
ero	-3656
gle	-3657
pts	-3658
uit	-3659
urk	-3660
▁Bo	-3661
▁Bu	-3662
▁Cz	-3663
cean	-3664
hing	-3665
ingu	-3666
ique	-3667
ista	-3668
umed	-3669
wing	-3670
▁Die	-3671
▁Ire	-3672
▁Squ	-3673
▁dou	-3674
▁ful	-3675
▁vir	-3676
acing	-3677
arter	-3678
berry	-3679
board	-3680
occer	-3681
right	-3682
thlet	-3683
urity	-3684
▁1994	-3685
▁2003	-3686
▁Belg	-3687
▁Bill	-3688
▁able	-3689
▁clos	-3690
▁coup	-3691
▁diff	-3692
▁shut	-3693
▁stay	-3694
ifying	-3695
▁Irish	-3696
▁Later	-3697
▁Percy	-3698
▁reign	-3699
▁royal	-3700
▁score	-3701
▁strug	-3702
▁super	-3703
▁units	-3704
vention	-3705
▁Joseph	-3706
▁immedi	-3707
▁issued	-3708
▁leaves	-3709
▁legisl	-3710
▁points	-3711
▁prepar	-3712
ervation	-3713
▁Airport	-3714
▁Federal	-3715
▁Ireland	-3716
▁Ontario	-3717
▁central	-3718
▁eastern	-3719
▁medical	-3720
▁opening	-3721
▁serving	-3722
▁stories	-3723
▁teacher	-3724
▁Military	-3725
▁captured	-3726
▁response	-3727
▁scholars	-3728
▁specific	-3729
▁starting	-3730
▁Singapore	-3731
▁alongside	-3732
▁discovery	-3733
▁historian	-3734
▁appearances	-3735
▁responsible	-3736
▁administrative	-3737
/1	-3738
ME	-3739
ny	-3740
rd	-3741
500	-3742
asy	-3743
isk	-3744
isp	-3745
oir	-3746
rid	-3747
▁Lu	-3748
▁op	-3749
abbi	-3750
aked	-3751
alle	-3752
band	-3753
fall	-3754
llyw	-3755
pond	-3756
ried	-3757
▁Bas	-3758
▁Del	-3759
▁Ill	-3760
▁Mel	-3761
▁Pan	-3762
▁Six	-3763
▁big	-3764
▁der	-3765
▁log	-3766
▁sal	-3767
▁tro	-3768
antry	-3769
urban	-3770
words	-3771
▁2024	-3772
▁Over	-3773
▁Shaw	-3774
▁Yank	-3775
▁adop	-3776
▁army	-3777
▁circ	-3778
▁dial	-3779
▁enem	-3780
▁fall	-3781
▁pick	-3782
▁prec	-3783
▁room	-3784
▁seat	-3785
ilding	-3786
ourses	-3787
▁2010,	-3788
▁Brook	-3789
▁Fleet	-3790
▁Great	-3791
▁Kreis	-3792
▁Sport	-3793
▁Trans	-3794
▁Twain	-3795
▁comes	-3796
▁lands	-3797
▁media	-3798
▁offer	-3799
.[3][4]	-3800
▁Corpor	-3801
▁Israel	-3802
▁Region	-3803
▁border	-3804
▁caused	-3805
▁county	-3806
▁figure	-3807
▁forced	-3808
▁nearby	-3809
▁parish	-3810
▁Records	-3811
▁finally	-3812
▁largest	-3813
▁perform	-3814
▁regions	-3815
▁suggest	-3816
▁surname	-3817
▁underst	-3818
▁variety	-3819
▁Research	-3820
▁communic	-3821
▁products	-3822
▁programs	-3823
▁newspaper	-3824
▁sometimes	-3825
▁Parliament	-3826
▁Republican	-3827
77	-3828
WC	-3829
hr	-3830
iy	-3831
rs	-3832
▁{	-3833
iri	-3834
itt	-3835
oud	-3836
zil	-3837
▁Mu	-3838
▁Sn	-3839
▁ov	-3840
arch	-3841
imin	-3842
ires	-3843
mann	-3844
ophy	-3845
orus	-3846
osta	-3847
▁...	-3848
▁185	-3849
▁Spr	-3850
▁Tem	-3851
▁nar	-3852
▁pet	-3853
.[27]	-3854
aging	-3855
ander	-3856
ansas	-3857
incip	-3858
itude	-3859
ously	-3860
stant	-3861
tered	-3862
thing	-3863
▁Cons	-3864
▁Flor	-3865
▁Gret	-3866
▁Life	-3867
▁Step	-3868
▁Viet	-3869
▁date	-3870
▁deep	-3871
▁desp	-3872
▁diss	-3873
▁narr	-3874
▁shot	-3875
ension	-3876
▁Laura	-3877
▁Levin	-3878
▁Spade	-3879
▁Techn	-3880
▁Young	-3881
▁accom	-3882
▁break	-3883
▁carry	-3884
▁genus	-3885
▁makes	-3886
▁press	-3887
▁prior	-3888
century	-3889
▁Branch	-3890
▁gained	-3891
▁headed	-3892
▁length	-3893
▁likely	-3894
▁nature	-3895
▁proble	-3896
▁secret	-3897
▁speech	-3898
▁Persian	-3899
▁Philipp	-3900
▁Science	-3901
▁Stanley	-3902
▁machine	-3903
▁records	-3904
▁remains	-3905
▁reviews	-3906
▁studies	-3907
▁Director	-3908
▁Festival	-3909
▁Gwynllyw	-3910
▁Southern	-3911
▁activity	-3912
▁referred	-3913
▁separate	-3914
▁assistant	-3915
▁difficult	-3916
▁succeeded	-3917
la	-3918
ré	-3919
zo	-3920
▁_	-3921
▁—	-3922
amm	-3923
ema	-3924
}}\	-3925
▁Ak	-3926
▁DC	-3927
▁Do	-3928
▁Id	-3929
▁Je	-3930
iant	-3931
ners	-3932
uing	-3933
vert	-3934
ware	-3935
▁24,	-3936
▁Bru	-3937
▁Gen	-3938
▁Haw	-3939
▁Hou	-3940
▁Jud	-3941
▁Lad	-3942
▁Sir	-3943
▁_{\	-3944
▁hop	-3945
▁key	-3946
▁pan	-3947
▁say	-3948
.[22]	-3949
.[26]	-3950
anski	-3951
burgh	-3952
egian	-3953
iance	-3954
iated	-3955
ordin	-3956
uries	-3957
▁Cult	-3958
▁Play	-3959
▁Spec	-3960
▁grew	-3961
▁pred	-3962
▁sett	-3963
▁trip	-3964
amount	-3965
▁Czech	-3966
▁Diego	-3967
▁Medal	-3968
▁Media	-3969
▁Under	-3970
▁asked	-3971
▁block	-3972
▁colon	-3973
▁honor	-3974
▁quick	-3975
▁shall	-3976
▁takes	-3977
▁video	-3978
▁whole	-3979
mission	-3980
▁earned	-3981
▁mostly	-3982
▁philos	-3983
▁titles	-3984
emporary	-3985
▁Stadium	-3986
▁actions	-3987
▁appears	-3988
▁channel	-3989
▁efforts	-3990
▁founder	-3991
▁managed	-3992
▁notable	-3993
▁primary	-3994
▁believed	-3995
▁combined	-3996
▁consider	-3997
▁entitled	-3998
▁multiple	-3999
▁province	-4000
▁revealed	-4001
▁Levinsohn	-4002
▁Professor	-4003
▁graduated	-4004
▁knowledge	-4005
▁organized	-4006
▁officially	-4007
▁constructed	-4008
▁environment	-4009
▁Communications	-4010
27	-4011
9)	-4012
IT	-4013
][7	-4014
ids	-4015
ify	-4016
imb	-4017
iro	-4018
▁3,	-4019
▁60	-4020
▁Av	-4021
▁Li	-4022
▁Rh	-4023
▁SS	-4024
▁WG	-4025
▁la	-4026
apes	-4027
ares	-4028
ette	-4029
ican	-4030
itar	-4031
mond	-4032
name	-4033
odes	-4034
olit	-4035
oper	-4036
pose	-4037
uced	-4038
▁Cur	-4039
▁Den	-4040
▁Gal	-4041
▁Hel	-4042
▁Mas	-4043
▁Sea	-4044
▁Tri	-4045
▁dyn	-4046
▁har	-4047
▁mus	-4048
▁ran	-4049
.[23]	-4050
ental	-4051
itzer	-4052
oston	-4053
stone	-4054
▁1997	-4055
▁Bank	-4056
▁Book	-4057
▁Eric	-4058
▁Four	-4059
▁Song	-4060
▁card	-4061
▁feel	-4062
▁hall	-4063
▁rule	-4064
▁runs	-4065
▁says	-4066
alleng	-4067
▁2013,	-4068
▁Among	-4069
▁Cross	-4070
▁Offic	-4071
▁Paris	-4072
▁below	-4073
▁liber	-4074
▁lower	-4075
▁owner	-4076
▁polic	-4077
▁rules	-4078
▁Hockey	-4079
▁Series	-4080
▁Winter	-4081
▁always	-4082
▁amount	-4083
▁moving	-4084
▁prison	-4085
▁sister	-4086
▁square	-4087
▁target	-4088
▁Austria	-4089
▁Norfolk	-4090
▁Palmyra	-4091
▁Yankees	-4092
▁climate	-4093
▁conclud	-4094
▁discuss	-4095
▁foreign	-4096
▁illustr	-4097
▁Keywords	-4098
▁Province	-4099
▁Victoria	-4100
▁expected	-4101
▁extended	-4102
▁Education	-4103
▁Norwegian	-4104
▁elections	-4105
▁increased	-4106
▁influence	-4107
▁mentioned	-4108
▁prominent	-4109
▁providing	-4110
▁experience	-4111
▁increasing	-4112
▁temperature	-4113
6)	-4114
95	-4115
ID	-4116
ns	-4117
▁£	-4118
/98	-4119
aph	-4120
bec	-4121
egr	-4122
yer	-4123
▁Gh	-4124
▁Ke	-4125
▁Ul	-4126
▁du	-4127
▁er	-4128
▁et	-4129
,[3]	-4130
agua	-4131
bers	-4132
emic	-4133
erem	-4134
etic	-4135
part	-4136
▁17,	-4137
▁Ash	-4138
▁Bor	-4139
▁Cow	-4140
▁Hon	-4141
▁mos	-4142
alion	-4143
iform	-4144
inois	-4145
izing	-4146
olved	-4147
onstr	-4148
ufact	-4149
▁2001	-4150
▁Conn	-4151
▁Fate	-4152
▁Iran	-4153
▁Jews	-4154
▁Lanc	-4155
▁More	-4156
▁Rang	-4157
▁Rock	-4158
▁beat	-4159
▁chap	-4160
▁crew	-4161
▁exam	-4162
▁fort	-4163
▁insc	-4164
▁move	-4165
▁stri	-4166
▁talk	-4167
▁word	-4168
Americ	-4169
author	-4170
change	-4171
hedral	-4172
▁2008,	-4173
▁Front	-4174
▁White	-4175
▁bound	-4176
▁bring	-4177
▁categ	-4178
▁clear	-4179
▁suppl	-4180
istered	-4181
respond	-4182
▁Boston	-4183
▁Brazil	-4184
▁People	-4185
▁altern	-4186
▁artist	-4187
▁attend	-4188
▁enough	-4189
▁failed	-4190
▁famous	-4191
▁gender	-4192
▁reject	-4193
▁turned	-4194
▁Florida	-4195
▁attract	-4196
▁granted	-4197
▁initial	-4198
▁protect	-4199
▁schools	-4200
▁sources	-4201
▁surface	-4202
▁Atlantic	-4203
▁Illinois	-4204
▁challeng	-4205
▁evidence	-4206
▁opportun	-4207
▁Socialist	-4208
▁agreement	-4209
▁buildings	-4210
▁candidate	-4211
▁destroyed	-4212
▁existence	-4213
▁expansion	-4214
▁financial	-4215
▁Foundation	-4216
▁activities	-4217
▁subsequently	-4218
▁approximately	-4219
1}	-4220
28	-4221
35	-4222
43	-4223
70	-4224
90	-4225
Ar	-4226
ER	-4227
Th	-4228
ss	-4229
▁x	-4230
[2]	-4231
[3]	-4232
aka	-4233
edy	-4234
eve	-4235
iar	-4236
ola	-4237
pan	-4238
rum	-4239
usc	-4240
wan	-4241
▁AB	-4242
,[4]	-4243
Mont	-4244
ancy	-4245
apid	-4246
ault	-4247
icks	-4248
igan	-4249
mani	-4250
oses	-4251
pect	-4252
ques	-4253
scar	-4254
uled	-4255
utch	-4256
▁Add	-4257
▁Aff	-4258
▁Bec	-4259
▁Bol	-4260
▁Bul	-4261
▁Cap	-4262
▁Dak	-4263
▁Don	-4264
▁Ken	-4265
▁Nur	-4266
▁anc	-4267
▁bad	-4268
▁imm	-4269
▁inh	-4270
▁sum	-4271
▁yet	-4272
.[36]	-4273
anner	-4274
iller	-4275
onaut	-4276
otype	-4277
▁1998	-4278
▁Hold	-4279
▁Hong	-4280
▁Marg	-4281
▁Matt	-4282
▁Real	-4283
▁WGNA	-4284
▁acce	-4285
▁gold	-4286
▁here	-4287
▁kind	-4288
▁lies	-4289
▁lock	-4290
▁send	-4291
▁wild	-4292
aptain	-4293
incial	-4294
mented	-4295
ousins	-4296
đanski	-4297
▁2004,	-4298
▁2011,	-4299
▁Harry	-4300
▁Kings	-4301
▁Spies	-4302
▁Youth	-4303
▁entry	-4304
▁going	-4305
▁heart	-4306
▁lived	-4307
▁scene	-4308
▁youth	-4309
fecture	-4310
western	-4311
▁Rogers	-4312
▁Russia	-4313
▁Valley	-4314
▁compil	-4315
▁congen	-4316
▁disapp	-4317
▁duties	-4318
▁format	-4319
▁higher	-4320
▁larger	-4321
▁raised	-4322
▁remain	-4323
▁yellow	-4324
American	-4325
ulations	-4326
▁Company	-4327
▁Theatre	-4328
▁earlier	-4329
▁feature	-4330
▁landing	-4331
▁prevent	-4332
▁renamed	-4333
▁shortly	-4334
ederation	-4335
itzerland	-4336
velopment	-4337
▁creation	-4338
▁majority	-4339
▁mountain	-4340
▁occurred	-4341
▁committee	-4342
▁confirmed	-4343
▁dedicated	-4344
▁generally	-4345
▁operation	-4346
▁remaining	-4347
▁commandant	-4348
▁discovered	-4349
▁frequently	-4350
▁publication	-4351
10	-4352
82	-4353
Be	-4354
MA	-4355
[5]	-4356
alo	-4357
aug	-4358
aya	-4359
ias	-4360
ona	-4361
oni	-4362
▁35	-4363
▁Go	-4364
▁Of	-4365
▁Sk	-4366
▁Uk	-4367
▁pi	-4368
][2]	-4369
][8]	-4370
abad	-4371
ader	-4372
ails	-4373
aire	-4374
bour	-4375
ienn	-4376
miss	-4377
onic	-4378
otes	-4379
reng	-4380
uras	-4381
▁16,	-4382
▁30,	-4383
▁Alb	-4384
▁Ast	-4385
▁CEO	-4386
▁Jul	-4387
▁Mot	-4388
▁Rom	-4389
▁Sov	-4390
▁Way	-4391
▁eth	-4392
▁obt	-4393
▁pil	-4394
▁pow	-4395
▁pra	-4396
overs	-4397
▁Film	-4398
▁Mass	-4399
▁Road	-4400
▁Tele	-4401
▁dise	-4402
▁done	-4403
▁face	-4404
▁fans	-4405
▁felt	-4406
▁gall	-4407
▁gard	-4408
▁mass	-4409
▁pian	-4410
▁rare	-4411
▁solo	-4412
ayfish	-4413
isions	-4414
▁Civil	-4415
▁Liber	-4416
▁Naval	-4417
▁Oscar	-4418
▁clubs	-4419
▁items	-4420
▁meant	-4421
▁refer	-4422
▁rural	-4423
▁shows	-4424
▁twice	-4425
agement	-4426
andyman	-4427
chester	-4428
ireless	-4429
▁Albert	-4430
▁Global	-4431
▁better	-4432
▁guitar	-4433
▁houses	-4434
▁nearly	-4435
▁scored	-4436
▁Highway	-4437
▁Studios	-4438
▁Vietnam	-4439
▁billion	-4440
▁concern	-4441
▁despite	-4442
▁display	-4443
▁leaving	-4444
▁volunte	-4445
▁younger	-4446
struction	-4447
▁Governor	-4448
▁assembly	-4449
▁composer	-4450
▁demonstr	-4451
▁economic	-4452
▁industry	-4453
▁magazine	-4454
▁painting	-4455
▁relating	-4456
▁security	-4457
▁Committee	-4458
▁Građanski	-4459
▁featuring	-4460
▁purchased	-4461
▁congenital	-4462
▁correspond	-4463
▁transferred	-4464
▁Constitution	-4465
▁contributions	-4466
")	-4467
3°	-4468
64	-4469
68	-4470
St	-4471
Wh	-4472
^{	-4473
▁°	-4474
eed	-4475
imo	-4476
nes	-4477
rep	-4478
ror	-4479
sky	-4480
tic	-4481
uka	-4482
–0.	-4483
▁52	-4484
▁Ev	-4485
▁Ib	-4486
▁Po	-4487
][3]	-4488
abin	-4489
aska	-4490
enin	-4491
ergy	-4492
ilic	-4493
onda	-4494
rast	-4495
teen	-4496
▁13,	-4497
▁Men	-4498
▁Mir	-4499
▁Nil	-4500
▁Ren	-4501
▁Sol	-4502
▁Tim	-4503
▁box	-4504
▁den	-4505
▁dig	-4506
▁hor	-4507
▁reb	-4508
▁syn	-4509
▁tax	-4510
.[32]	-4511
anced	-4512
ellig	-4513
house	-4514
igers	-4515
itted	-4516
▁1993	-4517
▁1995	-4518
▁Arts	-4519
▁Carl	-4520
▁Dani	-4521
▁Macd	-4522
▁Tenn	-4523
▁Time	-4524
▁bank	-4525
▁fear	-4526
▁idea	-4527
▁libr	-4528
▁link	-4529
▁size	-4530
▁stop	-4531
bridge	-4532
irmary	-4533
omedov	-4534
rovers	-4535
▁2007,	-4536
▁Enter	-4537
▁Ocean	-4538
▁Shahi	-4539
▁adult	-4540
▁basis	-4541
▁capac	-4542
▁defin	-4543
▁estim	-4544
▁exerc	-4545
▁grant	-4546
▁motor	-4547
▁pharm	-4548
▁terms	-4549
▁upper	-4550
mentary	-4551
▁Nurmag	-4552
▁Wallen	-4553
▁agents	-4554
▁agouti	-4555
▁chosen	-4556
▁giving	-4557
▁inform	-4558
▁launch	-4559
▁murder	-4560
▁plants	-4561
▁remake	-4562
▁Another	-4563
▁certain	-4564
▁covered	-4565
▁follows	-4566
▁friends	-4567
▁holding	-4568
▁letters	-4569
▁minutes	-4570
▁reflect	-4571
▁running	-4572
▁western	-4573
▁Pakistan	-4574
▁Sylvania	-4575
▁affected	-4576
▁chairman	-4577
▁citizens	-4578
▁critical	-4579
▁deployed	-4580
▁festival	-4581
▁hospital	-4582
▁minister	-4583
▁operated	-4584
▁Orchestra	-4585
▁Sultanate	-4586
▁amendment	-4587
▁interview	-4588
▁residents	-4589
▁Wallenberg	-4590
▁historical	-4591
▁industrial	-4592
▁Switzerland	-4593
▁immediately	-4594
▁Nurmagomedov	-4595
▁Championships	-4596
37	-4597
49	-4598
CD	-4599
do	-4600
fr	-4601
▁→	-4602
aik	-4603
alg	-4604
enb	-4605
igr	-4606
kin	-4607
ora	-4608
sen	-4609
ube	-4610
udd	-4611
uge	-4612
▁("	-4613
▁Ca	-4614
aily	-4615
bian	-4616
iami	-4617
iary	-4618
icts	-4619
kins	-4620
omot	-4621
onom	-4622
road	-4623
▁12,	-4624
▁14,	-4625
▁15,	-4626
▁180	-4627
▁Ale	-4628
▁Are	-4629
▁Bry	-4630
▁Dev	-4631
▁Pad	-4632
▁Tog	-4633
▁USS	-4634
▁emb	-4635
▁rat	-4636
▁ven	-4637
.[29]	-4638
.[33]	-4639
class	-4640
found	-4641
icted	-4642
unior	-4643
▁1957	-4644
▁1982	-4645
▁1984	-4646
▁Asia	-4647
▁Fred	-4648
▁Gall	-4649
▁Hell	-4650
▁Kore	-4651
▁Rome	-4652
▁Sour	-4653
▁lear	-4654
▁rate	-4655
▁seek	-4656
▁self	-4657
▁type	-4658
▁uses	-4659
▁vice	-4660
arring	-4661
inical	-4662
olitan	-4663
selves	-4664
▁Chief	-4665
▁Sever	-4666
▁Stock	-4667
▁Super	-4668
▁calls	-4669
▁equip	-4670
▁leave	-4671
▁model	-4672
▁newly	-4673
▁plays	-4674
▁spons	-4675
▁tells	-4676
▁urban	-4677
.[4][5]	-4678
atively	-4679
emorial	-4680
▁Poland	-4681
▁Soviet	-4682
▁Sports	-4683
▁coming	-4684
▁couple	-4685
▁edited	-4686
▁impact	-4687
▁intern	-4688
▁perman	-4689
▁prohib	-4690
▁recomm	-4691
▁sailed	-4692
▁slight	-4693
building	-4694
▁Cousins	-4695
▁Kalenin	-4696
▁Special	-4697
▁habitat	-4698
▁railway	-4699
▁removed	-4700
▁require	-4701
▁systems	-4702
▁unknown	-4703
▁accepted	-4704
▁approval	-4705
▁creating	-4706
▁cultural	-4707
▁existing	-4708
▁generals	-4709
▁inspired	-4710
▁institut	-4711
▁learning	-4712
▁manufact	-4713
▁projects	-4714
▁squadron	-4715
▁Infirmary	-4716
▁authority	-4717
▁municipal	-4718
▁narrative	-4719
▁territory	-4720
▁transport	-4721
▁controvers	-4722
▁protection	-4723
▁themselves	-4724
FC	-4725
FM	-4726
[2	-4727
pe	-4728
zh	-4729
▁+	-4730
][8	-4731
een	-4732
ipl	-4733
nor	-4734
oto	-4735
uca	-4736
utt	-4737
wer	-4738
▁(4	-4739
▁CD	-4740
▁FA	-4741
▁Ho	-4742
.[10	-4743
enty	-4744
gend	-4745
iate	-4746
ogue	-4747
pped	-4748
rics	-4749
tson	-4750
▁22,	-4751
▁Bal	-4752
▁Bij	-4753
▁Bre	-4754
▁Bus	-4755
▁Cro	-4756
▁Sar	-4757
▁_{0	-4758
▁abs	-4759
▁exc	-4760
▁gas	-4761
▁wit	-4762
.[30]	-4763
.[31]	-4764
andal	-4765
ening	-4766
nagar	-4767
ption	-4768
▁1948	-4769
▁1972	-4770
▁Also	-4771
▁Cast	-4772
▁Harr	-4773
▁Hung	-4774
▁Kenn	-4775
▁Kong	-4776
▁Land	-4777
▁Salt	-4778
▁cell	-4779
▁kept	-4780
▁nine	-4781
▁plot	-4782
▁pron	-4783
▁wing	-4784
antasy	-4785
istics	-4786
ulated	-4787
▁1999,	-4788
▁2005,	-4789
▁Broad	-4790
▁Nicar	-4791
▁Niger	-4792
▁Power	-4793
▁Wales	-4794
▁Wikim	-4795
▁domin	-4796
▁enemy	-4797
▁fully	-4798
▁grade	-4799
▁hours	-4800
▁medic	-4801
▁paint	-4802
▁premi	-4803
▁psych	-4804
▁thous	-4805
▁watch	-4806
ovation	-4807
▁Berlin	-4808
▁Gretel	-4809
▁Hansel	-4810
▁Monter	-4811
▁Ukrain	-4812
▁buried	-4813
▁closed	-4814
▁defeat	-4815
▁dynast	-4816
▁favour	-4817
▁longer	-4818
▁settle	-4819
▁singer	-4820
▁spread	-4821
▁spring	-4822
▁therap	-4823
▁victim	-4824
▁waters	-4825
▁widely	-4826
▁Atlanta	-4827
▁Captain	-4828
▁Indians	-4829
▁Through	-4830
▁carried	-4831
▁chamber	-4832
▁consist	-4833
▁defined	-4834
▁flowers	-4835
▁focused	-4836
▁numbers	-4837
▁ordered	-4838
▁princip	-4839
▁quickly	-4840
▁singles	-4841
▁visited	-4842
itionally	-4843
▁continue	-4844
▁flooding	-4845
▁function	-4846
▁identity	-4847
▁intended	-4848
▁resigned	-4849
▁surround	-4850
▁terminal	-4851
▁Macdonald	-4852
▁attention	-4853
▁officials	-4854
▁operating	-4855
▁promotion	-4856
▁returning	-4857
▁supported	-4858
▁worldwide	-4859
▁Revolution	-4860
▁conditions	-4861
▁Corporation	-4862
);	-4863
18	-4864
ym	-4865
,[2	-4866
2),	-4867
][6	-4868
bre	-4869
ein	-4870
rin	-4871
rot	-4872
ulf	-4873
▁(8	-4874
▁6,	-4875
▁8,	-4876
▁If	-4877
▁Jr	-4878
▁So	-4879
▁wa	-4880
argo	-4881
ayer	-4882
bust	-4883
ends	-4884
misp	-4885
olec	-4886
onge	-4887
otic	-4888
real	-4889
ruit	-4890
with	-4891
▁11,	-4892
▁18,	-4893
▁Elf	-4894
▁Ram	-4895
▁Sat	-4896
▁Sun	-4897
▁Syd	-4898
▁Wee	-4899
▁bab	-4900
▁dom	-4901
▁nin	-4902
▁nob	-4903
▁swe	-4904
.[28]	-4905
][10]	-4906
andon	-4907
anian	-4908
arant	-4909
echan	-4910
eping	-4911
oslav	-4912
range	-4913
rence	-4914
ronze	-4915
▁1964	-4916
▁Mord	-4917
▁Rail	-4918
▁Turk	-4919
▁Wall	-4920
▁Work	-4921
▁bene	-4922
▁bomb	-4923
▁ends	-4924
▁pict	-4925
▁poem	-4926
▁task	-4927
▁told	-4928
ashire	-4929
ftware	-4930
ighter	-4931
orship	-4932
shaped	-4933
usband	-4934
▁Costa	-4935
▁Field	-4936
▁Miami	-4937
▁adapt	-4938
▁drugs	-4939
▁faced	-4940
▁fired	-4941
▁funds	-4942
▁inaug	-4943
▁instr	-4944
▁metal	-4945
▁paper	-4946
▁reven	-4947
▁stage	-4948
▁wrest	-4949
▁Esther	-4950
▁Indust	-4951
▁Martin	-4952
▁Walter	-4953
▁aboard	-4954
▁agreed	-4955
▁compar	-4956
▁copies	-4957
▁execut	-4958
▁hemisp	-4959
▁starts	-4960
▁troops	-4961
▁wanted	-4962
▁Bijapur	-4963
▁Classic	-4964
▁Further	-4965
▁Houston	-4966
▁Jackson	-4967
▁Morales	-4968
▁abandon	-4969
▁fiction	-4970
▁forward	-4971
▁musical	-4972
▁setting	-4973
▁Candyman	-4974
▁Historic	-4975
▁Hospital	-4976
▁academic	-4977
▁constitu	-4978
▁fighting	-4979
▁governor	-4980
▁invasion	-4981
▁Amendment	-4982
▁Venezuela	-4983
▁concluded	-4984
▁equipment	-4985
▁libraries	-4986
▁locations	-4987
▁necessary	-4988
▁positions	-4989
▁prototype	-4990
▁screening	-4991
▁Conference	-4992
▁Lancashire	-4993
▁facilities	-4994
▁properties	-4995
▁Development	-4996
,\	-4997
12	-4998
6°	-4999
96	-5000
AC	-5001
OC	-5002
yt	-5003
▁‘	-5004
agn	-5005
enk	-5006
hew	-5007
hod	-5008
joy	-5009
ken	-5010
lor	-5011
mir	-5012
oul	-5013
rim	-5014
rob	-5015
}{\	-5016
▁(5	-5017
▁Bh	-5018
▁Bö	-5019
▁Ut	-5020
▁hy	-5021
,[5]	-5022
adel	-5023
agre	-5024
asht	-5025
chen	-5026
hana	-5027
hard	-5028
hers	-5029
ndum	-5030
rops	-5031
▁Abd	-5032
▁Bab	-5033
▁Bad	-5034
▁Cir	-5035
▁Gar	-5036
▁Gol	-5037
▁III	-5038
▁Max	-5039
▁Naz	-5040
▁Pit	-5041
▁Pow	-5042
▁Ret	-5043
▁Sev	-5044
▁USA	-5045
▁Ver	-5046
▁adj	-5047
▁avo	-5048
▁cou	-5049
▁ign	-5050
▁sle	-5051
.[34]	-5052
][13]	-5053
acent	-5054
aines	-5055
anged	-5056
iable	-5057
onent	-5058
ureau	-5059
▁1985	-5060
▁1988	-5061
▁Cath	-5062
▁Cuth	-5063
▁Good	-5064
▁Hart	-5065
▁Head	-5066
▁Jeff	-5067
▁Kent	-5068
▁Lady	-5069
▁Main	-5070
▁Penn	-5071
▁Sent	-5072
▁Shen	-5073
▁Upon	-5074
▁dead	-5075
▁emph	-5076
▁hair	-5077
▁paid	-5078
▁purs	-5079
▁redu	-5080
▁rise	-5081
▁rout	-5082
▁semi	-5083
▁sequ	-5084
▁spot	-5085
earing	-5086
ellect	-5087
▁Allen	-5088
▁Asian	-5089
▁Chris	-5090
▁Laure	-5091
▁Press	-5092
▁acres	-5093
▁brown	-5094
▁cerem	-5095
▁chart	-5096
▁cited	-5097
▁enter	-5098
▁finds	-5099
▁hired	-5100
▁movie	-5101
▁prote	-5102
▁rooms	-5103
▁value	-5104
bertson	-5105
ciation	-5106
ugoslav	-5107
utation	-5108
▁Author	-5109
▁Cadena	-5110
▁Fellow	-5111
▁Muslim	-5112
▁Padres	-5113
▁Polish	-5114
▁Prince	-5115
▁Senate	-5116
▁Shapur	-5117
▁Slovak	-5118
▁acquis	-5119
▁awards	-5120
▁charge	-5121
▁master	-5122
▁object	-5123
▁online	-5124
▁passed	-5125
▁places	-5126
▁serves	-5127
▁silver	-5128
▁specif	-5129
▁spirit	-5130
▁tracks	-5131
▁unable	-5132
▁visual	-5133
outheast	-5134
▁Between	-5135
▁Georgia	-5136
▁Justice	-5137
▁Russell	-5138
▁Station	-5139
▁Supreme	-5140
▁classes	-5141
▁concert	-5142
▁culture	-5143
▁disease	-5144
▁divided	-5145
▁manager	-5146
▁meaning	-5147
▁possess	-5148
▁quality	-5149
▁reduced	-5150
▁uniform	-5151
▁witness	-5152
ropolitan	-5153
▁agricult	-5154
▁articles	-5155
▁attempts	-5156
▁investig	-5157
▁literary	-5158
▁mathemat	-5159
▁missions	-5160
▁rejected	-5161
▁spectrum	-5162
▁transfer	-5163
▁Monterrey	-5164
▁describes	-5165
▁functions	-5166
▁household	-5167
▁northwest	-5168
▁personnel	-5169
▁potential	-5170
▁typically	-5171
▁maintained	-5172
▁referendum	-5173
▁scientific	-5174
▁technology	-5175
▁Cuthbertson	-5176
▁individuals	-5177
▁commissioned	-5178
▁contemporary	-5179
▁collaboration	-5180
▁constitutional	-5181
.'	-5182
19	-5183
48	-5184
5%	-5185
FX	-5186
],	-5187
gg	-5188
je	-5189
ya	-5190
col	-5191
hol	-5192
ika	-5193
met	-5194
▁ey	-5195
▁sn	-5196
,[7]	-5197
,[8]	-5198
.[13	-5199
amer	-5200
aste	-5201
ider	-5202
illy	-5203
resh	-5204
rist	-5205
roll	-5206
thod	-5207
▁20,	-5208
▁Aer	-5209
▁Boy	-5210
▁DWC	-5211
▁Jor	-5212
▁Mik	-5213
▁Pav	-5214
▁Pop	-5215
▁Raj	-5216
▁Wed	-5217
▁cle	-5218
▁lin	-5219
▁rom	-5220
▁uns	-5221
.[35]	-5222
.[37]	-5223
.[49]	-5224
aints	-5225
apers	-5226
cklin	-5227
inist	-5228
ivity	-5229
mouth	-5230
onder	-5231
rical	-5232
usion	-5233
▁1991	-5234
▁Anth	-5235
▁Batt	-5236
▁Cave	-5237
▁Jean	-5238
▁José	-5239
▁Lore	-5240
▁Mana	-5241
▁Mosc	-5242
▁Nilg	-5243
▁Post	-5244
▁Trek	-5245
▁bass	-5246
▁blue	-5247
▁goes	-5248
▁guid	-5249
▁guns	-5250
▁mill	-5251
▁norm	-5252
▁nort	-5253
▁pric	-5254
▁punk	-5255
▁resc	-5256
▁save	-5257
▁sons	-5258
▁thus	-5259
atures	-5260
eshiva	-5261
orning	-5262
▁Mahar	-5263
▁Organ	-5264
▁Owain	-5265
▁Rabbi	-5266
▁Wayne	-5267
▁Weeks	-5268
▁brain	-5269
▁crime	-5270
▁emerg	-5271
▁enjoy	-5272
▁falls	-5273
▁lines	-5274
▁rival	-5275
▁ships	-5276
▁sixth	-5277
▁think	-5278
▁today	-5279
▁words	-5280
istance	-5281
▁Common	-5282
▁Engine	-5283
▁Native	-5284
▁Sydney	-5285
▁Tigers	-5286
▁applic	-5287
▁begins	-5288
▁campus	-5289
▁concer	-5290
▁deputy	-5291
▁fought	-5292
▁highly	-5293
▁injury	-5294
▁island	-5295
▁losing	-5296
▁method	-5297
▁models	-5298
▁nation	-5299
▁racial	-5300
▁refers	-5301
▁safety	-5302
▁struck	-5303
iversary	-5304
▁Böcklin	-5305
▁Elfwood	-5306
▁Stephen	-5307
▁address	-5308
▁captain	-5309
▁concept	-5310
▁couples	-5311
▁dynasty	-5312
▁husband	-5313
▁radical	-5314
▁reading	-5315
▁scholar	-5316
▁capacity	-5317
▁conflict	-5318
▁crayfish	-5319
▁distinct	-5320
▁formerly	-5321
▁indicate	-5322
▁neighbor	-5323
▁occasion	-5324
▁presence	-5325
▁slightly	-5326
▁teaching	-5327
▁Nicaragua	-5328
▁Represent	-5329
▁Yorkshire	-5330
▁consensus	-5331
▁extensive	-5332
▁nominated	-5333
▁scheduled	-5334
▁therefore	-5335
▁additional	-5336
▁businesses	-5337
▁footballer	-5338
▁literature	-5339
▁postseason	-5340
▁Philippines	-5341
▁authorities	-5342
▁representing	-5343
▁specifically	-5344
▁establishment	-5345
08	-5346
13	-5347
46	-5348
59	-5349
ée	-5350
–8	-5351
VID	-5352
ali	-5353
alm	-5354
aly	-5355
bon	-5356
law	-5357
mod	-5358
odd	-5359
}}}	-5360
▁3.	-5361
▁70	-5362
▁80	-5363
▁Ku	-5364
▁Wy	-5365
▁ut	-5366
acle	-5367
agle	-5368
aved	-5369
down	-5370
eces	-5371
left	-5372
onym	-5373
osis	-5374
phia	-5375
thur	-5376
ulty	-5377
uman	-5378
▁(1.	-5379
▁11.	-5380
▁21,	-5381
▁Dan	-5382
▁DeL	-5383
▁Due	-5384
▁Ell	-5385
▁Jon	-5386
▁Kus	-5387
▁Lem	-5388
▁Nas	-5389
▁Niz	-5390
▁Sus	-5391
▁Wel	-5392
▁bul	-5393
▁unc	-5394
▁upd	-5395
Beers	-5396
aling	-5397
idden	-5398
ients	-5399
iling	-5400
istol	-5401
rance	-5402
reets	-5403
ronic	-5404
shall	-5405
track	-5406
urric	-5407
venth	-5408
venue	-5409
which	-5410
▁1992	-5411
▁Born	-5412
▁Dead	-5413
▁Eliz	-5414
▁Free	-5415
▁Fuse	-5416
▁Khan	-5417
▁Like	-5418
▁Team	-5419
▁boat	-5420
▁crim	-5421
▁flag	-5422
▁laid	-5423
▁pand	-5424
▁peak	-5425
▁poor	-5426
▁tele	-5427
▁true	-5428
▁upgr	-5429
▁vote	-5430
.[1][2	-5431
enburg	-5432
onents	-5433
ournal	-5434
ranean	-5435
uclear	-5436
writer	-5437
▁2003,	-5438
▁Davis	-5439
▁Fight	-5440
▁Prize	-5441
▁Sense	-5442
▁Swiss	-5443
▁Three	-5444
▁accur	-5445
▁advis	-5446
▁aired	-5447
▁compl	-5448
▁conce	-5449
▁forms	-5450
▁guest	-5451
▁pregn	-5452
▁stock	-5453
▁uncle	-5454
leberry	-5455
▁Econom	-5456
▁Forces	-5457
▁Idania	-5458
▁Victor	-5459
▁assass	-5460
▁bronze	-5461
▁curlew	-5462
▁finish	-5463
▁levels	-5464
▁orient	-5465
▁streng	-5466
▁sultan	-5467
▁winter	-5468
▁DeBeers	-5469
▁Emperor	-5470
▁Victory	-5471
▁adopted	-5472
▁appoint	-5473
▁compete	-5474
▁critics	-5475
▁cycling	-5476
▁damaged	-5477
▁decline	-5478
▁descend	-5479
▁leaders	-5480
▁partner	-5481
▁planned	-5482
▁purpose	-5483
▁receive	-5484
▁recover	-5485
▁refused	-5486
▁society	-5487
▁windows	-5488
elligence	-5489
▁Regional	-5490
▁Register	-5491
▁Scottish	-5492
▁advanced	-5493
▁arrested	-5494
▁category	-5495
▁compared	-5496
▁engineer	-5497
▁formally	-5498
▁powerful	-5499
▁resident	-5500
▁resulted	-5501
▁situated	-5502
▁suffered	-5503
▁Community	-5504
▁installed	-5505
▁interests	-5506
▁successor	-5507
▁Discourses	-5508
▁Federation	-5509
▁depression	-5510
▁designated	-5511
▁opposition	-5512
▁supporting	-5513
▁translated	-5514
▁acquisition	-5515
▁documentary	-5516
▁respectively	-5517
11	-5518
26	-5519
31	-5520
57	-5521
7)	-5522
94	-5523
CI	-5524
CT	-5525
Or	-5526
PS	-5527
bl	-5528
yo	-5529
acu	-5530
akh	-5531
aud	-5532
bed	-5533
ede	-5534
iti	-5535
mud	-5536
ogy	-5537
pur	-5538
rez	-5539
war	-5540
▁63	-5541
▁AM	-5542
▁Ni	-5543
▁Ur	-5544
afia	-5545
atal	-5546
ceed	-5547
comm	-5548
ella	-5549
gers	-5550
hens	-5551
idar	-5552
iful	-5553
olis	-5554
rupt	-5555
town	-5556
ugby	-5557
umes	-5558
wick	-5559
▁.38	-5560
▁19,	-5561
▁23,	-5562
▁25,	-5563
▁500	-5564
▁Det	-5565
▁Duc	-5566
▁Far	-5567
▁Hay	-5568
▁Jac	-5569
▁Kat	-5570
▁Las	-5571
▁Lim	-5572
▁NBC	-5573
▁Qut	-5574
▁Sur	-5575
▁ban	-5576
▁dra	-5577
▁egg	-5578
▁eye	-5579
▁fer	-5580
▁got	-5581
▁hot	-5582
▁ice	-5583
▁mic	-5584
▁ult	-5585
▁wor	-5586
][11]	-5587
amily	-5588
claim	-5589
ersey	-5590
etary	-5591
going	-5592
imens	-5593
itors	-5594
ocate	-5595
ourne	-5596
unker	-5597
▁(201	-5598
▁1941	-5599
▁Cubs	-5600
▁Cuca	-5601
▁Down	-5602
▁Greg	-5603
▁Last	-5604
▁Sund	-5605
▁cert	-5606
▁coin	-5607
▁drum	-5608
▁fail	-5609
▁lect	-5610
▁loan	-5611
▁male	-5612
▁ment	-5613
▁subs	-5614
ashtra	-5615
enbald	-5616
former	-5617
icient	-5618
rupted	-5619
▁COVID	-5620
▁Haman	-5621
▁Latin	-5622
▁Place	-5623
▁Times	-5624
▁colle	-5625
▁crown	-5626
▁floor	-5627
▁gives	-5628
▁ideas	-5629
▁mayor	-5630
▁mixed	-5631
▁older	-5632
▁partn	-5633
▁rough	-5634
▁sales	-5635
▁trade	-5636
▁walls	-5637
▁withd	-5638
.[8][9]	-5639
lection	-5640
olished	-5641
tenance	-5642
uration	-5643
ylvania	-5644
▁Avenue	-5645
▁Brooks	-5646
▁Greece	-5647
▁Legisl	-5648
▁Office	-5649
▁Review	-5650
▁Source	-5651
▁System	-5652
▁assign	-5653
▁bought	-5654
▁claims	-5655
▁emphas	-5656
▁flight	-5657
▁global	-5658
▁interp	-5659
▁mainly	-5660
▁mechan	-5661
▁merged	-5662
▁mosque	-5663
▁narrow	-5664
▁novels	-5665
▁occurs	-5666
▁powers	-5667
▁propos	-5668
▁revolv	-5669
▁source	-5670
▁stands	-5671
▁superv	-5672
▁weekly	-5673
▁winner	-5674
adelphia	-5675
aikonaut	-5676
entially	-5677
irection	-5678
▁Affairs	-5679
▁Foreign	-5680
▁Mediter	-5681
▁Officer	-5682
▁Rangers	-5683
▁Swedish	-5684
▁becomes	-5685
▁convers	-5686
▁counter	-5687
▁growing	-5688
▁injured	-5689
▁install	-5690
▁invited	-5691
▁offices	-5692
▁passeng	-5693
▁quarter	-5694
▁targets	-5695
▁weekend	-5696
istration	-5697
unciation	-5698
▁Catholic	-5699
▁Marshall	-5700
▁determin	-5701
▁editions	-5702
▁historic	-5703
▁planning	-5704
▁sections	-5705
▁starring	-5706
▁Cambridge	-5707
▁Wikimedia	-5708
▁collected	-5709
▁corporate	-5710
▁estimated	-5711
▁ownership	-5712
▁permanent	-5713
▁questions	-5714
▁suggested	-5715
▁technical	-5716
▁Ahmadnagar	-5717
▁controlled	-5718
▁investment	-5719
▁provincial	-5720
▁retirement	-5721
▁Huckleberry	-5722
▁Maharashtra	-5723
▁designation	-5724
▁Philadelphia	-5725
▁independence	-5726
▁Mediterranean	-5727
45	-5728
AF	-5729
BS	-5730
EE	-5731
In	-5732
Is	-5733
gl	-5734
ng	-5735
ni	-5736
no	-5737
ür	-5738
IFA	-5739
ado	-5740
arp	-5741
aur	-5742
bar	-5743
iez	-5744
iga	-5745
ips	-5746
ión	-5747
mes	-5748
och	-5749
set	-5750
she	-5751
}}'	-5752
▁Di	-5753
▁Du	-5754
▁IX	-5755
▁Iv	-5756
▁LG	-5757
▁MG	-5758
▁PS	-5759
▁ha	-5760
.[17	-5761
aled	-5762
aria	-5763
bass	-5764
brew	-5765
egal	-5766
etts	-5767
herd	-5768
ione	-5769
mine	-5770
onia	-5771
rowd	-5772
then	-5773
ules	-5774
ulpt	-5775
zhou	-5776
▁182	-5777
▁28,	-5778
▁Adv	-5779
▁Ali	-5780
▁Bob	-5781
▁Esp	-5782
▁Eye	-5783
▁Gur	-5784
▁Gut	-5785
▁Hor	-5786
▁Hot	-5787
▁Ker	-5788
▁Mrs	-5789
▁RAN	-5790
▁Rel	-5791
▁Som	-5792
▁Tel	-5793
▁Wat	-5794
▁cin	-5795
▁eld	-5796
▁era	-5797
▁gre	-5798
▁hap	-5799
▁mem	-5800
▁shr	-5801
▁tou	-5802
.[38]	-5803
abeth	-5804
achus	-5805
asket	-5806
esson	-5807
idges	-5808
level	-5809
odies	-5810
pherd	-5811
racts	-5812
▁1920	-5813
▁1944	-5814
▁1971	-5815
▁Bach	-5816
▁Base	-5817
▁Bell	-5818
▁Edin	-5819
▁Jose	-5820
▁News	-5821
▁Qutb	-5822
▁Term	-5823
▁Week	-5824
▁anth	-5825
▁appl	-5826
▁arts	-5827
▁dram	-5828
▁heav	-5829
▁mind	-5830
▁prin	-5831
▁seem	-5832
▁walk	-5833
ashing	-5834
bourne	-5835
iously	-5836
isters	-5837
ounded	-5838
person	-5839
rently	-5840
ricity	-5841
urches	-5842
wealth	-5843
▁1998,	-5844
▁2002,	-5845
▁Admin	-5846
▁Anton	-5847
▁Armen	-5848
▁Boliv	-5849
▁Brian	-5850
▁Colon	-5851
▁Maria	-5852
▁Prior	-5853
▁Syria	-5854
▁actor	-5855
▁brand	-5856
▁cause	-5857
▁doing	-5858
▁freed	-5859
▁genre	-5860
▁grown	-5861
▁guard	-5862
▁lists	-5863
▁molec	-5864
▁naval	-5865
▁rapid	-5866
▁roads	-5867
▁stars	-5868
▁stood	-5869
▁traff	-5870
▁trust	-5871
allenge	-5872
▁Advent	-5873
▁Chorus	-5874
▁Intern	-5875
▁Knight	-5876
▁Leader	-5877
▁Moscow	-5878
▁Sensei	-5879
▁Sweden	-5880
▁Wesson	-5881
▁corner	-5882
▁deaths	-5883
▁effort	-5884
▁formal	-5885
▁growth	-5886
▁income	-5887
▁licens	-5888
▁losses	-5889
▁middle	-5890
▁oldest	-5891
▁pieces	-5892
▁shared	-5893
▁skills	-5894
▁street	-5895
▁strugg	-5896
▁talent	-5897
▁wealth	-5898
▁Bahmani	-5899
▁DeLonge	-5900
▁Finland	-5901
▁Margare	-5902
▁Mexican	-5903
▁Reserve	-5904
▁ability	-5905
▁animals	-5906
▁attacks	-5907
▁believe	-5908
▁briefly	-5909
▁coastal	-5910
▁content	-5911
▁digital	-5912
▁greater	-5913
▁locomot	-5914
▁parties	-5915
▁problem	-5916
▁scoring	-5917
achusetts	-5918
asketball	-5919
▁Montreal	-5920
▁Sciences	-5921
▁Shepherd	-5922
▁Yugoslav	-5923
▁actually	-5924
▁allowing	-5925
▁baseball	-5926
▁ceremony	-5927
▁commonly	-5928
▁distingu	-5929
▁educated	-5930
▁greatest	-5931
▁occupied	-5932
▁pandemic	-5933
▁physical	-5934
▁purchase	-5935
▁question	-5936
▁rainfall	-5937
▁remember	-5938
▁software	-5939
▁villages	-5940
▁Cathedral	-5941
▁Communist	-5942
▁Edinburgh	-5943
▁Regenbald	-5944
▁daughters	-5945
▁encounter	-5946
▁paintings	-5947
▁programme	-5948
▁relocated	-5949
▁situation	-5950
▁taikonaut	-5951
▁Prefecture	-5952
▁adaptation	-5953
▁criticized	-5954
▁everything	-5955
▁hemisphere	-5956
▁journalist	-5957
▁philosophy	-5958
▁reputation	-5959
▁settlement	-5960
▁subsequent	-5961
▁contributed	-5962
▁operational	-5963
▁transformed	-5964
▁Commonwealth	-5965
▁municipality	-5966
▁Massachusetts	-5967
▁organizations	-5968
▁pronunciation	-5969
-2	-5970
.)	-5971
06	-5972
36	-5973
58	-5974
7°	-5975
91	-5976
CO	-5977
ND	-5978
li	-5979
ás	-5980
–3	-5981
–4	-5982
"),	-5983
ati	-5984
het	-5985
him	-5986
isb	-5987
lee	-5988
nal	-5989
oka	-5990
ova	-5991
rog	-5992
uan	-5993
uct	-5994
uid	-5995
zim	-5996
–18	-5997
▁(7	-5998
▁7.	-5999
▁9,	-6000
▁Ap	-6001
▁FM	-6002
▁NR	-6003
▁Pé	-6004
6][1	-6005
Chop	-6006
amin	-6007
dots	-6008
hawk	-6009
hnir	-6010
imet	-6011
ivic	-6012
noon	-6013
omer	-6014
pest	-6015
prin	-6016
uila	-6017
uins	-6018
urer	-6019
xual	-6020
▁29,	-6021
▁Cai	-6022
▁Der	-6023
▁Dom	-6024
▁Joh	-6025
▁Kaz	-6026
▁Lew	-6027
▁Old	-6028
▁Out	-6029
▁Pen	-6030
▁Rou	-6031
▁Sil	-6032
▁Sud	-6033
▁Top	-6034
▁arm	-6035
▁cam	-6036
▁fix	-6037
▁ver	-6038
.[43]	-6039
.[48]	-6040
aming	-6041
arker	-6042
avsky	-6043
emble	-6044
erman	-6045
esign	-6046
essee	-6047
fully	-6048
ighth	-6049
ining	-6050
inity	-6051
itage	-6052
ommod	-6053
orter	-6054
point	-6055
raham	-6056
water	-6057
▁1900	-6058
▁1945	-6059
▁1966	-6060
▁1967	-6061
▁Adil	-6062
▁Blue	-6063
▁Cork	-6064
▁Giez	-6065
▁Maur	-6066
▁Nach	-6067
▁Once	-6068
▁Prem	-6069
▁Prom	-6070
▁Yang	-6071
▁asks	-6072
▁auth	-6073
▁bran	-6074
▁ethn	-6075
▁eyes	-6076
▁frag	-6077
▁mini	-6078
▁page	-6079
▁rabb	-6080
▁supp	-6081
▁synd	-6082
▁vent	-6083
▁ways	-6084
▁wins	-6085
▁zone	-6086
asions	-6087
enberg	-6088
encies	-6089
eysuck	-6090
iamond	-6091
icians	-6092
inning	-6093
irming	-6094
thodox	-6095
undred	-6096
unning	-6097
zimuth	-6098
▁Croat	-6099
▁Dutch	-6100
▁Nizam	-6101
▁Penns	-6102
▁Water	-6103
▁aimed	-6104
▁check	-6105
▁cycle	-6106
▁daily	-6107
▁draft	-6108
▁green	-6109
▁homes	-6110
▁ranks	-6111
▁recon	-6112
▁sites	-6113
▁stone	-6114
▁theme	-6115
▁towns	-6116
▁voice	-6117
▁winds	-6118
cluding	-6119
ruction	-6120
▁Arthur	-6121
▁Braves	-6122
▁Bureau	-6123
▁Compet	-6124
▁Kansas	-6125
▁Ohafia	-6126
▁Spring	-6127
▁Temple	-6128
▁acting	-6129
▁agency	-6130
▁athlet	-6131
▁choice	-6132
▁covers	-6133
▁double	-6134
▁elimin	-6135
▁estate	-6136
▁flying	-6137
▁guests	-6138
▁happen	-6139
▁helped	-6140
▁images	-6141
▁inside	-6142
▁manusc	-6143
▁marked	-6144
▁poetry	-6145
▁ranked	-6146
▁resear	-6147
▁simply	-6148
▁stream	-6149
▁taught	-6150
▁volume	-6151
endanner	-6152
▁Britain	-6153
▁Charlot	-6154
▁Kushnir	-6155
▁Patrick	-6156
▁Romania	-6157
▁arrival	-6158
▁coordin	-6159
▁credits	-6160
▁grounds	-6161
▁inhabit	-6162
▁pattern	-6163
▁playoff	-6164
▁portray	-6165
▁smaller	-6166
▁stating	-6167
▁theater	-6168
▁weather	-6169
▁workers	-6170
.[11][12]	-6171
ellectual	-6172
▁Anderson	-6173
▁Archives	-6174
▁Joravsky	-6175
▁Shenzhou	-6176
▁brothers	-6177
▁claiming	-6178
▁coverage	-6179
▁covering	-6180
▁directly	-6181
▁employed	-6182
▁familiar	-6183
▁retained	-6184
▁schedule	-6185
▁seamount	-6186
▁suggests	-6187
▁supplies	-6188
▁versions	-6189
rimination	-6190
▁Tennessee	-6191
▁chemistry	-6192
▁defeating	-6193
▁effective	-6194
▁elevation	-6195
▁expressed	-6196
▁institute	-6197
▁premiered	-6198
▁regarding	-6199
▁revolvers	-6200
▁Technology	-6201
▁alternative	-6202
▁anniversary	-6203
▁consecutive	-6204
▁educational	-6205
▁maintenance	-6206
▁opportunity	-6207
▁partnership	-6208
▁Giezendanner	-6209
▁Pennsylvania	-6210
▁corporations	-6211
▁incorporated	-6212
▁performances	-6213
▁communication	-6214
▁transformation	-6215
',	-6216
-5	-6217
04	-6218
16	-6219
EA	-6220
LC	-6221
US	-6222
▁\	-6223
,[3	-6224
[4]	-6225
ais	-6226
cho	-6227
ela	-6228
hab	-6229
iac	-6230
iny	-6231
isa	-6232
pir	-6233
udi	-6234
urt	-6235
vey	-6236
vez	-6237
▁4-	-6238
▁Ah	-6239
▁Az	-6240
▁Bi	-6241
▁Fe	-6242
▁Ko	-6243
▁cm	-6244
▁sq	-6245
)[1]	-6246
.[21	-6247
arth	-6248
ehic	-6249
greg	-6250
iang	-6251
icut	-6252
iest	-6253
ieux	-6254
ifts	-6255
lets	-6256
list	-6257
long	-6258
rait	-6259
rena	-6260
rome	-6261
seud	-6262
ucky	-6263
▁27,	-6264
▁Att	-6265
▁BBC	-6266
▁Cab	-6267
▁Cop	-6268
▁Dur	-6269
▁Ern	-6270
▁Het	-6271
▁How	-6272
▁Int	-6273
▁Jer	-6274
▁Lit	-6275
▁Mey	-6276
▁Ott	-6277
▁See	-6278
▁Tam	-6279
▁Tok	-6280
▁UFC	-6281
▁boy	-6282
▁cry	-6283
▁dro	-6284
▁inn	-6285
▁lay	-6286
▁mel	-6287
▁tie	-6288
.[47]	-6289
agues	-6290
angal	-6291
ashed	-6292
astes	-6293
erick	-6294
essel	-6295
inary	-6296
inson	-6297
ishes	-6298
odian	-6299
orney	-6300
ulate	-6301
umbai	-6302
while	-6303
▁1942	-6304
▁1963	-6305
▁1968	-6306
▁1974	-6307
▁1986	-6308
▁1989	-6309
▁Area	-6310
▁Bern	-6311
▁Card	-6312
▁Chop	-6313
▁Drug	-6314
▁Marc	-6315
▁Phys	-6316
▁Plan	-6317
▁Publ	-6318
▁Rena	-6319
▁Toni	-6320
▁Wars	-6321
▁feed	-6322
▁fell	-6323
▁foot	-6324
▁hits	-6325
▁myth	-6326
▁plat	-6327
▁raid	-6328
▁spok	-6329
▁tall	-6330
▁trou	-6331
▁vary	-6332
▁webs	-6333
▁wish	-6334
.[2][3	-6335
friend	-6336
gender	-6337
ipping	-6338
itting	-6339
orough	-6340
ources	-6341
teenth	-6342
verted	-6343
▁1942,	-6344
▁1995,	-6345
▁2000,	-6346
▁2008.	-6347
▁Chand	-6348
▁Ghana	-6349
▁Jimmy	-6350
▁Local	-6351
▁Night	-6352
▁Squad	-6353
▁Steve	-6354
▁Vienn	-6355
▁Zagre	-6356
▁dated	-6357
▁holds	-6358
▁hosts	-6359
▁milit	-6360
▁moral	-6361
▁reach	-6362
▁roles	-6363
▁seems	-6364
▁sides	-6365
▁stret	-6366
▁trees	-6367
▁vehic	-6368
▁voted	-6369
.[6][7]	-6370
.[7][8]	-6371
atorial	-6372
aughter	-6373
clusion	-6374
espread	-6375
ishment	-6376
ivalent	-6377
stances	-6378
unction	-6379
▁Albany	-6380
▁Before	-6381
▁Dakota	-6382
▁Daniel	-6383
▁Golden	-6384
▁Member	-6385
▁Mumbai	-6386
▁Person	-6387
▁Quebec	-6388
▁analys	-6389
▁ancest	-6390
▁assess	-6391
▁depict	-6392
▁gather	-6393
▁honour	-6394
▁integr	-6395
▁legend	-6396
▁owners	-6397
▁patron	-6398
▁policy	-6399
▁prompt	-6400
▁racing	-6401
▁really	-6402
▁reform	-6403
▁remark	-6404
▁reward	-6405
▁saying	-6406
▁sculpt	-6407
▁sector	-6408
▁soccer	-6409
.[9][10]	-6410
ographer	-6411
riptions	-6412
▁Canning	-6413
▁Francis	-6414
▁Nilgiri	-6415
▁Several	-6416
▁Ukraine	-6417
▁advance	-6418
▁azimuth	-6419
▁connect	-6420
▁conserv	-6421
▁devoted	-6422
▁dismiss	-6423
▁express	-6424
▁females	-6425
▁filters	-6426
▁housing	-6427
▁improve	-6428
▁journey	-6429
▁license	-6430
▁organic	-6431
▁reasons	-6432
▁request	-6433
▁respond	-6434
▁seventh	-6435
▁succeed	-6436
▁traffic	-6437
▁univers	-6438
▁yeshiva	-6439
▁Independ	-6440
▁Mountain	-6441
▁Terminal	-6442
▁Williams	-6443
▁accident	-6444
▁achieved	-6445
▁exchange	-6446
▁facility	-6447
▁regarded	-6448
▁attempted	-6449
▁centuries	-6450
▁consisted	-6451
▁contained	-6452
▁criticism	-6453
▁documents	-6454
▁employees	-6455
▁exercises	-6456
▁formation	-6457
▁recording	-6458
▁secretary	-6459
▁statement	-6460
▁submitted	-6461
▁Colchester	-6462
▁candidates	-6463
▁celebrated	-6464
▁completely	-6465
▁developing	-6466
▁employment	-6467
▁interested	-6468
▁leadership	-6469
▁membership	-6470
▁widespread	-6471
▁communities	-6472
▁contestants	-6473
▁destruction	-6474
▁differences	-6475
▁inhabitants	-6476
▁recognition	-6477
▁constitution	-6478
▁institutions	-6479
▁introduction	-6480
▁temperatures	-6481
-4	-6482
1%	-6483
2°	-6484
56	-6485
80	-6486
86	-6487
97	-6488
TA	-6489
We	-6490
ja	-6491
jo	-6492
ta	-6493
ía	-6494
3),	-6495
[6]	-6496
[7]	-6497
][9	-6498
acr	-6499
aki	-6500
cks	-6501
equ	-6502
eva	-6503
hat	-6504
hus	-6505
ibb	-6506
ieu	-6507
osa	-6508
oso	-6509
sis	-6510
ulk	-6511
uly	-6512
wig	-6513
▁7,	-6514
▁90	-6515
▁IT	-6516
▁Om	-6517
▁ic	-6518
▁ly	-6519
-182	-6520
."[4	-6521
acks	-6522
arus	-6523
come	-6524
elve	-6525
epal	-6526
gypt	-6527
hire	-6528
ibly	-6529
inea	-6530
king	-6531
mant	-6532
olid	-6533
otyp	-6534
pool	-6535
roit	-6536
sson	-6537
udes	-6538
went	-6539
yond	-6540
▁(16	-6541
▁10,	-6542
▁Abb	-6543
▁Ark	-6544
▁Aut	-6545
▁Beg	-6546
▁Huy	-6547
▁Les	-6548
▁Luc	-6549
▁MTV	-6550
▁Mic	-6551
▁Mob	-6552
▁SSW	-6553
▁Tro	-6554
▁Tut	-6555
▁Vid	-6556
▁alt	-6557
▁eas	-6558
▁tun	-6559
▁unl	-6560
▁van	-6561
▁voc	-6562
).[1]	-6563
.[39]	-6564
.[46]	-6565
][22]	-6566
airan	-6567
allel	-6568
astic	-6569
avras	-6570
eated	-6571
eller	-6572
ivals	-6573
ocked	-6574
organ	-6575
otron	-6576
ribed	-6577
thalm	-6578
umber	-6579
▁1928	-6580
▁1947	-6581
▁1981	-6582
▁Anna	-6583
▁Cape	-6584
▁Carn	-6585
▁Chin	-6586
▁Each	-6587
▁Fras	-6588
▁Fund	-6589
▁LGBT	-6590
▁Long	-6591
▁Mill	-6592
▁Ober	-6593
▁Only	-6594
▁Pass	-6595
▁Pier	-6596
▁Show	-6597
▁Stat	-6598
▁Thus	-6599
▁Tong	-6600
▁Wyck	-6601
▁aged	-6602
▁answ	-6603
▁boys	-6604
▁coal	-6605
▁doub	-6606
▁fast	-6607
▁gren	-6608
▁heat	-6609
▁imag	-6610
▁moth	-6611
▁opin	-6612
▁pros	-6613
▁roof	-6614
▁scen	-6615
▁sens	-6616
▁shel	-6617
▁soil	-6618
▁stra	-6619
▁thir	-6620
▁weak	-6621
aduate	-6622
anging	-6623
aptist	-6624
arnock	-6625
father	-6626
idency	-6627
iments	-6628
omatic	-6629
perial	-6630
▁1944,	-6631
▁1996,	-6632
▁2009.	-6633
▁Billy	-6634
▁Clark	-6635
▁Color	-6636
▁Early	-6637
▁Jones	-6638
▁Morse	-6639
▁Space	-6640
▁Talas	-6641
▁Tamil	-6642
▁Third	-6643
▁banks	-6644
▁cabin	-6645
▁comic	-6646
▁crowd	-6647
▁diagn	-6648
▁fresh	-6649
▁image	-6650
▁judge	-6651
▁panel	-6652
▁react	-6653
▁ruled	-6654
▁sport	-6655
acional	-6656
anguage	-6657
autiful	-6658
ecticut	-6659
▁Athlet	-6660
▁Bishop	-6661
▁Coward	-6662
▁Gutman	-6663
▁Haines	-6664
▁Laurel	-6665
▁Nether	-6666
▁Queens	-6667
▁Secret	-6668
▁Wedell	-6669
▁Wonder	-6670
▁Zagreb	-6671
▁affect	-6672
▁allows	-6673
▁animal	-6674
▁beyond	-6675
▁domain	-6676
▁encour	-6677
▁ending	-6678
▁escort	-6679
▁experi	-6680
▁fields	-6681
▁height	-6682
▁orders	-6683
▁reduce	-6684
▁ruling	-6685
▁showed	-6686
▁signal	-6687
▁sought	-6688
▁strike	-6689
▁survey	-6690
▁theory	-6691
▁toward	-6692
▁twelve	-6693
standing	-6694
urricane	-6695
▁Because	-6696
▁Journal	-6697
▁Lemieux	-6698
▁Notable	-6699
▁Program	-6700
▁commune	-6701
▁engaged	-6702
▁fantasy	-6703
▁forests	-6704
▁hundred	-6705
▁killing	-6706
▁liberal	-6707
▁measure	-6708
▁missing	-6709
▁monarch	-6710
▁praised	-6711
▁produce	-6712
▁protein	-6713
▁protest	-6714
▁treated	-6715
▁victims	-6716
mentation	-6717
▁Heritage	-6718
▁Persians	-6719
▁Training	-6720
▁accommod	-6721
▁accompan	-6722
▁accounts	-6723
▁attacked	-6724
▁audience	-6725
▁branches	-6726
▁computer	-6727
▁crossing	-6728
▁incident	-6729
▁interact	-6730
▁proposal	-6731
▁shooting	-6732
▁wireless	-6733
▁Alexander	-6734
▁abandoned	-6735
▁challenge	-6736
▁childhood	-6737
▁classical	-6738
▁connected	-6739
▁continues	-6740
▁emergency	-6741
▁languages	-6742
▁marriages	-6743
▁mountains	-6744
▁producing	-6745
▁reference	-6746
▁scientist	-6747
▁secondary	-6748
▁something	-6749
▁sponsored	-6750
▁Venezuelan	-6751
▁background	-6752
▁deployment	-6753
▁expression	-6754
▁foundation	-6755
▁historians	-6756
▁parliament	-6757
▁respective	-6758
▁Legislative	-6759
▁Netherlands	-6760
▁inscription	-6761
▁mathematics	-6762
▁surrounding	-6763
▁Additionally	-6764
▁neighborhood	-6765
▁occasionally	-6766
▁successfully	-6767
Dr	-6768
FY	-6769
IA	-6770
LA	-6771
NG	-6772
NO	-6773
TE	-6774
ao	-6775
sb	-6776
ti	-6777
zy	-6778
–6	-6779
/99	-6780
:[1	-6781
?",	-6782
Ext	-6783
QCD	-6784
aed	-6785
aft	-6786
ags	-6787
gel	-6788
get	-6789
gun	-6790
isf	-6791
lah	-6792
lig	-6793
lit	-6794
nce	-6795
nol	-6796
oba	-6797
osh	-6798
ris	-6799
ski	-6800
yan	-6801
▁(6	-6802
▁34	-6803
▁6.	-6804
▁65	-6805
▁75	-6806
▁AS	-6807
▁Cy	-6808
▁Ky	-6809
▁RE	-6810
▁Ts	-6811
▁Ty	-6812
▁Vo	-6813
▁WD	-6814
▁ir	-6815
."[2	-6816
.[14	-6817
8][1	-6818
Will	-6819
acts	-6820
agan	-6821
alan	-6822
alty	-6823
ammu	-6824
atsu	-6825
aver	-6826
ayan	-6827
bell	-6828
case	-6829
egie	-6830
elly	-6831
erto	-6832
etta	-6833
hamm	-6834
icit	-6835
inek	-6836
ivas	-6837
mont	-6838
olas	-6839
oven	-6840
racy	-6841
rete	-6842
rong	-6843
spec	-6844
term	-6845
uchy	-6846
ávez	-6847
▁(15	-6848
▁26,	-6849
▁31,	-6850
▁Box	-6851
▁Bud	-6852
▁Dar	-6853
▁Eis	-6854
▁Fel	-6855
▁Hun	-6856
▁Joe	-6857
▁Kam	-6858
▁Low	-6859
▁McG	-6860
▁Sax	-6861
▁Ste	-6862
▁Tep	-6863
▁Tit	-6864
▁Van	-6865
▁Zhu	-6866
▁aid	-6867
▁etc	-6868
▁flo	-6869
▁lot	-6870
▁pal	-6871
▁ple	-6872
▁pul	-6873
▁rid	-6874
."[3]	-6875
."[4]	-6876
.[44]	-6877
5,000	-6878
ading	-6879
ateur	-6880
eenth	-6881
endar	-6882
enden	-6883
ienus	-6884
ifted	-6885
ilers	-6886
maker	-6887
ophon	-6888
ousin	-6889
prise	-6890
rator	-6891
stein	-6892
▁1936	-6893
▁1958	-6894
▁1976	-6895
▁1977	-6896
▁Code	-6897
▁Fair	-6898
▁Fern	-6899
▁Gulf	-6900
▁KQCD	-6901
▁Luis	-6902
▁Mack	-6903
▁Mand	-6904
▁Mant	-6905
▁Mike	-6906
▁Note	-6907
▁Ohio	-6908
▁Pear	-6909
▁Peng	-6910
▁Sant	-6911
▁Vill	-6912
▁Wolf	-6913
▁YouT	-6914
▁alco	-6915
▁burn	-6916
▁deck	-6917
▁duel	-6918
▁elig	-6919
▁gang	-6920
▁isol	-6921
▁laws	-6922
▁onto	-6923
▁phen	-6924
▁ring	-6925
▁roll	-6926
▁rose	-6927
▁slow	-6928
▁virt	-6929
▁want	-6930
▁weap	-6931
Gavras	-6932
arters	-6933
esters	-6934
istant	-6935
ivated	-6936
lahoma	-6937
profit	-6938
racted	-6939
ricket	-6940
uction	-6941
uesday	-6942
weight	-6943
▁1997,	-6944
▁Cairo	-6945
▁Delhi	-6946
▁Domin	-6947
▁Egypt	-6948
▁Exper	-6949
▁Fried	-6950
▁Guill	-6951
▁Hawai	-6952
▁Jammu	-6953
▁Lewis	-6954
▁Phill	-6955
▁Pérez	-6956
▁Staff	-6957
▁ahead	-6958
▁alone	-6959
▁bands	-6960
▁blood	-6961
▁cargo	-6962
▁chose	-6963
▁extra	-6964
▁goods	-6965
▁guide	-6966
▁imple	-6967
▁moder	-6968
▁notes	-6969
▁rally	-6970
▁roots	-6971
▁signs	-6972
▁speak	-6973
▁table	-6974
▁union	-6975
.[5][6]	-6976
acement	-6977
ainment	-6978
oslovak	-6979
▁Barker	-6980
▁Chávez	-6981
▁Hairan	-6982
▁Johann	-6983
▁Norman	-6984
▁Places	-6985
▁Vienna	-6986
▁Wilson	-6987
▁appeal	-6988
▁castle	-6989
▁circum	-6990
▁cousin	-6991
▁energy	-6992
▁escape	-6993
▁exclus	-6994
▁expert	-6995
▁garden	-6996
▁letter	-6997
▁myster	-6998
▁relief	-6999
▁rulers	-7000
▁search	-7001
▁sexual	-7002
▁synthe	-7003
▁things	-7004
▁twenty	-7005
▁weight	-7006
▁Abraham	-7007
▁Conserv	-7008
▁Detroit	-7009
▁Loreley	-7010
▁Mission	-7011
▁Project	-7012
▁alleged	-7013
▁arrives	-7014
▁assumed	-7015
▁authors	-7016
▁chapter	-7017
▁classic	-7018
▁continu	-7019
▁convent	-7020
▁derived	-7021
▁dropped	-7022
▁element	-7023
▁freedom	-7024
▁getting	-7025
▁morning	-7026
▁notably	-7027
▁roughly	-7028
▁strateg	-7029
▁therapy	-7030
▁website	-7031
including	-7032
sequently	-7033
▁Charnock	-7034
▁Children	-7035
▁Kentucky	-7036
▁Landmark	-7037
▁Lawrence	-7038
▁Oklahoma	-7039
▁Orthodox	-7040
▁Stanford	-7041
▁concerns	-7042
▁equipped	-7043
▁founding	-7044
▁obtained	-7045
▁progress	-7046
▁strongly	-7047
▁struggle	-7048
▁youngest	-7049
▁Americans	-7050
▁Argentine	-7051
▁Beginning	-7052
▁Gallienus	-7053
▁battalion	-7054
▁conflicts	-7055
▁displayed	-7056
▁explained	-7057
▁neighbour	-7058
▁northeast	-7059
▁offensive	-7060
▁principal	-7061
▁protected	-7062
▁replacing	-7063
▁sharehold	-7064
▁suspended	-7065
▁temporary	-7066
▁tombstone	-7067
▁volunteer	-7068
▁Adventures	-7069
▁Lieutenant	-7070
▁Management	-7071
▁Production	-7072
▁challenges	-7073
▁classified	-7074
▁completion	-7075
▁containing	-7076
▁importance	-7077
▁instrument	-7078
▁publishing	-7079
▁recognized	-7080
▁registered	-7081
▁soundtrack	-7082
▁distributed	-7083
▁experiences	-7084
▁possibility	-7085
▁residential	-7086
▁Czechoslovak	-7087
communications	-7088
▁architectural	-7089
▁environmental	-7090
0}	-7091
1°	-7092
3%	-7093
Sc	-7094
TS	-7095
[3	-7096
mm	-7097
;[1	-7098
FYR	-7099
eck	-7100
erb	-7101
far	-7102
hag	-7103
hon	-7104
hra	-7105
ils	-7106
ipe	-7107
ira	-7108
kes	-7109
lem	-7110
oen	-7111
ogs	-7112
olt	-7113
osm	-7114
put	-7115
rig	-7116
uku	-7117
unn	-7118
zes	-7119
–1.	-7120
▁#1	-7121
▁(9	-7122
▁42	-7123
▁45	-7124
▁47	-7125
▁48	-7126
▁5-	-7127
▁AI	-7128
▁ec	-7129
.[22	-7130
This	-7131
][11	-7132
ager	-7133
also	-7134
date	-7135
duct	-7136
east	-7137
eget	-7138
hatt	-7139
igin	-7140
ippo	-7141
izes	-7142
mans	-7143
obia	-7144
ocks	-7145
ogan	-7146
ouri	-7147
pres	-7148
wait	-7149
wise	-7150
▁Bon	-7151
▁Dam	-7152
▁Dou	-7153
▁Fre	-7154
▁Gas	-7155
▁Gil	-7156
▁HMS	-7157
▁Han	-7158
▁Has	-7159
▁Hig	-7160
▁ILS	-7161
▁Jam	-7162
▁Lee	-7163
▁Lid	-7164
▁Liu	-7165
▁Nar	-7166
▁Pap	-7167
▁Pur	-7168
▁Rot	-7169
▁Saw	-7170
▁Tai	-7171
▁UCI	-7172
▁aer	-7173
▁fan	-7174
▁mom	-7175
▁mor	-7176
▁neu	-7177
▁nom	-7178
▁oil	-7179
▁sym	-7180
▁tim	-7181
".[1]	-7182
."[5]	-7183
.[42]	-7184
][15]	-7185
][20]	-7186
after	-7187
allas	-7188
ancou	-7189
ansai	-7190
athan	-7191
ennis	-7192
illin	-7193
itals	-7194
oking	-7195
ordon	-7196
oting	-7197
ounty	-7198
ricts	-7199
story	-7200
uerto	-7201
where	-7202
▁1943	-7203
▁1959	-7204
▁1969	-7205
▁1978	-7206
▁1987	-7207
▁Afri	-7208
▁Brig	-7209
▁Buff	-7210
▁Comb	-7211
▁Cran	-7212
▁Fame	-7213
▁Fess	-7214
▁Grup	-7215
▁Hand	-7216
▁Hond	-7217
▁Jess	-7218
▁Juan	-7219
▁KFYR	-7220
▁Look	-7221
▁Lord	-7222
▁Mean	-7223
▁Otto	-7224
▁Ross	-7225
▁Sher	-7226
▁Spar	-7227
▁Wild	-7228
▁ball	-7229
▁bill	-7230
▁cant	-7231
▁cash	-7232
▁fash	-7233
▁folk	-7234
▁harm	-7235
▁hero	-7236
▁mart	-7237
▁mess	-7238
▁rein	-7239
▁sale	-7240
▁swim	-7241
▁trib	-7242
▁your	-7243
Connor	-7244
French	-7245
caster	-7246
ennial	-7247
ensity	-7248
ivered	-7249
modium	-7250
orance	-7251
thouse	-7252
▁1992,	-7253
▁2007.	-7254
▁Abdul	-7255
▁Baker	-7256
▁Cloud	-7257
▁Every	-7258
▁Heart	-7259
▁Hindu	-7260
▁Holda	-7261
▁Human	-7262
▁Judge	-7263
▁Lions	-7264
▁Marie	-7265
▁Rural	-7266
▁Serge	-7267
▁Short	-7268
▁apply	-7269
▁brick	-7270
▁broke	-7271
▁evacu	-7272
▁girls	-7273
▁grass	-7274
▁merch	-7275
▁negot	-7276
▁piano	-7277
▁plane	-7278
▁route	-7279
▁spots	-7280
▁steel	-7281
▁stopp	-7282
▁train	-7283
▁tried	-7284
▁votes	-7285
][4][5]	-7286
busters	-7287
ificial	-7288
ocratic	-7289
phthalm	-7290
▁Austin	-7291
▁Belgio	-7292
▁Corner	-7293
▁Entert	-7294
▁Future	-7295
▁Geneva	-7296
▁Guinea	-7297
▁Jersey	-7298
▁Kansai	-7299
▁Master	-7300
▁Ottawa	-7301
▁Panama	-7302
▁Portug	-7303
▁Potato	-7304
▁Soccer	-7305
▁Spirit	-7306
▁Square	-7307
▁Syrian	-7308
▁Vancou	-7309
▁accept	-7310
▁actual	-7311
▁adding	-7312
▁brainw	-7313
▁cancer	-7314
▁cannot	-7315
▁colour	-7316
▁desire	-7317
▁expect	-7318
▁extrem	-7319
▁firing	-7320
▁junior	-7321
▁linked	-7322
▁marine	-7323
▁overse	-7324
▁passes	-7325
▁proved	-7326
▁rating	-7327
▁shares	-7328
▁supply	-7329
▁themes	-7330
▁throne	-7331
▁trials	-7332
▁trying	-7333
▁videos	-7334
iverpool	-7335
▁Commons	-7336
▁Diamond	-7337
▁Network	-7338
▁Section	-7339
▁Sentier	-7340
▁YouTube	-7341
▁accompl	-7342
▁acquire	-7343
▁applied	-7344
▁barrels	-7345
▁calling	-7346
▁capable	-7347
▁contact	-7348
▁decades	-7349
▁economy	-7350
▁effects	-7351
▁emperor	-7352
▁finding	-7353
▁greatly	-7354
▁grenade	-7355
▁guarant	-7356
▁lockout	-7357
▁nuclear	-7358
▁pharmac	-7359
▁picture	-7360
▁readers	-7361
▁reserve	-7362
▁results	-7363
▁seasons	-7364
▁viewers	-7365
▁volumes	-7366
▁warning	-7367
▁Arkansas	-7368
▁Carnegie	-7369
▁Industry	-7370
▁Infantry	-7371
▁Mantilla	-7372
▁Maryland	-7373
▁Services	-7374
▁Township	-7375
▁adjacent	-7376
▁attribut	-7377
▁carrying	-7378
▁compound	-7379
▁downtown	-7380
▁graduate	-7381
▁involves	-7382
▁observed	-7383
▁operates	-7384
▁opponent	-7385
▁parallel	-7386
▁positive	-7387
▁religion	-7388
▁studying	-7389
▁substant	-7390
▁surnames	-7391
▁Battalion	-7392
▁Billboard	-7393
▁Elizabeth	-7394
▁Fessenden	-7395
▁Meanwhile	-7396
▁Vancouver	-7397
▁attending	-7398
▁belonging	-7399
▁commander	-7400
▁condition	-7401
▁defensive	-7402
▁delivered	-7403
▁determine	-7404
▁directors	-7405
▁honeysuck	-7406
▁occasions	-7407
▁publisher	-7408
▁Throughout	-7409
▁Yugoslavia	-7410
▁affiliated	-7411
▁attraction	-7412
▁basketball	-7413
▁conclusion	-7414
▁developers	-7415
▁exhibition	-7416
▁influenced	-7417
▁researcher	-7418
▁resistance	-7419
▁ultimately	-7420
▁Brandenburg	-7421
▁Competition	-7422
▁Connecticut	-7423
▁collections	-7424
▁compilation	-7425
▁composition	-7426
▁locomotives	-7427
▁populations	-7428
▁programming	-7429
▁suggestions	-7430
▁translation	-7431
▁Cloudbusters	-7432
▁conservation	-7433
▁constituency	-7434
▁contribution	-7435
▁organisation	-7436
▁Entertainment	-7437
▁investigation	-7438
▁administration	-7439
!"	-7440
.”	-7441
71	-7442
87	-7443
93	-7444
Al	-7445
An	-7446
At	-7447
Cl	-7448
II	-7449
IP	-7450
It	-7451
OP	-7452
ba	-7453
cu	-7454
dr	-7455
ii	-7456
oe	-7457
va	-7458
ão	-7459
ün	-7460
▁·	-7461
200	-7462
800	-7463
Com	-7464
New	-7465
ava	-7466
bal	-7467
bit	-7468
bro	-7469
eps	-7470
gae	-7471
gal	-7472
ibl	-7473
iki	-7474
inō	-7475
iom	-7476
irk	-7477
jid	-7478
mal	-7479
ois	-7480
owa	-7481
phy	-7482
pon	-7483
rec	-7484
see	-7485
ses	-7486
uba	-7487
umi	-7488
–15	-7489
▁AW	-7490
▁Ay	-7491
▁EP	-7492
▁Ly	-7493
▁Mr	-7494
▁UN	-7495
▁Ud	-7496
."[3	-7497
Star	-7498
_{1}	-7499
alid	-7500
amic	-7501
anch	-7502
arks	-7503
ashi	-7504
egas	-7505
enny	-7506
evin	-7507
fire	-7508
fort	-7509
fred	-7510
gest	-7511
heim	-7512
holm	-7513
host	-7514
iege	-7515
imum	-7516
isms	-7517
joso	-7518
know	-7519
lers	-7520
load	-7521
more	-7522
mosp	-7523
neys	-7524
olen	-7525
olia	-7526
ooth	-7527
orum	-7528
otti	-7529
outs	-7530
rect	-7531
urwa	-7532
usal	-7533
–201	-7534
▁(17	-7535
▁(2,	-7536
▁13.	-7537
▁152	-7538
▁300	-7539
▁Aud	-7540
▁BCT	-7541
▁Bat	-7542
▁Fly	-7543
▁Kon	-7544
▁Mov	-7545
▁NAS	-7546
▁Nap	-7547
▁Ner	-7548
▁Occ	-7549
▁Pir	-7550
▁Set	-7551
▁Sid	-7552
▁Str	-7553
▁Vic	-7554
▁cow	-7555
▁cra	-7556
▁die	-7557
▁dry	-7558
▁fab	-7559
▁les	-7560
▁mir	-7561
▁nav	-7562
▁pod	-7563
▁rot	-7564
▁seg	-7565
▁sty	-7566
▁vac	-7567
.[40]	-7568
.[41]	-7569
.[45]	-7570
.[57]	-7571
aceae	-7572
achel	-7573
centr	-7574
ector	-7575
eless	-7576
ented	-7577
erder	-7578
esota	-7579
icide	-7580
inter	-7581
iscal	-7582
itter	-7583
ocese	-7584
olver	-7585
oster	-7586
phant	-7587
rahim	-7588
ridge	-7589
tarct	-7590
ublin	-7591
utral	-7592
▁1899	-7593
▁1946	-7594
▁1954	-7595
▁Band	-7596
▁Buch	-7597
▁Chap	-7598
▁Cuba	-7599
▁Cuid	-7600
▁Dede	-7601
▁Hamp	-7602
▁Hann	-7603
▁Hard	-7604
▁Init	-7605
▁Inst	-7606
▁Iron	-7607
▁León	-7608
▁List	-7609
▁Minn	-7610
▁Nort	-7611
▁Open	-7612
▁Pant	-7613
▁Salv	-7614
▁Take	-7615
▁Turn	-7616
▁Umar	-7617
▁Vidé	-7618
▁Whit	-7619
▁Wool	-7620
▁baby	-7621
▁bear	-7622
▁bott	-7623
▁deem	-7624
▁gain	-7625
▁kick	-7626
▁knew	-7627
▁mine	-7628
▁mist	-7629
▁ones	-7630
▁pool	-7631
▁rear	-7632
▁reop	-7633
▁safe	-7634
▁sets	-7635
▁sust	-7636
▁symb	-7637
▁ties	-7638
▁wake	-7639
aceous	-7640
annels	-7641
arrier	-7642
hammad	-7643
ibbean	-7644
insula	-7645
itched	-7646
ocracy	-7647
reated	-7648
rehens	-7649
struct	-7650
▁1941,	-7651
▁1970,	-7652
▁1988,	-7653
▁1993,	-7654
▁2006.	-7655
▁2011.	-7656
▁2015.	-7657
▁Arena	-7658
▁Bidar	-7659
▁Euras	-7660
▁Hills	-7661
▁Light	-7662
▁Medic	-7663
▁Niinō	-7664
▁Niles	-7665
▁Phoen	-7666
▁Polit	-7667
▁Santa	-7668
▁Satur	-7669
▁Tiger	-7670
▁Tokyo	-7671
▁acted	-7672
▁avoid	-7673
▁birds	-7674
▁consc	-7675
▁creat	-7676
▁exact	-7677
▁graph	-7678
▁limit	-7679
▁multi	-7680
▁opera	-7681
▁pione	-7682
▁races	-7683
▁reson	-7684
▁ridge	-7685
▁shape	-7686
▁simul	-7687
▁steps	-7688
▁tapes	-7689
▁touch	-7690
▁veget	-7691
▁views	-7692
▁worth	-7693
achelor	-7694
borough	-7695
casting	-7696
claimed	-7697
▁Dallas	-7698
▁Deccan	-7699
▁Dublin	-7700
▁Finals	-7701
▁Galway	-7702
▁Hebrew	-7703
▁Karate	-7704
▁Little	-7705
▁Manuel	-7706
▁Marath	-7707
▁Masjid	-7708
▁Merced	-7709
▁Middle	-7710
▁Murphy	-7711
▁Palest	-7712
▁Slagle	-7713
▁albums	-7714
▁argued	-7715
▁causes	-7716
▁combin	-7717
▁convoy	-7718
▁custom	-7719
▁dispat	-7720
▁driver	-7721
▁easily	-7722
▁guidel	-7723
▁lyrics	-7724
▁picked	-7725
▁reliev	-7726
▁reprin	-7727
▁severe	-7728
▁subsid	-7729
▁thanks	-7730
▁writes	-7731
graduate	-7732
rastruct	-7733
▁Antarct	-7734
▁Baptist	-7735
▁Capital	-7736
▁Cuidera	-7737
▁Frasier	-7738
▁Guillou	-7739
▁Ibrahim	-7740
▁Indiana	-7741
▁Kennedy	-7742
▁Nations	-7743
▁Nigeria	-7744
▁Tutuila	-7745
▁capture	-7746
▁carrier	-7747
▁comment	-7748
▁consult	-7749
▁cricket	-7750
▁debuted	-7751
▁enjoyed	-7752
▁factory	-7753
▁joining	-7754
▁justice	-7755
▁largely	-7756
▁longest	-7757
▁markets	-7758
▁motorcy	-7759
▁opposed	-7760
▁persons	-7761
▁pianist	-7762
▁recruit	-7763
▁referee	-7764
▁reports	-7765
▁returns	-7766
▁serious	-7767
▁shuttle	-7768
▁signals	-7769
▁testing	-7770
▁updated	-7771
▁writers	-7772
urwaerder	-7773
▁Colorado	-7774
▁Cultural	-7775
▁Michigan	-7776
▁Ministry	-7777
▁Romantic	-7778
▁Sparhawk	-7779
▁Squadron	-7780
▁Warangal	-7781
▁arranged	-7782
▁calendar	-7783
▁changing	-7784
▁clinical	-7785
▁concentr	-7786
▁constant	-7787
▁criminal	-7788
▁depicted	-7789
▁earliest	-7790
▁entrance	-7791
▁episodes	-7792
▁executed	-7793
▁favorite	-7794
▁friendly	-7795
▁habitats	-7796
▁identify	-7797
▁journals	-7798
▁maintain	-7799
▁memorial	-7800
▁offering	-7801
▁overseas	-7802
▁problems	-7803
▁recently	-7804
▁restored	-7805
▁straight	-7806
▁transmit	-7807
▁Caribbean	-7808
▁Executive	-7809
▁Louisiana	-7810
▁Minnesota	-7811
▁Operation	-7812
▁Vidéotron	-7813
▁beautiful	-7814
▁champions	-7815
▁finishing	-7816
▁interpret	-7817
▁involving	-7818
▁miniature	-7819
▁orchestra	-7820
▁residence	-7821
▁resources	-7822
▁resulting	-7823
▁thousands	-7824
▁underwent	-7825
▁wrestling	-7826
▁Belgiojoso	-7827
▁Television	-7828
▁contestant	-7829
▁courthouse	-7830
▁demolished	-7831
▁determined	-7832
▁electronic	-7833
▁indicators	-7834
▁manuscript	-7835
▁nomination	-7836
▁performing	-7837
▁protesters	-7838
▁threatened	-7839
▁Engineering	-7840
▁Republicans	-7841
▁maintaining	-7842
▁scholarship	-7843
▁underground	-7844
▁Broadcasting	-7845
▁agricultural	-7846
▁considerable	-7847
▁intelligence	-7848
▁Dedeurwaerder	-7849
▁controversial	-7850
▁illustrations	-7851
▁understanding	-7852
▁representative	-7853
05	-7854
42	-7855
47	-7856
BA	-7857
BD	-7858
CR	-7859
IN	-7860
SP	-7861
Sh	-7862
TP	-7863
fe	-7864
ić	-7865
vo	-7866
6),	-7867
CAA	-7868
UFX	-7869
[8]	-7870
aux	-7871
eds	-7872
ici	-7873
ima	-7874
imp	-7875
iot	-7876
ito	-7877
ker	-7878
lyn	-7879
mas	-7880
non	-7881
née	-7882
obe	-7883
rad	-7884
rud	-7885
rus	-7886
uda	-7887
uli	-7888
uls	-7889
ved	-7890
vis	-7891
–20	-7892
▁$5	-7893
▁3-	-7894
▁33	-7895
▁36	-7896
▁38	-7897
▁4.	-7898
▁41	-7899
▁77	-7900
▁Ba	-7901
▁Hy	-7902
▁MP	-7903
▁Op	-7904
▁Ox	-7905
▁PA	-7906
▁RG	-7907
▁Tw	-7908
▁WW	-7909
▁su	-7910
,[6]	-7911
,[9]	-7912
.[24	-7913
Moon	-7914
ache	-7915
angh	-7916
asts	-7917
book	-7918
cons	-7919
disc	-7920
efan	-7921
elle	-7922
elli	-7923
eral	-7924
fted	-7925
game	-7926
hist	-7927
hour	-7928
ieuw	-7929
iled	-7930
imal	-7931
iman	-7932
iser	-7933
isis	-7934
larg	-7935
loop	-7936
mits	-7937
nold	-7938
rock	-7939
rons	-7940
room	-7941
rove	-7942
unta	-7943
uses	-7944
▁(20	-7945
▁APA	-7946
▁Bax	-7947
▁Big	-7948
▁Dog	-7949
▁Ele	-7950
▁Exp	-7951
▁Ext	-7952
▁Fal	-7953
▁Hit	-7954
▁Hur	-7955
▁Ice	-7956
▁Kit	-7957
▁Lar	-7958
▁Lat	-7959
▁Let	-7960
▁McK	-7961
▁Nev	-7962
▁Ori	-7963
▁Ref	-7964
▁Spe	-7965
▁Tat	-7966
▁Var	-7967
▁bon	-7968
▁cas	-7969
▁gay	-7970
▁hip	-7971
▁hyp	-7972
▁lap	-7973
▁lat	-7974
▁nor	-7975
▁rob	-7976
▁row	-7977
▁try	-7978
▁}{\	-7979
,[10]	-7980
."[6]	-7981
.[50]	-7982
Extra	-7983
][14]	-7984
abama	-7985
acier	-7986
acted	-7987
agers	-7988
anger	-7989
antly	-7990
backs	-7991
conda	-7992
dfrac	-7993
ellor	-7994
endit	-7995
eness	-7996
esten	-7997
ieval	-7998
ifies	-7999
inawa	-8000
inces	-8001
inger	-8002
iques	-8003
lines	-8004
month	-8005
onimo	-8006
opter	-8007
orial	-8008
owned	-8009
phone	-8010
regon	-8011
trans	-8012
ushed	-8013
▁(0.0	-8014
▁1917	-8015
▁1952	-8016
▁1975	-8017
▁Alec	-8018
▁Anat	-8019
▁Anti	-8020
▁Bang	-8021
▁Bass	-8022
▁Borg	-8023
▁Brab	-8024
▁Bret	-8025
▁Brun	-8026
▁Call	-8027
▁Clay	-8028
▁Cole	-8029
▁Conc	-8030
▁Days	-8031
▁Emma	-8032
▁Foot	-8033
▁Girl	-8034
▁Glas	-8035
▁Hass	-8036
▁Hear	-8037
▁Hein	-8038
▁Mess	-8039
▁Nash	-8040
▁Pict	-8041
▁Reub	-8042
▁Such	-8043
▁Tamp	-8044
▁Tony	-8045
▁Trad	-8046
▁WUFX	-8047
▁Wang	-8048
▁Wiki	-8049
▁Writ	-8050
▁Zone	-8051
▁aims	-8052
▁clim	-8053
▁cold	-8054
▁flee	-8055
▁hope	-8056
▁hour	-8057
▁hung	-8058
▁kill	-8059
▁magn	-8060
▁mixt	-8061
▁nick	-8062
▁none	-8063
▁pair	-8064
▁pale	-8065
▁path	-8066
▁reun	-8067
▁sees	-8068
▁sess	-8069
▁sole	-8070
▁suit	-8071
Montes	-8072
aediat	-8073
apolis	-8074
billed	-8075
closed	-8076
ellite	-8077
illery	-8078
isbane	-8079
iscoll	-8080
lywood	-8081
member	-8082
ogical	-8083
porter	-8084
ricted	-8085
rowing	-8086
uccess	-8087
ultane	-8088
urated	-8089
urgent	-8090
urning	-8091
viewed	-8092
▁1,000	-8093
▁1994,	-8094
▁2005.	-8095
▁About	-8096
▁André	-8097
▁Blanc	-8098
▁Blink	-8099
▁Cates	-8100
▁Claus	-8101
▁Forum	-8102
▁Honor	-8103
▁Julia	-8104
▁Keith	-8105
▁Korea	-8106
▁Mayor	-8107
▁Milan	-8108
▁Osaka	-8109
▁Perth	-8110
▁Pitts	-8111
▁Point	-8112
▁Psych	-8113
▁Rosen	-8114
▁Saudi	-8115
▁Singh	-8116
▁Sound	-8117
▁Stand	-8118
▁Vegas	-8119
▁Welsh	-8120
▁Wings	-8121
▁Woman	-8122
▁agent	-8123
▁armed	-8124
▁bases	-8125
▁cards	-8126
▁conqu	-8127
▁dates	-8128
▁drops	-8129
▁earth	-8130
▁femin	-8131
▁filed	-8132
▁frame	-8133
▁labor	-8134
▁males	-8135
▁marry	-8136
▁overs	-8137
▁overt	-8138
▁pilot	-8139
▁quite	-8140
▁recip	-8141
▁repro	-8142
▁sense	-8143
▁shell	-8144
▁sight	-8145
▁thing	-8146
▁tower	-8147
▁trail	-8148
▁types	-8149
▁usual	-8150
▁veter	-8151
.[1][3]	-8152
angered	-8153
icillin	-8154
ologies	-8155
▁Agency	-8156
▁Around	-8157
▁Astros	-8158
▁Baxter	-8159
▁Cauchy	-8160
▁Compos	-8161
▁Dragon	-8162
▁Either	-8163
▁Marcel	-8164
▁Market	-8165
▁Oregon	-8166
▁Oxford	-8167
▁Peters	-8168
▁Sawyer	-8169
▁Stefan	-8170
▁Though	-8171
▁advant	-8172
▁allele	-8173
▁anyone	-8174
▁assets	-8175
▁cancel	-8176
▁ceased	-8177
▁consum	-8178
▁credit	-8179
▁debate	-8180
▁decide	-8181
▁demand	-8182
▁ethnic	-8183
▁excess	-8184
▁filled	-8185
▁landsl	-8186
▁lawyer	-8187
▁matter	-8188
▁medals	-8189
▁median	-8190
▁mobile	-8191
▁option	-8192
▁pistol	-8193
▁prices	-8194
▁rescue	-8195
▁rivers	-8196
▁runway	-8197
▁saints	-8198
▁stages	-8199
▁stores	-8200
▁transc	-8201
▁unders	-8202
▁unique	-8203
▁useful	-8204
▁valley	-8205
▁weaken	-8206
bassador	-8207
ographic	-8208
stituent	-8209
▁Andrews	-8210
▁Bachhra	-8211
▁Channel	-8212
▁Defense	-8213
▁Filippo	-8214
▁Indones	-8215
▁Mariana	-8216
▁Municip	-8217
▁Okinawa	-8218
▁Players	-8219
▁Similar	-8220
▁Support	-8221
▁Univers	-8222
▁actress	-8223
▁amateur	-8224
▁battles	-8225
▁causing	-8226
▁charged	-8227
▁deliver	-8228
▁details	-8229
▁dialect	-8230
▁fashion	-8231
▁forming	-8232
▁gunline	-8233
▁heavily	-8234
▁helping	-8235
▁illness	-8236
▁learned	-8237
▁missile	-8238
▁origins	-8239
▁penalty	-8240
▁promote	-8241
▁seeking	-8242
▁selling	-8243
▁settled	-8244
▁singing	-8245
▁stepped	-8246
▁threats	-8247
▁wearing	-8248
▁wounded	-8249
esignated	-8250
▁Austrian	-8251
▁Brisbane	-8252
▁Christie	-8253
▁Economic	-8254
▁Electric	-8255
▁Feresten	-8256
▁Georgian	-8257
▁Golconda	-8258
▁Honduras	-8259
▁Margaret	-8260
▁Mathemat	-8261
▁Memorial	-8262
▁Mercedes	-8263
▁Penguins	-8264
▁Phillies	-8265
▁Richmond	-8266
▁Wonderly	-8267
▁accuracy	-8268
▁attached	-8269
▁churches	-8270
▁colonial	-8271
▁departed	-8272
▁distance	-8273
▁entities	-8274
▁examples	-8275
▁expendit	-8276
▁explains	-8277
▁feelings	-8278
▁improved	-8279
▁infantry	-8280
▁internal	-8281
▁maternal	-8282
▁measures	-8283
▁medieval	-8284
▁minority	-8285
▁overtime	-8286
▁prepared	-8287
▁pressure	-8288
▁protests	-8289
▁spending	-8290
▁subjects	-8291
▁survived	-8292
▁upgraded	-8293
▁violence	-8294
ophonastes	-8295
▁Democrats	-8296
▁Hampshire	-8297
▁Investors	-8298
▁Stockholm	-8299
▁affiliate	-8300
▁construct	-8301
▁direction	-8302
▁disappear	-8303
▁districts	-8304
▁electoral	-8305
▁entertain	-8306
▁extension	-8307
▁highlight	-8308
▁hurricane	-8309
▁inaugural	-8310
▁musicians	-8311
▁producers	-8312
▁promoting	-8313
▁requested	-8314
▁signature	-8315
▁southeast	-8316
▁transform	-8317
▁victories	-8318
rastructure	-8319
▁approaches	-8320
▁biological	-8321
▁concerning	-8322
▁passengers	-8323
▁popularity	-8324
▁profession	-8325
▁scientists	-8326
phthalmology	-8327
▁Constituent	-8328
▁application	-8329
▁combination	-8330
▁competitive	-8331
▁coordinates	-8332
▁effectively	-8333
▁engineering	-8334
▁brainwashing	-8335
▁broadcasting	-8336
▁geographical	-8337
▁incorporates	-8338
▁increasingly	-8339
▁intellectual	-8340
▁manufactured	-8341
▁participation	-8342
▁Administration	-8343
▁municipalities	-8344
▁Representatives	-8345
14	-8346
2%	-8347
29	-8348
3;	-8349
52	-8350
74	-8351
75	-8352
92	-8353
Hz	-8354
IV	-8355
LD	-8356
LH	-8357
ON	-8358
dd	-8359
ju	-8360
oa	-8361
tt	-8362
ín	-8363
▁Š	-8364
▁ا	-8365
({\	-8366
-20	-8367
100	-8368
={\	-8369
Pat	-8370
Rep	-8371
agg	-8372
amo	-8373
aza	-8374
bow	-8375
chi	-8376
eor	-8377
ext	-8378
fly	-8379
gow	-8380
iab	-8381
idg	-8382
iel	-8383
izu	-8384
ods	-8385
ohn	-8386
osi	-8387
pet	-8388
sey	-8389
ugu	-8390
upp	-8391
zen	-8392
▁32	-8393
▁85	-8394
▁BA	-8395
▁CS	-8396
▁Eb	-8397
▁Es	-8398
▁FC	-8399
▁Kl	-8400
▁MV	-8401
▁Ya	-8402
▁Yi	-8403
▁[1	-8404
.[19	-8405
Best	-8406
anda	-8407
anim	-8408
ante	-8409
atar	-8410
away	-8411
bury	-8412
care	-8413
cles	-8414
core	-8415
ecai	-8416
emen	-8417
flow	-8418
grim	-8419
haps	-8420
helm	-8421
iced	-8422
iens	-8423
iezo	-8424
igen	-8425
ilst	-8426
iren	-8427
life	-8428
nago	-8429
nell	-8430
rees	-8431
rell	-8432
rice	-8433
rosc	-8434
ubic	-8435
umps	-8436
▁31.	-8437
▁365	-8438
▁Ari	-8439
▁DME	-8440
▁Dis	-8441
▁End	-8442
▁Ess	-8443
▁Eup	-8444
▁Gun	-8445
▁Hil	-8446
▁Kim	-8447
▁Kol	-8448
▁Lev	-8449
▁Mig	-8450
▁Mun	-8451
▁Pul	-8452
▁Put	-8453
▁SST	-8454
▁Sym	-8455
▁Tak	-8456
▁Tan	-8457
▁Tea	-8458
▁Zie	-8459
▁[3]	-8460
▁ben	-8461
▁bid	-8462
▁bip	-8463
▁bit	-8464
▁bow	-8465
▁cru	-8466
▁cul	-8467
▁enh	-8468
▁fet	-8469
▁hal	-8470
▁ham	-8471
▁hun	-8472
▁lif	-8473
▁lob	-8474
▁mud	-8475
▁nep	-8476
▁som	-8477
▁tea	-8478
▁{1}	-8479
▁}}\	-8480
".[2]	-8481
.[51]	-8482
.[76]	-8483
Elect	-8484
arent	-8485
break	-8486
built	-8487
echai	-8488
enkov	-8489
garia	-8490
iants	-8491
ingly	-8492
inian	-8493
itime	-8494
names	-8495
orses	-8496
othes	-8497
ourse	-8498
pects	-8499
ripts	-8500
rophy	-8501
swick	-8502
usted	-8503
▁1914	-8504
▁1931	-8505
▁1939	-8506
▁1949	-8507
▁1962	-8508
▁1965	-8509
▁Anne	-8510
▁Barn	-8511
▁Case	-8512
▁Coch	-8513
▁Drum	-8514
▁FIFA	-8515
▁Five	-8516
▁Ford	-8517
▁Hort	-8518
▁Iowa	-8519
▁Karl	-8520
▁Lith	-8521
▁Magd	-8522
▁Mong	-8523
▁Mugh	-8524
▁Nich	-8525
▁Nine	-8526
▁Oman	-8527
▁Ping	-8528
▁Qual	-8529
▁Rica	-8530
▁Rouf	-8531
▁Shin	-8532
▁Stev	-8533
▁Then	-8534
▁Trás	-8535
▁Viva	-8536
▁Wald	-8537
▁Winn	-8538
▁acts	-8539
▁core	-8540
▁cure	-8541
▁doct	-8542
▁drew	-8543
▁epit	-8544
▁fair	-8545
▁flew	-8546
▁forb	-8547
▁gets	-8548
▁gone	-8549
▁hate	-8550
▁impr	-8551
▁jump	-8552
▁poll	-8553
▁rect	-8554
▁sail	-8555
▁seal	-8556
▁tail	-8557
▁teen	-8558
▁tend	-8559
▁unus	-8560
▁ward	-8561
▁wart	-8562
German	-8563
arship	-8564
ascist	-8565
athing	-8566
called	-8567
employ	-8568
iology	-8569
listed	-8570
namara	-8571
ombard	-8572
orders	-8573
rolled	-8574
stance	-8575
ussian	-8576
▁1986,	-8577
▁2010.	-8578
▁2012.	-8579
▁Baron	-8580
▁Berth	-8581
▁Bruin	-8582
▁Chang	-8583
▁Guard	-8584
▁Jacob	-8585
▁Kling	-8586
▁Lidov	-8587
▁María	-8588
▁Nieuw	-8589
▁Orill	-8590
▁Paula	-8591
▁Peace	-8592
▁Serie	-8593
▁Simon	-8594
▁Sinek	-8595
▁Small	-8596
▁Snake	-8597
▁Store	-8598
▁Storm	-8599
▁Subic	-8600
▁Treat	-8601
▁Wrest	-8602
▁angle	-8603
▁annex	-8604
▁basic	-8605
▁behav	-8606
▁benef	-8607
▁clean	-8608
▁compr	-8609
▁decor	-8610
▁deleg	-8611
▁doors	-8612
▁dress	-8613
▁drums	-8614
▁heads	-8615
▁incom	-8616
▁inher	-8617
▁looks	-8618
▁meets	-8619
▁ninth	-8620
▁poems	-8621
▁quant	-8622
▁ready	-8623
▁renew	-8624
▁renov	-8625
▁ruler	-8626
▁siege	-8627
▁slave	-8628
▁strip	-8629
▁surre	-8630
▁thank	-8631
▁users	-8632
▁worst	-8633
amation	-8634
counter	-8635
fielder	-8636
ilicity	-8637
legiate	-8638
nolotti	-8639
ocation	-8640
pective	-8641
playing	-8642
redited	-8643
reeding	-8644
resents	-8645
▁Alfred	-8646
▁Arabia	-8647
▁Bridge	-8648
▁Catlin	-8649
▁Census	-8650
▁Family	-8651
▁Forfar	-8652
▁Gordon	-8653
▁Junior	-8654
▁Malaya	-8655
▁Maurit	-8656
▁Murray	-8657
▁Oliver	-8658
▁Parish	-8659
▁Persia	-8660
▁Reuben	-8661
▁Sacred	-8662
▁Sloven	-8663
▁Taiwan	-8664
▁Talmud	-8665
▁Territ	-8666
▁Turner	-8667
▁acknow	-8668
▁ascend	-8669
▁atmosp	-8670
▁banned	-8671
▁bishop	-8672
▁caught	-8673
▁chorus	-8674
▁comedy	-8675
▁dating	-8676
▁deemed	-8677
▁doctor	-8678
▁driven	-8679
▁extent	-8680
▁flower	-8681
▁humans	-8682
▁inches	-8683
▁inters	-8684
▁looked	-8685
▁missed	-8686
▁nephew	-8687
▁normal	-8688
▁planes	-8689
▁planet	-8690
▁precip	-8691
▁refuge	-8692
▁runner	-8693
▁scenes	-8694
▁spoken	-8695
▁stolen	-8696
▁unanim	-8697
▁window	-8698
ancellor	-8699
election	-8700
formance	-8701
language	-8702
notology	-8703
ublished	-8704
▁Alabama	-8705
▁Belgian	-8706
▁Buffalo	-8707
▁Denmark	-8708
▁Faction	-8709
▁Fernand	-8710
▁Glasgow	-8711
▁Hindman	-8712
▁Hungary	-8713
▁Instead	-8714
▁Johnson	-8715
▁Legnago	-8716
▁Limited	-8717
▁Renault	-8718
▁Senegal	-8719
▁Volunte	-8720
▁Wallace	-8721
▁amounts	-8722
▁ancient	-8723
▁autonom	-8724
▁biggest	-8725
▁closely	-8726
▁drafted	-8727
▁extinct	-8728
▁faculty	-8729
▁failure	-8730
▁fighter	-8731
▁finance	-8732
▁focuses	-8733
▁funding	-8734
▁herself	-8735
▁impress	-8736
▁islands	-8737
▁kingdom	-8738
▁nothing	-8739
▁ongoing	-8740
▁operate	-8741
▁painted	-8742
▁passion	-8743
▁reaches	-8744
▁reality	-8745
▁replace	-8746
▁revenue	-8747
▁romance	-8748
▁slender	-8749
▁soldier	-8750
▁streets	-8751
▁survive	-8752
▁typical	-8753
▁waiting	-8754
▁whereas	-8755
.[12][13]	-8756
ictionary	-8757
▁Agricult	-8758
▁Americas	-8759
▁Baseball	-8760
▁Berenkov	-8761
▁Bulgaria	-8762
▁Champion	-8763
▁Combined	-8764
▁Cranwell	-8765
▁Missouri	-8766
▁Mordecai	-8767
▁Progress	-8768
▁Wireless	-8769
▁admitted	-8770
▁analysis	-8771
▁assassin	-8772
▁channels	-8773
▁compiled	-8774
▁connects	-8775
▁contrast	-8776
▁declined	-8777
▁entering	-8778
▁isolated	-8779
▁medicine	-8780
▁modified	-8781
▁musician	-8782
▁outbreak	-8783
▁petition	-8784
▁repeated	-8785
▁syndrome	-8786
▁thousand	-8787
Conference	-8788
▁Authority	-8789
▁Christmas	-8790
▁Commander	-8791
▁Currently	-8792
▁Desmodium	-8793
▁Macnamara	-8794
▁Mordechai	-8795
▁Mountains	-8796
▁Peninsula	-8797
▁Technical	-8798
▁activated	-8799
▁appearing	-8800
▁artillery	-8801
▁converted	-8802
▁essential	-8803
▁ignorance	-8804
▁indicates	-8805
▁initiated	-8806
▁partially	-8807
▁practices	-8808
▁preserved	-8809
▁qualified	-8810
▁simultane	-8811
▁southwest	-8812
▁storyline	-8813
Electricity	-8814
▁Convention	-8815
▁Operations	-8816
▁Pittsburgh	-8817
▁Queensland	-8818
▁approached	-8819
▁assistance	-8820
▁boundaries	-8821
▁components	-8822
▁conversion	-8823
▁destroyers	-8824
▁eliminated	-8825
▁exceptions	-8826
▁guidelines	-8827
▁midfielder	-8828
▁permission	-8829
▁recognised	-8830
▁recordings	-8831
▁relatively	-8832
▁reportedly	-8833
▁represents	-8834
▁structures	-8835
▁sultanates	-8836
▁traditions	-8837
▁understood	-8838
▁upbuilding	-8839
▁Performance	-8840
▁accompanied	-8841
▁appointment	-8842
▁businessman	-8843
▁departments	-8844
▁description	-8845
▁eligibility	-8846
▁experienced	-8847
▁governments	-8848
▁honeysuckle	-8849
▁involvement	-8850
▁nominations	-8851
▁orientation	-8852
▁participate	-8853
▁photography	-8854
▁recommended	-8855
▁zophonastes	-8856
▁Commissioner	-8857
▁Construction	-8858
▁Headquarters	-8859
▁compositions	-8860
▁distribution	-8861
▁metropolitan	-8862
▁presentation	-8863
▁transmission	-8864
▁precipitation	-8865
▁significantly	-8866
▁discrimination	-8867
▁responsibility	-8868
)}	-8869
-3	-8870
09	-8871
53	-8872
6%	-8873
9°	-8874
BI	-8875
EC	-8876
OR	-8877
SL	-8878
Sp	-8879
bi	-8880
ho	-8881
ji	-8882
ko	-8883
pi	-8884
sl	-8885
tz	-8886
uv	-8887
zi	-8888
óp	-8889
–7	-8890
,[7	-8891
600	-8892
67°	-8893
700	-8894
ERV	-8895
Jan	-8896
[9]	-8897
cul	-8898
def	-8899
eca	-8900
etz	-8901
iry	-8902
loy	-8903
oca	-8904
oly	-8905
omy	-8906
uer	-8907
ugo	-8908
uma	-8909
umn	-8910
una	-8911
▁$2	-8912
▁$3	-8913
▁55	-8914
▁9/	-8915
▁AJ	-8916
▁CA	-8917
▁DS	-8918
▁Fa	-8919
▁IV	-8920
▁Us	-8921
▁[ˈ	-8922
▁ju	-8923
▁mo	-8924
▁vs	-8925
."[5	-8926
0][4	-8927
5][4	-8928
Call	-8929
John	-8930
July	-8931
Pers	-8932
^{0}	-8933
abri	-8934
acon	-8935
akis	-8936
anne	-8937
apet	-8938
atab	-8939
auff	-8940
ayed	-8941
azzi	-8942
bled	-8943
comp	-8944
days	-8945
door	-8946
ente	-8947
geon	-8948
gery	-8949
harm	-8950
haus	-8951
iaoy	-8952
inks	-8953
ipeg	-8954
ishn	-8955
neyi	-8956
odel	-8957
oles	-8958
omat	-8959
oski	-8960
ping	-8961
riev	-8962
uchi	-8963
uese	-8964
unct	-8965
unst	-8966
uous	-8967
urre	-8968
wald	-8969
yard	-8970
ópez	-8971
–200	-8972
▁(12	-8973
▁174	-8974
▁178	-8975
▁24-	-8976
▁250	-8977
▁28.	-8978
▁2–1	-8979
▁AHL	-8980
▁Age	-8981
▁Bir	-8982
▁Bou	-8983
▁Bow	-8984
▁Dig	-8985
▁Dor	-8986
▁Ful	-8987
▁GPS	-8988
▁Inn	-8989
▁Inv	-8990
▁Isl	-8991
▁Jag	-8992
▁Kur	-8993
▁LNG	-8994
▁MHz	-8995
▁McM	-8996
▁Mes	-8997
▁Neb	-8998
▁Pet	-8999
▁RGD	-9000
▁Reb	-9001
▁Ron	-9002
▁Sab	-9003
▁Seb	-9004
▁Sox	-9005
▁Ven	-9006
▁Vin	-9007
▁Whe	-9008
▁Yee	-9009
▁[2]	-9010
▁ang	-9011
▁ash	-9012
▁bed	-9013
▁cro	-9014
▁fat	-9015
▁hyd	-9016
▁jur	-9017
▁map	-9018
▁mas	-9019
▁max	-9020
▁opt	-9021
▁sid	-9022
▁sky	-9023
▁unf	-9024
▁unp	-9025
▁vic	-9026
▁why	-9027
."[2]	-9028
.[61]	-9029
ERVON	-9030
][16]	-9031
][18]	-9032
][23]	-9033
acter	-9034
allid	-9035
amics	-9036
anier	-9037
arked	-9038
ategy	-9039
emper	-9040
entle	-9041
ersed	-9042
front	-9043
inoza	-9044
itary	-9045
ladim	-9046
merce	-9047
monai	-9048
oland	-9049
opher	-9050
orage	-9051
otion	-9052
phony	-9053
reach	-9054
sblad	-9055
spons	-9056
under	-9057
worth	-9058
▁1880	-9059
▁1912	-9060
▁1921	-9061
▁1938	-9062
▁1956	-9063
▁1961	-9064
▁1983	-9065
▁Balt	-9066
▁Coll	-9067
▁Cook	-9068
▁Cort	-9069
▁Draw	-9070
▁Even	-9071
▁Gray	-9072
▁Jazz	-9073
▁Jord	-9074
▁Love	-9075
▁Nasu	-9076
▁Nazi	-9077
▁Nick	-9078
▁Oslo	-9079
▁Prab	-9080
▁Prot	-9081
▁Ship	-9082
▁Thai	-9083
▁Type	-9084
▁Unit	-9085
▁Vall	-9086
▁What	-9087
▁Wisk	-9088
▁[...	-9089
▁adap	-9090
▁bout	-9091
▁cart	-9092
▁cass	-9093
▁cave	-9094
▁cler	-9095
▁dece	-9096
▁dipl	-9097
▁fine	-9098
▁flex	-9099
▁fuel	-9100
▁furn	-9101
▁happ	-9102
▁hill	-9103
▁lose	-9104
▁murd	-9105
▁rebr	-9106
▁tell	-9107
▁tick	-9108
▁tree	-9109
▁turb	-9110
▁util	-9111
achute	-9112
alions	-9113
ameter	-9114
amples	-9115
ampton	-9116
atever	-9117
berger	-9118
coming	-9119
ective	-9120
estone	-9121
ewhere	-9122
finals	-9123
headed	-9124
iaoyao	-9125
inding	-9126
inking	-9127
istani	-9128
ittees	-9129
itudes	-9130
izuoka	-9131
ocking	-9132
othing	-9133
rianus	-9134
stream	-9135
urally	-9136
ursing	-9137
▁1972,	-9138
▁1974,	-9139
▁1978,	-9140
▁1982,	-9141
▁1989,	-9142
▁1990,	-9143
▁1990.	-9144
▁2004.	-9145
▁2023.	-9146
▁Album	-9147
▁Along	-9148
▁Armed	-9149
▁Berar	-9150
▁Chart	-9151
▁Chuck	-9152
▁Civic	-9153
▁Derby	-9154
▁Erimo	-9155
▁Ernst	-9156
▁Eston	-9157
▁Felix	-9158
▁Kevin	-9159
▁Liter	-9160
▁Lithu	-9161
▁López	-9162
▁Malik	-9163
▁Minor	-9164
▁Nepal	-9165
▁Okosi	-9166
▁Order	-9167
▁Pearl	-9168
▁Rayón	-9169
▁Sarah	-9170
▁Snare	-9171
▁Torah	-9172
▁Vicks	-9173
▁alive	-9174
▁alleg	-9175
▁analy	-9176
▁arena	-9177
▁begun	-9178
▁chain	-9179
▁dance	-9180
▁drama	-9181
▁flows	-9182
▁foods	-9183
▁glass	-9184
▁hands	-9185
▁helic	-9186
▁horse	-9187
▁imped	-9188
▁initi	-9189
▁joins	-9190
▁leads	-9191
▁overl	-9192
▁persu	-9193
▁presc	-9194
▁print	-9195
▁reads	-9196
▁rugby	-9197
▁shift	-9198
▁shrub	-9199
▁simpl	-9200
▁speed	-9201
▁stamp	-9202
▁stems	-9203
▁truck	-9204
▁wrong	-9205
▁zones	-9206
Persian	-9207
][5][6]	-9208
arrison	-9209
cellent	-9210
ception	-9211
iations	-9212
illiant	-9213
issions	-9214
odianus	-9215
onymous	-9216
osexual	-9217
ratives	-9218
theless	-9219
written	-9220
▁Bruins	-9221
▁Burhan	-9222
▁Claire	-9223
▁Colise	-9224
▁Deputy	-9225
▁Donald	-9226
▁Gerald	-9227
▁Harbor	-9228
▁Higher	-9229
▁Kuwait	-9230
▁Marian	-9231
▁Miguel	-9232
▁Mother	-9233
▁Omloop	-9234
▁Orange	-9235
▁Puerto	-9236
▁Stauff	-9237
▁Turkey	-9238
▁Vladim	-9239
▁Within	-9240
▁advent	-9241
▁aerial	-9242
▁archae	-9243
▁batter	-9244
▁bodies	-9245
▁bottom	-9246
▁bridge	-9247
▁bunker	-9248
▁choose	-9249
▁cinema	-9250
▁commit	-9251
▁compan	-9252
▁courts	-9253
▁denied	-9254
▁eighth	-9255
▁extens	-9256
▁facing	-9257
▁govern	-9258
▁hidden	-9259
▁learns	-9260
▁linear	-9261
▁medium	-9262
▁memory	-9263
▁miners	-9264
▁observ	-9265
▁pallid	-9266
▁posted	-9267
▁preced	-9268
▁reader	-9269
▁repair	-9270
▁replen	-9271
▁resign	-9272
▁roster	-9273
▁rounds	-9274
▁salary	-9275
▁satisf	-9276
▁sequel	-9277
▁simple	-9278
▁statue	-9279
▁suspic	-9280
▁symbol	-9281
▁tribut	-9282
▁undert	-9283
▁wooden	-9284
Driscoll	-9285
Republic	-9286
ablished	-9287
atherine	-9288
chestral	-9289
formerly	-9290
heastern	-9291
iginally	-9292
istrator	-9293
▁Antonio	-9294
▁Belarus	-9295
▁Brabham	-9296
▁Cochran	-9297
▁Culture	-9298
▁Greater	-9299
▁Guriezo	-9300
▁Located	-9301
▁Newport	-9302
▁Orillia	-9303
▁Physics	-9304
▁Probert	-9305
▁Quality	-9306
▁Railway	-9307
▁Stanisl	-9308
▁Studies	-9309
▁Wilhelm	-9310
▁altered	-9311
▁auction	-9312
▁bridges	-9313
▁centers	-9314
▁charges	-9315
▁charter	-9316
▁closing	-9317
▁conduct	-9318
▁confron	-9319
▁degrees	-9320
▁demands	-9321
▁descent	-9322
▁figures	-9323
▁hearing	-9324
▁lesbian	-9325
▁monthly	-9326
▁opinion	-9327
▁pending	-9328
▁perfect	-9329
▁periods	-9330
▁portion	-9331
▁repairs	-9332
▁resumed	-9333
▁revised	-9334
▁sending	-9335
▁stopped	-9336
▁subspec	-9337
▁surgery	-9338
▁theatre	-9339
▁tourism	-9340
▁virtual	-9341
rehensive	-9342
▁Athletic	-9343
▁Bachelor	-9344
▁Childers	-9345
▁Columbus	-9346
▁Edifying	-9347
▁Espinoza	-9348
▁Halligan	-9349
▁Jonathan	-9350
▁Nachname	-9351
▁Romanian	-9352
▁Saturday	-9353
▁Shizuoka	-9354
▁Slovakia	-9355
▁Standard	-9356
▁Winnipeg	-9357
▁Wiskoski	-9358
▁activist	-9359
▁airports	-9360
▁canceled	-9361
▁citation	-9362
▁credited	-9363
▁describe	-9364
▁dialogue	-9365
▁disaster	-9366
▁electric	-9367
▁entirely	-9368
▁frequent	-9369
▁handling	-9370
▁informal	-9371
▁interior	-9372
▁landfall	-9373
▁managing	-9374
▁platform	-9375
▁protagon	-9376
▁publicly	-9377
▁quarters	-9378
▁reaching	-9379
▁reviewed	-9380
▁shipping	-9381
▁standing	-9382
▁strategy	-9383
▁strength	-9384
▁superior	-9385
▁thriller	-9386
▁uniforms	-9387
▁visitors	-9388
▁writings	-9389
.[2][3][4]	-9390
▁Afternoon	-9391
▁Assistant	-9392
▁Bachhraon	-9393
▁Brunswick	-9394
▁Doncaster	-9395
▁Hungarian	-9396
▁Initially	-9397
▁Jefferson	-9398
▁Liverpool	-9399
▁Macrianus	-9400
▁Melbourne	-9401
▁Vicksburg	-9402
▁campaigns	-9403
▁celebrate	-9404
▁certified	-9405
▁coalition	-9406
▁committed	-9407
▁conquered	-9408
▁defending	-9409
▁depicting	-9410
▁extremely	-9411
▁filmmaker	-9412
▁medicinal	-9413
▁predecess	-9414
▁provision	-9415
▁releasing	-9416
▁standards	-9417
▁travelled	-9418
▁Herodianus	-9419
▁Investment	-9420
▁Mobilicity	-9421
▁Nieuwsblad	-9422
▁artificial	-9423
▁battalions	-9424
▁broadcasts	-9425
▁convention	-9426
▁equivalent	-9427
▁experiment	-9428
▁newspapers	-9429
▁orchestral	-9430
▁originated	-9431
▁penicillin	-9432
▁percentage	-9433
▁regardless	-9434
▁renovation	-9435
▁Information	-9436
▁comparative	-9437
▁essentially	-9438
▁exclusively	-9439
▁preparation	-9440
▁transgender	-9441
▁Metropolitan	-9442
▁administered	-9443
▁architecture	-9444
▁establishing	-9445
▁expenditures	-9446
▁requirements	-9447
▁characterized	-9448
▁circumstances	-9449
▁opportunities	-9450
▁WikiConference	-9451
▁communications	-9452
▁infrastructure	-9453
'\	-9454
))	-9455
07	-9456
17	-9457
55	-9458
IM	-9459
Le	-9460
On	-9461
RA	-9462
SB	-9463
UI	-9464
])	-9465
iu	-9466
}\	-9467
él	-9468
ña	-9469
ör	-9470
–9	-9471
▁€	-9472
".[	-9473
+{\	-9474
,[4	-9475
CAR	-9476
ads	-9477
akp	-9478
alu	-9479
ami	-9480
amé	-9481
arb	-9482
aro	-9483
cia	-9484
edd	-9485
esa	-9486
ido	-9487
isd	-9488
kal	-9489
lav	-9490
mbH	-9491
orf	-9492
ram	-9493
ruz	-9494
top	-9495
ubb	-9496
uco	-9497
ugh	-9498
ukh	-9499
uki	-9500
van	-9501
was	-9502
wat	-9503
who	-9504
yll	-9505
▁39	-9506
▁44	-9507
▁74	-9508
▁8.	-9509
▁Fo	-9510
▁Na	-9511
▁Ta	-9512
▁UA	-9513
▁WL	-9514
▁aw	-9515
.[15	-9516
.[20	-9517
/201	-9518
Arab	-9519
King	-9520
Mulk	-9521
Sept	-9522
adow	-9523
akov	-9524
arat	-9525
ardo	-9526
ario	-9527
atri	-9528
atro	-9529
avis	-9530
boro	-9531
chan	-9532
cont	-9533
dale	-9534
eals	-9535
ears	-9536
ecca	-9537
eler	-9538
emal	-9539
eman	-9540
enef	-9541
fill	-9542
girl	-9543
hani	-9544
hell	-9545
hene	-9546
hess	-9547
idal	-9548
inda	-9549
inic	-9550
inov	-9551
ipan	-9552
iper	-9553
lete	-9554
mund	-9555
oked	-9556
pent	-9557
pire	-9558
pper	-9559
pson	-9560
race	-9561
raph	-9562
rash	-9563
réal	-9564
stan	-9565
tere	-9566
type	-9567
uber	-9568
uede	-9569
vale	-9570
vard	-9571
wich	-9572
}}\,	-9573
▁(2.	-9574
▁(3.	-9575
▁(9.	-9576
▁150	-9577
▁17.	-9578
▁260	-9579
▁76.	-9580
▁Any	-9581
▁Bav	-9582
▁CDP	-9583
▁Cas	-9584
▁Dun	-9585
▁Eff	-9586
▁Eth	-9587
▁Fac	-9588
▁Gay	-9589
▁Gro	-9590
▁Had	-9591
▁Hal	-9592
▁Ign	-9593
▁Ira	-9594
▁KLH	-9595
▁Kak	-9596
▁Kid	-9597
▁Kil	-9598
▁Lac	-9599
▁Lag	-9600
▁Lud	-9601
▁Lys	-9602
▁Nag	-9603
▁Neu	-9604
▁Nob	-9605
▁Now	-9606
▁PSA	-9607
▁Ple	-9608
▁Rat	-9609
▁Rea	-9610
▁Ric	-9611
▁Rod	-9612
▁Roy	-9613
▁Rud	-9614
▁Tra	-9615
▁Wor	-9616
▁Zen	-9617
▁Zor	-9618
▁bes	-9619
▁bud	-9620
▁dub	-9621
▁fal	-9622
▁fus	-9623
▁mis	-9624
▁mph	-9625
▁mut	-9626
▁nam	-9627
▁ped	-9628
▁phr	-9629
▁ras	-9630
▁rig	-9631
▁rum	-9632
.[52]	-9633
.[55]	-9634
.[63]	-9635
.[66]	-9636
abled	-9637
agger	-9638
artet	-9639
attus	-9640
avesi	-9641
count	-9642
elage	-9643
eland	-9644
eline	-9645
elson	-9646
erend	-9647
erted	-9648
etics	-9649
etson	-9650
holic	-9651
icist	-9652
igate	-9653
igger	-9654
imius	-9655
inder	-9656
inner	-9657
ivate	-9658
leton	-9659
ocket	-9660
onsin	-9661
ontes	-9662
ormal	-9663
osite	-9664
osure	-9665
owski	-9666
poses	-9667
ptoms	-9668
ricke	-9669
ropri	-9670
thers	-9671
uming	-9672
uther	-9673
white	-9674
▁1840	-9675
▁1919	-9676
▁1925	-9677
▁1934	-9678
▁1953	-9679
▁1979	-9680
▁Ariz	-9681
▁Beat	-9682
▁Beng	-9683
▁Brad	-9684
▁Burn	-9685
▁Camb	-9686
▁Circ	-9687
▁Copp	-9688
▁Dick	-9689
▁Dund	-9690
▁Fire	-9691
▁Gill	-9692
▁GmbH	-9693
▁Grey	-9694
▁Holy	-9695
▁Jane	-9696
▁Kath	-9697
▁Lane	-9698
▁Lang	-9699
▁Late	-9700
▁Leop	-9701
▁Live	-9702
▁Mall	-9703
▁Miró	-9704
▁NCAA	-9705
▁Nalg	-9706
▁Peak	-9707
▁Pret	-9708
▁Prim	-9709
▁Prix	-9710
▁Race	-9711
▁Rale	-9712
▁Rose	-9713
▁Saif	-9714
▁Sime	-9715
▁Soon	-9716
▁Srin	-9717
▁Stew	-9718
▁Tepp	-9719
▁Thad	-9720
▁Todd	-9721
▁Utah	-9722
▁Well	-9723
▁Wisc	-9724
▁Yosh	-9725
▁Your	-9726
▁coun	-9727
▁doll	-9728
▁dors	-9729
▁fled	-9730
▁grad	-9731
▁grey	-9732
▁lake	-9733
▁lung	-9734
▁mail	-9735
▁mand	-9736
▁marg	-9737
▁mile	-9738
▁prol	-9739
▁ride	-9740
▁risk	-9741
▁sacr	-9742
▁sand	-9743
▁sell	-9744
▁sket	-9745
▁spir	-9746
▁spur	-9747
▁subl	-9748
▁taxi	-9749
▁tied	-9750
▁twin	-9751
▁vert	-9752
▁wave	-9753
▁wine	-9754
8][19]	-9755
Arabic	-9756
Flight	-9757
[1][2]	-9758
active	-9759
akpamé	-9760
bishop	-9761
ceeded	-9762
emeter	-9763
encing	-9764
garian	-9765
hattan	-9766
ipated	-9767
itizen	-9768
making	-9769
ndered	-9770
orious	-9771
otypes	-9772
usalem	-9773
ytechn	-9774
▁1938,	-9775
▁1941.	-9776
▁1946,	-9777
▁1953,	-9778
▁1959,	-9779
▁1985,	-9780
▁1998.	-9781
▁2001,	-9782
▁2014.	-9783
▁2016.	-9784
▁2017.	-9785
▁2022.	-9786
▁Actor	-9787
▁Admir	-9788
▁Ahmed	-9789
▁Alice	-9790
▁Antio	-9791
▁Barid	-9792
▁Beach	-9793
▁Beard	-9794
▁Cabin	-9795
▁Cadoc	-9796
▁Chile	-9797
▁Crime	-9798
▁Fland	-9799
▁Grace	-9800
▁Henke	-9801
▁Josef	-9802
▁Lonic	-9803
▁Manit	-9804
▁Occup	-9805
▁Prime	-9806
▁Rugby	-9807
▁Skull	-9808
▁Stars	-9809
▁Story	-9810
▁Theod	-9811
▁Title	-9812
▁Until	-9813
▁[...]	-9814
▁abuse	-9815
▁adopt	-9816
▁antic	-9817
▁arist	-9818
▁badge	-9819
▁climb	-9820
▁corps	-9821
▁crash	-9822
▁depth	-9823
▁displ	-9824
▁divor	-9825
▁drive	-9826
▁elder	-9827
▁gifts	-9828
▁goalt	-9829
▁grows	-9830
▁herit	-9831
▁manif	-9832
▁marks	-9833
▁pages	-9834
▁peace	-9835
▁phase	-9836
▁plate	-9837
▁price	-9838
▁regul	-9839
▁rocks	-9840
▁seats	-9841
▁split	-9842
▁steal	-9843
▁steam	-9844
▁surpr	-9845
▁sweet	-9846
▁treas	-9847
▁trial	-9848
▁truth	-9849
▁venue	-9850
▁virus	-9851
▁write	-9852
Tuesday	-9853
William	-9854
alanche	-9855
amental	-9856
iciency	-9857
igenous	-9858
ighters	-9859
imetres	-9860
istical	-9861
ointing	-9862
tersall	-9863
▁Alaska	-9864
▁Archer	-9865
▁Clarke	-9866
▁Clevel	-9867
▁Eisner	-9868
▁Forest	-9869
▁Godwin	-9870
▁Harris	-9871
▁Having	-9872
▁Hawaii	-9873
▁Hitler	-9874
▁Kerala	-9875
▁Madras	-9876
▁Malays	-9877
▁Modern	-9878
▁Napole	-9879
▁Oilers	-9880
▁Patria	-9881
▁Patrol	-9882
▁Philos	-9883
▁Samuel	-9884
▁Sebast	-9885
▁Transl	-9886
▁Trials	-9887
▁Watson	-9888
▁XERVON	-9889
▁adults	-9890
▁afford	-9891
▁aggreg	-9892
▁budget	-9893
▁bullet	-9894
▁camera	-9895
▁crimes	-9896
▁decree	-9897
▁deeply	-9898
▁defend	-9899
▁discip	-9900
▁eldest	-9901
▁ensure	-9902
▁funded	-9903
▁horses	-9904
▁immigr	-9905
▁infant	-9906
▁inland	-9907
▁instru	-9908
▁landsc	-9909
▁lasted	-9910
▁namely	-9911
▁obtain	-9912
▁orange	-9913
▁papers	-9914
▁pavesi	-9915
▁permit	-9916
▁praise	-9917
▁priest	-9918
▁pulled	-9919
▁racism	-9920
▁rebell	-9921
▁reinst	-9922
▁reserv	-9923
▁retail	-9924
▁rivals	-9925
▁secure	-9926
▁stable	-9927
▁stayed	-9928
▁suburb	-9929
▁taluka	-9930
▁thirty	-9931
▁topics	-9932
▁toured	-9933
▁unless	-9934
▁values	-9935
▁viewed	-9936
▁whilst	-9937
daughter	-9938
endation	-9939
▁Alberta	-9940
▁Anthony	-9941
▁Armenia	-9942
▁Chamber	-9943
▁Colonel	-9944
▁Evanier	-9945
▁Faculty	-9946
▁Glacier	-9947
▁Iranian	-9948
▁Medical	-9949
▁Members	-9950
▁Raleigh	-9951
▁Shortly	-9952
▁Singles	-9953
▁Streets	-9954
▁Zenobia	-9955
▁accused	-9956
▁advisor	-9957
▁amongst	-9958
▁announc	-9959
▁artwork	-9960
▁aspects	-9961
▁clearly	-9962
▁closure	-9963
▁context	-9964
▁correct	-9965
▁courses	-9966
▁cyclone	-9967
▁deliber	-9968
▁disturb	-9969
▁driving	-9970
▁falling	-9971
▁gardens	-9972
▁marched	-9973
▁matters	-9974
▁neutral	-9975
▁newborn	-9976
▁passage	-9977
▁passing	-9978
▁perhaps	-9979
▁pointed	-9980
▁proceed	-9981
▁revival	-9982
▁scaling	-9983
▁secured	-9984
▁servant	-9985
▁speaker	-9986
▁stadium	-9987
▁stretch	-9988
▁suicide	-9989
▁trained	-9990
▁unusual	-9991
▁venture	-9992
▁wartime	-9993
▁winners	-9994
.[21][22]	-9995
ommission	-9996
orporated	-9997
quartered	-9998
unningham	-9999
▁Advocate	-10000
▁Berthold	-10001
▁Campbell	-10002
▁Caroline	-10003
▁Croatian	-10004
▁Defiance	-10005
▁Eurasian	-10006
▁Flanders	-10007
▁Harrison	-10008
▁Medicine	-10009
▁Monmouth	-10010
▁Muhammad	-10011
▁Nalgonda	-10012
▁Nicholas	-10013
▁Panthers	-10014
▁Slovenia	-10015
▁Symphony	-10016
▁Tropical	-10017
▁Withnell	-10018
▁altitude	-10019
▁anything	-10020
▁bandform	-10021
▁believes	-10022
▁belonged	-10023
▁bringing	-10024
▁concerts	-10025
▁controll	-10026
▁dramatic	-10027
▁eventual	-10028
▁exercise	-10029
▁founders	-10030
▁imperial	-10031
▁injuries	-10032
▁locality	-10033
▁merchant	-10034
▁monument	-10035
▁pictures	-10036
▁prisoner	-10037
▁prosecut	-10038
▁purposes	-10039
▁reaction	-10040
▁relation	-10041
▁relative	-10042
▁township	-10043
▁unemploy	-10044
▁visiting	-10045
▁weakened	-10046
▁withdrew	-10047
imensional	-10048
▁Brazilian	-10049
▁Canadiens	-10050
▁Cleveland	-10051
▁Democracy	-10052
▁Encounter	-10053
▁Friedrich	-10054
▁Globalive	-10055
▁Indonesia	-10056
▁Jerusalem	-10057
▁Lithuania	-10058
▁Manhattan	-10059
▁Relations	-10060
▁Wisconsin	-10061
▁Wrestling	-10062
▁acknowled	-10063
▁advantage	-10064
▁biography	-10065
▁cathedral	-10066
▁decisions	-10067
▁dismissed	-10068
▁flowering	-10069
▁indicated	-10070
▁insurgent	-10071
▁movements	-10072
▁otherwise	-10073
▁physician	-10074
▁pregnancy	-10075
▁regularly	-10076
▁selection	-10077
▁strategic	-10078
▁touchdown	-10079
▁unanimous	-10080
▁uncertain	-10081
▁unsuccess	-10082
▁Christians	-10083
▁Dictionary	-10084
▁Enterprise	-10085
▁Fellowship	-10086
▁Publishing	-10087
▁Tattersall	-10088
▁Tournament	-10089
▁Volunteers	-10090
▁afterwards	-10091
▁ambassador	-10092
▁commentary	-10093
▁connection	-10094
▁continuing	-10095
▁discourses	-10096
▁dispatched	-10097
▁elementary	-10098
▁encouraged	-10099
▁graduating	-10100
▁healthcare	-10101
▁households	-10102
▁influences	-10103
▁mysterious	-10104
▁narratives	-10105
▁prohibited	-10106
▁promotions	-10107
▁resolution	-10108
▁structural	-10109
▁subsidiary	-10110
▁subspecies	-10111
▁treatments	-10112
▁volunteers	-10113
▁Independent	-10114
▁Springfield	-10115
▁controversy	-10116
▁conventions	-10117
▁exhibitions	-10118
▁grandfather	-10119
▁implemented	-10120
▁influential	-10121
▁legislative	-10122
▁nationality	-10123
▁substantial	-10124
▁transmitter	-10125
▁Stauffenberg	-10126
▁achievements	-10127
▁availability	-10128
▁contributing	-10129
▁significance	-10130
▁Revolutionary	-10131
▁combinatorial	-10132
▁comprehensive	-10133
▁undergraduate	-10134
▁Representative	-10135
▁interpretation	-10136
▁simultaneously	-10137
▁characteristics	-10138
";	-10139
%)	-10140
(\	-10141
03	-10142
34	-10143
54	-10144
As	-10145
CF	-10146
CM	-10147
DC	-10148
EP	-10149
ET	-10150
GA	-10151
HF	-10152
He	-10153
MC	-10154
My	-10155
NH	-10156
NP	-10157
NY	-10158
OS	-10159
PE	-10160
PV	-10161
Un	-10162
WG	-10163
].	-10164
di	-10165
km	-10166
po	-10167
sa	-10168
ww	-10169
}{	-10170
ár	-10171
én	-10172
és	-10173
ов	-10174
لو	-10175
▁u	-10176
").	-10177
-18	-10178
2.7	-10179
33°	-10180
4.8	-10181
:00	-10182
AAS	-10183
Eng	-10184
LCS	-10185
MAS	-10186
May	-10187
aba	-10188
aco	-10189
aga	-10190
alp	-10191
arf	-10192
awn	-10193
bel	-10194
bet	-10195
bia	-10196
box	-10197
cur	-10198
etr	-10199
exp	-10200
hit	-10201
igo	-10202
irs	-10203
iya	-10204
kel	-10205
kus	-10206
lia	-10207
lie	-10208
loo	-10209
nik	-10210
oes	-10211
oga	-10212
ols	-10213
otu	-10214
rie	-10215
run	-10216
sch	-10217
shi	-10218
squ	-10219
tze	-10220
uta	-10221
val	-10222
won	-10223
–2.	-10224
▁"[	-10225
▁1]	-10226
▁43	-10227
▁5.	-10228
▁5/	-10229
▁57	-10230
▁59	-10231
▁78	-10232
▁88	-10233
▁Aw	-10234
▁BT	-10235
▁CM	-10236
▁Ek	-10237
▁Ig	-10238
▁KJ	-10239
▁Kr	-10240
▁Kw	-10241
▁Kö	-10242
▁Lo	-10243
.[28	-10244
000.	-10245
:[1]	-10246
:[2]	-10247
[13]	-10248
][12	-10249
acre	-10250
alla	-10251
alom	-10252
atti	-10253
auty	-10254
avan	-10255
aven	-10256
base	-10257
bern	-10258
blem	-10259
body	-10260
cani	-10261
cing	-10262
dish	-10263
empl	-10264
enne	-10265
essa	-10266
este	-10267
etry	-10268
gang	-10269
gard	-10270
hail	-10271
half	-10272
hand	-10273
haul	-10274
hent	-10275
ichi	-10276
ifer	-10277
iffs	-10278
illo	-10279
jali	-10280
lain	-10281
mate	-10282
mers	-10283
nant	-10284
nett	-10285
occo	-10286
oods	-10287
orah	-10288
owed	-10289
roid	-10290
roph	-10291
rose	-10292
than	-10293
that	-10294
thel	-10295
trep	-10296
ults	-10297
unes	-10298
wgan	-10299
xico	-10300
ébec	-10301
▁(10	-10302
▁(7.	-10303
▁10.	-10304
▁15.	-10305
▁156	-10306
▁158	-10307
▁175	-10308
▁22.	-10309
▁350	-10310
▁36.	-10311
▁51.	-10312
▁AFL	-10313
▁Alk	-10314
▁Beh	-10315
▁Bos	-10316
▁CON	-10317
▁Cin	-10318
▁Cre	-10319
▁Dub	-10320
▁Eag	-10321
▁Gib	-10322
▁Gor	-10323
▁Gün	-10324
▁Hog	-10325
▁Ins	-10326
▁Kep	-10327
▁Mak	-10328
▁Map	-10329
▁Maz	-10330
▁Mol	-10331
▁Muk	-10332
▁Non	-10333
▁Own	-10334
▁Phy	-10335
▁Pun	-10336
▁ROC	-10337
▁Rem	-10338
▁Rey	-10339
▁Ros	-10340
▁STV	-10341
▁Say	-10342
▁Sky	-10343
▁Suz	-10344
▁Tay	-10345
▁Ted	-10346
▁Tin	-10347
▁Tod	-10348
▁Web	-10349
▁[1]	-10350
▁ago	-10351
▁asc	-10352
▁bal	-10353
▁bay	-10354
▁ber	-10355
▁bio	-10356
▁cad	-10357
▁cue	-10358
▁duo	-10359
▁fly	-10360
▁joy	-10361
▁kar	-10362
▁net	-10363
▁pip	-10364
▁rap	-10365
▁rif	-10366
▁sav	-10367
▁sed	-10368
▁sep	-10369
▁spr	-10370
▁sud	-10371
▁tut	-10372
▁vul	-10373
▁web	-10374
).[2]	-10375
,[12]	-10376
."[1]	-10377
.[56]	-10378
.[58]	-10379
.[67]	-10380
3,000	-10381
There	-10382
ables	-10383
agara	-10384
algia	-10385
arted	-10386
atoes	-10387
denly	-10388
eling	-10389
endel	-10390
ewhat	-10391
final	-10392
gated	-10393
grade	-10394
grand	-10395
graph	-10396
helle	-10397
herty	-10398
inded	-10399
ioned	-10400
isons	-10401
oples	-10402
orted	-10403
othic	-10404
ounge	-10405
place	-10406
quest	-10407
raley	-10408
sized	-10409
south	-10410
urang	-10411
using	-10412
uster	-10413
veste	-10414
ánuco	-10415
▁(196	-10416
▁1860	-10417
▁1890	-10418
▁1905	-10419
▁1916	-10420
▁1922	-10421
▁1926	-10422
▁1929	-10423
▁1951	-10424
▁1973	-10425
▁Adam	-10426
▁Anim	-10427
▁Bott	-10428
▁Bush	-10429
▁Cabr	-10430
▁Cham	-10431
▁Cher	-10432
▁Crit	-10433
▁Emer	-10434
▁Graf	-10435
▁Gren	-10436
▁Hend	-10437
▁Here	-10438
▁Hous	-10439
▁Iraq	-10440
▁Isle	-10441
▁Kors	-10442
▁Leon	-10443
▁Link	-10444
▁Mang	-10445
▁Pros	-10446
▁Rutt	-10447
▁Sang	-10448
▁Sask	-10449
▁Shir	-10450
▁Sind	-10451
▁Soph	-10452
▁Urdu	-10453
▁Vent	-10454
▁Vera	-10455
▁Vern	-10456
▁WDBD	-10457
▁Walk	-10458
▁Wing	-10459
▁Word	-10460
▁aest	-10461
▁anch	-10462
▁bore	-10463
▁coat	-10464
▁cool	-10465
▁didn	-10466
▁door	-10467
▁drop	-10468
▁garn	-10469
▁haun	-10470
▁hier	-10471
▁huge	-10472
▁icon	-10473
▁ille	-10474
▁impl	-10475
▁iron	-10476
▁masc	-10477
▁merc	-10478
▁migr	-10479
▁misc	-10480
▁pace	-10481
▁pink	-10482
▁plus	-10483
▁pray	-10484
▁prep	-10485
▁prof	-10486
▁pull	-10487
▁pure	-10488
▁rich	-10489
▁sick	-10490
▁tape	-10491
▁wall	-10492
▁warm	-10493
6][17]	-10494
August	-10495
abetta	-10496
ailand	-10497
airman	-10498
aments	-10499
ancing	-10500
anghai	-10501
cester	-10502
charge	-10503
embled	-10504
esting	-10505
estyle	-10506
family	-10507
fields	-10508
hlberg	-10509
hrates	-10510
ieties	-10511
inista	-10512
ladesh	-10513
lected	-10514
leswig	-10515
minute	-10516
monton	-10517
onauts	-10518
ophyll	-10519
pestry	-10520
terfly	-10521
ternal	-10522
thened	-10523
ubicin	-10524
umably	-10525
update	-10526
ushing	-10527
▁1945,	-10528
▁1955,	-10529
▁1973,	-10530
▁1976,	-10531
▁1979,	-10532
▁1981,	-10533
▁1983,	-10534
▁1984.	-10535
▁1991,	-10536
▁1999.	-10537
▁2019.	-10538
▁2021.	-10539
▁Annie	-10540
▁Avery	-10541
▁Beech	-10542
▁Bhell	-10543
▁Books	-10544
▁Chaud	-10545
▁Copps	-10546
▁Death	-10547
▁Downs	-10548
▁Edgar	-10549
▁Edith	-10550
▁Filip	-10551
▁Final	-10552
▁Ghent	-10553
▁Hegel	-10554
▁Malab	-10555
▁Menef	-10556
▁Nasor	-10557
▁Omani	-10558
▁Perry	-10559
▁Plant	-10560
▁Powys	-10561
▁Pseud	-10562
▁Range	-10563
▁Round	-10564
▁Songs	-10565
▁Stone	-10566
▁Sudan	-10567
▁Suede	-10568
▁Thurs	-10569
▁Trust	-10570
▁Veter	-10571
▁apart	-10572
▁blink	-10573
▁blunt	-10574
▁coins	-10575
▁crops	-10576
▁decre	-10577
▁erect	-10578
▁faces	-10579
▁fetus	-10580
▁fixed	-10581
▁flank	-10582
▁ghost	-10583
▁giant	-10584
▁heard	-10585
▁hoped	-10586
▁loved	-10587
▁loyal	-10588
▁magic	-10589
▁minel	-10590
▁needs	-10591
▁ninet	-10592
▁noble	-10593
▁phone	-10594
▁pseud	-10595
▁radar	-10596
▁raise	-10597
▁scrap	-10598
▁shore	-10599
▁stead	-10600
▁stole	-10601
▁subsc	-10602
▁sword	-10603
▁teach	-10604
▁teeth	-10605
▁tests	-10606
▁theat	-10607
▁tries	-10608
▁trump	-10609
▁turns	-10610
▁upset	-10611
▁vocal	-10612
▁widow	-10613
▁wings	-10614
.[1][5]	-10615
Station	-10616
achment	-10617
channel	-10618
emetery	-10619
esigned	-10620
hemical	-10621
ilicata	-10622
inental	-10623
ophical	-10624
oration	-10625
rington	-10626
▁10,000	-10627
▁Albums	-10628
▁Anjali	-10629
▁Barcel	-10630
▁Bengal	-10631
▁Border	-10632
▁Braley	-10633
▁Bunker	-10634
▁Castle	-10635
▁Eagles	-10636
▁Editor	-10637
▁Essien	-10638
▁Former	-10639
▁Handra	-10640
▁Hannah	-10641
▁Harvey	-10642
▁Howard	-10643
▁Legion	-10644
▁Mackay	-10645
▁Moskal	-10646
▁Mughal	-10647
▁Newark	-10648
▁Philip	-10649
▁Pierre	-10650
▁Putnam	-10651
▁Québec	-10652
▁Scient	-10653
▁Senior	-10654
▁Silver	-10655
▁Studio	-10656
▁advert	-10657
▁arrive	-10658
▁ashore	-10659
▁babies	-10660
▁belief	-10661
▁breast	-10662
▁bright	-10663
▁chance	-10664
▁circle	-10665
▁colony	-10666
▁cooper	-10667
▁corrid	-10668
▁crisis	-10669
▁decade	-10670
▁detail	-10671
▁devast	-10672
▁elabor	-10673
▁empire	-10674
▁enthus	-10675
▁essays	-10676
▁expand	-10677
▁explos	-10678
▁finals	-10679
▁fisher	-10680
▁frustr	-10681
▁harbor	-10682
▁horror	-10683
▁hunger	-10684
▁manner	-10685
▁mental	-10686
▁merger	-10687
▁noting	-10688
▁palace	-10689
▁peaked	-10690
▁pocket	-10691
▁prizes	-10692
▁purple	-10693
▁recess	-10694
▁refres	-10695
▁retain	-10696
▁riders	-10697
▁rising	-10698
▁script	-10699
▁surviv	-10700
▁temple	-10701
▁venues	-10702
▁vessel	-10703
▁visits	-10704
▁voices	-10705
▁worksh	-10706
ostalgia	-10707
ricketer	-10708
sponsors	-10709
ytechnic	-10710
▁Alkazzi	-10711
▁Arizona	-10712
▁Brigade	-10713
▁Cadwgan	-10714
▁Concord	-10715
▁Control	-10716
▁Country	-10717
▁Croatia	-10718
▁Deccani	-10719
▁Gilbert	-10720
▁Hassell	-10721
▁Kenwick	-10722
▁Korsrud	-10723
▁Lombard	-10724
▁Mikhail	-10725
▁Orontes	-10726
▁Perkins	-10727
▁Schools	-10728
▁Senator	-10729
▁Seventh	-10730
▁Stephan	-10731
▁Stewart	-10732
▁Terrace	-10733
▁Workers	-10734
▁Yangtze	-10735
▁absence	-10736
▁affairs	-10737
▁assists	-10738
▁belongs	-10739
▁benefit	-10740
▁citizen	-10741
▁coached	-10742
▁complic	-10743
▁contain	-10744
▁crossed	-10745
▁crosses	-10746
▁customs	-10747
▁defence	-10748
▁density	-10749
▁depicts	-10750
▁dollars	-10751
▁donated	-10752
▁enemies	-10753
▁epithet	-10754
▁evening	-10755
▁exagger	-10756
▁extends	-10757
▁extreme	-10758
▁farmers	-10759
▁feeling	-10760
▁fifteen	-10761
▁fishing	-10762
▁gallery	-10763
▁genetic	-10764
▁gunfire	-10765
▁honours	-10766
▁jointly	-10767
▁leagues	-10768
▁legally	-10769
▁locally	-10770
▁lowpass	-10771
▁organis	-10772
▁outdoor	-10773
▁physics	-10774
▁promise	-10775
▁rapidly	-10776
▁rectang	-10777
▁segment	-10778
▁sisters	-10779
▁storage	-10780
▁tourist	-10781
▁tunneyi	-10782
▁unclear	-10783
▁vehicle	-10784
▁watches	-10785
▁wealthy	-10786
▁weapons	-10787
.[1][2][3	-10788
foundland	-10789
▁Anatolia	-10790
▁Attorney	-10791
▁Bhelliom	-10792
▁Brooklyn	-10793
▁Buchwald	-10794
▁Business	-10795
▁Castberg	-10796
▁Citizens	-10797
▁Coliseum	-10798
▁Commerce	-10799
▁Computer	-10800
▁Edmonton	-10801
▁Fighting	-10802
▁Franklin	-10803
▁Lonicera	-10804
▁Magazine	-10805
▁Manitoba	-10806
▁Movement	-10807
▁Portrait	-10808
▁Pretoria	-10809
▁Railroad	-10810
▁Ruttgers	-10811
▁Salvador	-10812
▁Shanghai	-10813
▁Srinivas	-10814
▁Sylveste	-10815
▁Thailand	-10816
▁Together	-10817
▁Wolfgang	-10818
▁Woodvale	-10819
▁annually	-10820
▁attained	-10821
▁attorney	-10822
▁behavior	-10823
▁breeding	-10824
▁civilian	-10825
▁creative	-10826
▁diameter	-10827
▁enrolled	-10828
▁findings	-10829
▁flagship	-10830
▁fuselage	-10831
▁guidance	-10832
▁happened	-10833
▁honorary	-10834
▁internet	-10835
▁lecturer	-10836
▁licensed	-10837
▁negative	-10838
▁nobility	-10839
▁opposite	-10840
▁organist	-10841
▁overhaul	-10842
▁playoffs	-10843
▁pregnant	-10844
▁prompted	-10845
▁receives	-10846
▁reopened	-10847
▁reviewer	-10848
▁revolver	-10849
▁rewarded	-10850
▁romantic	-10851
▁somewhat	-10852
▁speaking	-10853
▁supplied	-10854
▁supposed	-10855
▁survival	-10856
▁teachers	-10857
▁underway	-10858
▁vehicles	-10859
.[1][2][3]	-10860
▁Antarctic	-10861
▁Argonauts	-10862
▁Composers	-10863
▁Euphrates	-10864
▁Frederick	-10865
▁Margetson	-10866
▁Pakistani	-10867
▁Palestine	-10868
▁Victorian	-10869
▁Ziehlberg	-10870
▁alcoholic	-10871
▁associate	-10872
▁attracted	-10873
▁chambered	-10874
▁chemicals	-10875
▁competing	-10876
▁conceived	-10877
▁contracts	-10878
▁descended	-10879
▁emissions	-10880
▁gradually	-10881
▁marketing	-10882
▁opponents	-10883
▁preferred	-10884
▁prisoners	-10885
▁requiring	-10886
▁responded	-10887
▁sentenced	-10888
▁sentiment	-10889
▁spreading	-10890
▁struggles	-10891
▁sultanate	-10892
▁surviving	-10893
▁witnesses	-10894
stitutional	-10895
▁Bangladesh	-10896
▁Basilicata	-10897
▁Experience	-10898
▁Innovation	-10899
▁Manchester	-10900
▁Originally	-10901
▁Provincial	-10902
▁Sandinista	-10903
▁Upbuilding	-10904
▁assignment	-10905
▁atmosphere	-10906
▁attendance	-10907
▁collecting	-10908
▁commanders	-10909
▁committees	-10910
▁consisting	-10911
▁definition	-10912
▁describing	-10913
▁endangered	-10914
▁engagement	-10915
▁favourable	-10916
▁girlfriend	-10917
▁indicating	-10918
▁negatively	-10919
▁personhood	-10920
▁photograph	-10921
▁possession	-10922
▁psychology	-10923
▁qualifying	-10924
▁references	-10925
▁regulation	-10926
▁remarkable	-10927
▁restricted	-10928
▁revolution	-10929
▁screenplay	-10930
▁separately	-10931
▁sufficient	-10932
▁thereafter	-10933
▁transition	-10934
▁Abrahamsson	-10935
▁Interviewed	-10936
▁PlayStation	-10937
▁agriculture	-10938
▁celebration	-10939
▁corporation	-10940
▁disappeared	-10941
▁inaugurated	-10942
▁instruments	-10943
▁interrupted	-10944
▁legislation	-10945
▁predecessor	-10946
▁replacement	-10947
▁transaction	-10948
▁transmitted	-10949
▁Indianapolis	-10950
▁Newfoundland	-10951
▁Organization	-10952
▁competitions	-10953
▁conversation	-10954
▁decommission	-10955
▁presidential	-10956
▁publications	-10957
▁Internacional	-10958
▁administrator	-10959
▁assassination	-10960
▁entertainment	-10961
▁headquartered	-10962
▁replenishment	-10963
▁transportation	-10964
▁representatives	-10965
32	-10966
76	-10967
Am	-10968
BK	-10969
CS	-10970
ES	-10971
El	-10972
FS	-10973
GB	-10974
HA	-10975
IC	-10976
If	-10977
NL	-10978
OE	-10979
SR	-10980
Te	-10981
VC	-10982
VD	-10983
VM	-10984
];	-10985
kh	-10986
ql	-10987
zz	-10988
ŠK	-10989
ατ	-10990
на	-10991
▁É	-10992
▁−	-10993
-11	-10994
24′	-10995
3).	-10996
Art	-10997
LDS	-10998
NDX	-10999
Sal	-11000
Who	-11001
You	-11002
abs	-11003
aja	-11004
asi	-11005
asm	-11006
azy	-11007
ban	-11008
bra	-11009
enf	-11010
gio	-11011
hum	-11012
imm	-11013
jab	-11014
jan	-11015
kee	-11016
kov	-11017
lik	-11018
mun	-11019
opy	-11020
osy	-11021
osí	-11022
pre	-11023
sea	-11024
spe	-11025
tes	-11026
tha	-11027
two	-11028
uay	-11029
ugs	-11030
}}{	-11031
ánd	-11032
ère	-11033
▁-6	-11034
▁61	-11035
▁68	-11036
▁89	-11037
▁95	-11038
▁Aq	-11039
▁BS	-11040
▁Ga	-11041
▁Hi	-11042
▁JG	-11043
▁Ja	-11044
▁Lé	-11045
▁da	-11046
▁ib	-11047
▁id	-11048
."[8	-11049
FIFA	-11050
What	-11051
When	-11052
[10]	-11053
abol	-11054
affe	-11055
agne	-11056
aine	-11057
alch	-11058
alph	-11059
ambr	-11060
ango	-11061
anth	-11062
aron	-11063
asos	-11064
avat	-11065
avic	-11066
bach	-11067
bird	-11068
comb	-11069
elin	-11070
ello	-11071
enko	-11072
enza	-11073
esus	-11074
ffee	-11075
forc	-11076
from	-11077
homa	-11078
hyth	-11079
inel	-11080
infl	-11081
ipas	-11082
ipur	-11083
isor	-11084
join	-11085
kson	-11086
lech	-11087
loyd	-11088
mile	-11089
nose	-11090
ogie	-11091
ogle	-11092
olve	-11093
opes	-11094
otam	-11095
ourg	-11096
oute	-11097
oves	-11098
pine	-11099
qual	-11100
raig	-11101
rech	-11102
reck	-11103
rica	-11104
rine	-11105
song	-11106
soon	-11107
stay	-11108
such	-11109
tons	-11110
tsky	-11111
umph	-11112
vant	-11113
vius	-11114
week	-11115
zhan	-11116
}}{\	-11117
▁$1.	-11118
▁(1,	-11119
▁105	-11120
▁12-	-11121
▁161	-11122
▁170	-11123
▁177	-11124
▁1–1	-11125
▁2.5	-11126
▁24.	-11127
▁43.	-11128
▁AWS	-11129
▁Ach	-11130
▁Ard	-11131
▁Bog	-11132
▁CCC	-11133
▁Dal	-11134
▁Dup	-11135
▁Edd	-11136
▁Ehl	-11137
▁Esc	-11138
▁Fig	-11139
▁Lea	-11140
▁Ley	-11141
▁Lil	-11142
▁Lyn	-11143
▁Net	-11144
▁Num	-11145
▁Oli	-11146
▁Our	-11147
▁PhD	-11148
▁Pil	-11149
▁Pom	-11150
▁Rif	-11151
▁Saf	-11152
▁Seg	-11153
▁Tas	-11154
▁Ten	-11155
▁Tol	-11156
▁UAE	-11157
▁UCC	-11158
▁USN	-11159
▁Urs	-11160
▁Vij	-11161
▁Vis	-11162
▁Wag	-11163
▁Yeh	-11164
▁bot	-11165
▁cot	-11166
▁gor	-11167
▁hat	-11168
▁kid	-11169
▁liz	-11170
▁mac	-11171
▁mad	-11172
▁nun	-11173
▁pig	-11174
▁por	-11175
▁pun	-11176
▁sad	-11177
▁sun	-11178
▁tex	-11179
▁tot	-11180
▁unn	-11181
▁voy	-11182
".[3]	-11183
).[3]	-11184
,[15]	-11185
."[7]	-11186
.[53]	-11187
.[54]	-11188
.[64]	-11189
.[65]	-11190
.[74]	-11191
.[79]	-11192
Oréal	-11193
][38]	-11194
acked	-11195
akers	-11196
antam	-11197
apped	-11198
arest	-11199
asant	-11200
atche	-11201
avery	-11202
bands	-11203
charg	-11204
chers	-11205
econd	-11206
egree	-11207
erset	-11208
estic	-11209
etime	-11210
ework	-11211
gener	-11212
hagam	-11213
hetic	-11214
iacom	-11215
icana	-11216
icial	-11217
icorn	-11218
idity	-11219
ierra	-11220
iking	-11221
indle	-11222
ingen	-11223
inned	-11224
iphon	-11225
ipper	-11226
izumi	-11227
jamin	-11228
later	-11229
nelly	-11230
onica	-11231
onies	-11232
onyms	-11233
orous	-11234
porte	-11235
rador	-11236
remen	-11237
rieve	-11238
senal	-11239
store	-11240
tical	-11241
uchas	-11242
uffin	-11243
uters	-11244
vious	-11245
▁(1.9	-11246
▁(197	-11247
▁1800	-11248
▁1885	-11249
▁1889	-11250
▁1896	-11251
▁1898	-11252
▁1910	-11253
▁1937	-11254
▁2025	-11255
▁Alan	-11256
▁BABT	-11257
▁Budd	-11258
▁Cant	-11259
▁Care	-11260
▁Conf	-11261
▁Copa	-11262
▁Cord	-11263
▁Cret	-11264
▁Crim	-11265
▁Data	-11266
▁Dean	-11267
▁Duch	-11268
▁Emmy	-11269
▁Fall	-11270
▁Gard	-11271
▁Gary	-11272
▁Guam	-11273
▁HMAS	-11274
▁Hanc	-11275
▁Harl	-11276
▁Hawk	-11277
▁Heid	-11278
▁Helm	-11279
▁Huss	-11280
▁Jets	-11281
▁KJFX	-11282
▁KNDX	-11283
▁Karw	-11284
▁Kash	-11285
▁Kirk	-11286
▁Koir	-11287
▁Leah	-11288
▁Line	-11289
▁Luke	-11290
▁Malt	-11291
▁Mood	-11292
▁Moon	-11293
▁Moss	-11294
▁Much	-11295
▁Mult	-11296
▁Nadu	-11297
▁Near	-11298
▁Nest	-11299
▁Nina	-11300
▁Nord	-11301
▁Pale	-11302
▁Prof	-11303
▁Rast	-11304
▁Resp	-11305
▁Room	-11306
▁Saff	-11307
▁Sars	-11308
▁Sass	-11309
▁Scar	-11310
▁Trib	-11311
▁Volk	-11312
▁ally	-11313
▁amic	-11314
▁bays	-11315
▁bise	-11316
▁boss	-11317
▁clar	-11318
▁cook	-11319
▁disb	-11320
▁edge	-11321
▁feud	-11322
▁fins	-11323
▁frog	-11324
▁gift	-11325
▁grip	-11326
▁herb	-11327
▁hide	-11328
▁horn	-11329
▁hybr	-11330
▁indu	-11331
▁jazz	-11332
▁laps	-11333
▁lion	-11334
▁mice	-11335
▁mode	-11336
▁note	-11337
▁obst	-11338
▁raft	-11339
▁rall	-11340
▁rosh	-11341
▁seam	-11342
▁sibl	-11343
▁soci	-11344
▁stem	-11345
▁tale	-11346
▁toad	-11347
▁trio	-11348
▁tube	-11349
▁vast	-11350
▁warn	-11351
▁wear	-11352
▁{1}{	-11353
County	-11354
Direct	-11355
alties	-11356
buster	-11357
ceived	-11358
common	-11359
erving	-11360
icated	-11361
iciary	-11362
idalgo	-11363
inelli	-11364
ingent	-11365
irates	-11366
iverse	-11367
orence	-11368
ortion	-11369
ration	-11370
rators	-11371
ronaut	-11372
temper	-11373
terior	-11374
ussels	-11375
venile	-11376
}}}+{\	-11377
▁1937,	-11378
▁1939,	-11379
▁1944.	-11380
▁1945.	-11381
▁1956,	-11382
▁1987,	-11383
▁1988.	-11384
▁1992.	-11385
▁1993.	-11386
▁1996.	-11387
▁1997.	-11388
▁2013.	-11389
▁2018.	-11390
▁3,000	-11391
▁Akita	-11392
▁Alber	-11393
▁Appro	-11394
▁Artic	-11395
▁Brett	-11396
▁Bruce	-11397
▁Chong	-11398
▁Eight	-11399
▁Flags	-11400
▁Franz	-11401
▁Gertr	-11402
▁Glass	-11403
▁Grant	-11404
▁Guant	-11405
▁Guast	-11406
▁Helen	-11407
▁Hotel	-11408
▁Houma	-11409
▁Hyder	-11410
▁Kenny	-11411
▁Macon	-11412
▁Maiti	-11413
▁Maple	-11414
▁Moore	-11415
▁Motor	-11416
▁Narai	-11417
▁Never	-11418
▁Phyfe	-11419
▁Piper	-11420
▁Pomer	-11421
▁Qatar	-11422
▁Ralph	-11423
▁Route	-11424
▁Shire	-11425
▁Steel	-11426
▁Swans	-11427
▁Tampa	-11428
▁Works	-11429
▁antib	-11430
▁audio	-11431
▁bless	-11432
▁caves	-11433
▁cinem	-11434
▁civic	-11435
▁craft	-11436
▁cream	-11437
▁datab	-11438
▁dense	-11439
▁dimin	-11440
▁doubt	-11441
▁elite	-11442
▁fatal	-11443
▁fewer	-11444
▁fruit	-11445
▁gunbo	-11446
▁hairs	-11447
▁hairy	-11448
▁helps	-11449
▁homet	-11450
▁hopes	-11451
▁innov	-11452
▁knows	-11453
▁lease	-11454
▁liked	-11455
▁lined	-11456
▁lingu	-11457
▁memor	-11458
▁mines	-11459
▁mouth	-11460
▁moves	-11461
▁oblig	-11462
▁outer	-11463
▁overw	-11464
▁pairs	-11465
▁pitch	-11466
▁ports	-11467
▁prime	-11468
▁princ	-11469
▁rabbi	-11470
▁recru	-11471
▁schem	-11472
▁spoke	-11473
▁steep	-11474
▁taste	-11475
▁tourn	-11476
▁trend	-11477
▁uncon	-11478
▁uninc	-11479
▁vault	-11480
▁verse	-11481
▁wants	-11482
▁woods	-11483
January	-11484
Russian	-11485
][6][7]	-11486
assment	-11487
attered	-11488
aulipas	-11489
clusive	-11490
ections	-11491
founder	-11492
habilit	-11493
inction	-11494
inistas	-11495
iration	-11496
issance	-11497
istence	-11498
itoring	-11499
iveness	-11500
keeping	-11501
manship	-11502
mantown	-11503
mediate	-11504
ouncill	-11505
partial	-11506
present	-11507
▁2007–0	-11508
▁Action	-11509
▁Active	-11510
▁Brandt	-11511
▁Bryant	-11512
▁Cinema	-11513
▁Cirrus	-11514
▁Colomb	-11515
▁Compar	-11516
▁Darwin	-11517
▁Denver	-11518
▁Design	-11519
▁Durham	-11520
▁Ehlana	-11521
▁Fender	-11522
▁Fiscal	-11523
▁Google	-11524
▁Inters	-11525
▁Justin	-11526
▁Kemble	-11527
▁Korean	-11528
▁Merend	-11529
▁Miller	-11530
▁Muffin	-11531
▁NASCAR	-11532
▁Nelson	-11533
▁Nevada	-11534
▁Nights	-11535
▁Potosí	-11536
▁Powell	-11537
▁Pulotu	-11538
▁Raynor	-11539
▁Redmon	-11540
▁Reform	-11541
▁Regard	-11542
▁Rotten	-11543
▁Select	-11544
▁Slavic	-11545
▁Sunday	-11546
▁Taylor	-11547
▁Telugu	-11548
▁Unlike	-11549
▁Valenc	-11550
▁Walden	-11551
▁Wilmer	-11552
▁actors	-11553
▁agrees	-11554
▁analog	-11555
▁argues	-11556
▁aspect	-11557
▁assume	-11558
▁carbon	-11559
▁climbs	-11560
▁closer	-11561
▁comics	-11562
▁config	-11563
▁cotton	-11564
▁depend	-11565
▁dorsal	-11566
▁dramat	-11567
▁eleven	-11568
▁exists	-11569
▁factor	-11570
▁filmed	-11571
▁fitted	-11572
▁floods	-11573
▁floors	-11574
▁gentle	-11575
▁grades	-11576
▁handed	-11577
▁handle	-11578
▁invent	-11579
▁karate	-11580
▁lights	-11581
▁motion	-11582
▁parade	-11583
▁partly	-11584
▁phones	-11585
▁poison	-11586
▁poorly	-11587
▁proced	-11588
▁quoted	-11589
▁scaled	-11590
▁seeing	-11591
▁serial	-11592
▁shaped	-11593
▁smooth	-11594
▁spaces	-11595
▁strict	-11596
▁styles	-11597
▁submar	-11598
▁tempor	-11599
▁termin	-11600
▁testim	-11601
▁topped	-11602
▁viable	-11603
▁vision	-11604
Director	-11605
Williams	-11606
angerous	-11607
fortable	-11608
itations	-11609
ropology	-11610
▁Antioch	-11611
▁Belgium	-11612
▁Cabinet	-11613
▁Dakhani	-11614
▁Daniels	-11615
▁Diocese	-11616
▁Fulvius	-11617
▁Hancock	-11618
▁Harvard	-11619
▁Herbert	-11620
▁Hidalgo	-11621
▁Israeli	-11622
▁Kashmir	-11623
▁Klingon	-11624
▁Koirala	-11625
▁Lysenko	-11626
▁Marathi	-11627
▁Morocco	-11628
▁Phoenix	-11629
▁Popular	-11630
▁Premier	-11631
▁Princip	-11632
▁Purcell	-11633
▁Servant	-11634
▁Telecom	-11635
▁Texhoma	-11636
▁Turkish	-11637
▁achieve	-11638
▁adapted	-11639
▁alleles	-11640
▁amended	-11641
▁annexed	-11642
▁bearing	-11643
▁borough	-11644
▁cleared	-11645
▁conspir	-11646
▁costume	-11647
▁cutting	-11648
▁defense	-11649
▁delayed	-11650
▁designs	-11651
▁emerged	-11652
▁endemic	-11653
▁endured	-11654
▁exhibit	-11655
▁existed	-11656
▁explain	-11657
▁exposed	-11658
▁illegal	-11659
▁interim	-11660
▁keeping	-11661
▁maximum	-11662
▁militia	-11663
▁mixtape	-11664
▁partial	-11665
▁patrons	-11666
▁peoples	-11667
▁placing	-11668
▁premium	-11669
▁printed	-11670
▁pursued	-11671
▁ranging	-11672
▁ranking	-11673
▁rebuilt	-11674
▁renewed	-11675
▁reorgan	-11676
▁restaur	-11677
▁revenge	-11678
▁sectors	-11679
▁session	-11680
▁shifted	-11681
▁showing	-11682
▁spelled	-11683
▁starred	-11684
▁veteran	-11685
▁visible	-11686
▁warship	-11687
▁worship	-11688
.[10][11]	-11689
September	-11690
ibilities	-11691
president	-11692
represent	-11693
▁Armenian	-11694
▁Atakpamé	-11695
▁Belgrade	-11696
▁Benjamin	-11697
▁Broadway	-11698
▁Brothers	-11699
▁Building	-11700
▁Download	-11701
▁Florence	-11702
▁Geronimo	-11703
▁Heinrich	-11704
▁Hilberry	-11705
▁Maritime	-11706
▁Meyuchas	-11707
▁Nacional	-11708
▁Philharm	-11709
▁Portugal	-11710
▁Québecor	-11711
▁Sentinel	-11712
▁Shelleys	-11713
▁Somerset	-11714
▁Takeuchi	-11715
▁Tomatoes	-11716
▁Veterans	-11717
▁activism	-11718
▁appropri	-11719
▁arriving	-11720
▁autonomy	-11721
▁birthday	-11722
▁bisexual	-11723
▁cassette	-11724
▁colonies	-11725
▁confined	-11726
▁cultures	-11727
▁defender	-11728
▁delivery	-11729
▁demanded	-11730
▁deterior	-11731
▁dominant	-11732
▁duration	-11733
▁elephant	-11734
▁emphasis	-11735
▁entirety	-11736
▁evacuate	-11737
▁explicit	-11738
▁faithful	-11739
▁fourteen	-11740
▁garnered	-11741
▁garrison	-11742
▁hometown	-11743
▁informed	-11744
▁junction	-11745
▁longtime	-11746
▁mentions	-11747
▁patients	-11748
▁patterns	-11749
▁policies	-11750
▁portions	-11751
▁possibly	-11752
▁presents	-11753
▁produces	-11754
▁railroad	-11755
▁recovery	-11756
▁regulate	-11757
▁releases	-11758
▁relieved	-11759
▁screened	-11760
▁shootout	-11761
▁siblings	-11762
▁sporting	-11763
▁symptoms	-11764
▁thorough	-11765
▁vertical	-11766
Republican	-11767
ologically	-11768
▁Ashbourne	-11769
▁Barcelona	-11770
▁Guastalla	-11771
▁Hollywood	-11772
▁Hyderabad	-11773
▁Karwendel	-11774
▁Merendino	-11775
▁Political	-11776
▁Returning	-11777
▁Romanized	-11778
▁Schleswig	-11779
▁Secretary	-11780
▁Septimius	-11781
▁Similarly	-11782
▁Southeast	-11783
▁Templeton	-11784
▁Therefore	-11785
▁Ukrainian	-11786
▁Yoshizumi	-11787
▁abilities	-11788
▁afternoon	-11789
▁apartment	-11790
▁arguments	-11791
▁athletics	-11792
▁attacking	-11793
▁brilliant	-11794
▁composite	-11795
▁cricketer	-11796
▁criminals	-11797
▁demanding	-11798
▁disbanded	-11799
▁discussed	-11800
▁disorders	-11801
▁diversity	-11802
▁dominated	-11803
▁editorial	-11804
▁excellent	-11805
▁favorable	-11806
▁freestyle	-11807
▁geography	-11808
▁identical	-11809
▁impedance	-11810
▁inherited	-11811
▁intention	-11812
▁localized	-11813
▁maintains	-11814
▁minelayer	-11815
▁monuments	-11816
▁numbering	-11817
▁passenger	-11818
▁perennial	-11819
▁permitted	-11820
▁planetary	-11821
▁practical	-11822
▁prompting	-11823
▁provinces	-11824
▁recovered	-11825
▁relegated	-11826
▁renovated	-11827
▁suffering	-11828
▁synthesis	-11829
antamweight	-11830
▁Accrington	-11831
▁Bolivarian	-11832
▁Cretaceous	-11833
▁Cunningham	-11834
▁Englishman	-11835
▁Fourteenth	-11836
▁Germantown	-11837
▁Mauritania	-11838
▁Tamaulipas	-11839
▁attractive	-11840
▁attributed	-11841
▁challenged	-11842
▁colleagues	-11843
▁confirming	-11844
▁contribute	-11845
▁dedication	-11846
▁difficulty	-11847
▁discussion	-11848
▁franchises	-11849
▁generation	-11850
▁goaltender	-11851
▁harassment	-11852
▁helicopter	-11853
▁homosexual	-11854
▁impressive	-11855
▁legislator	-11856
▁monitoring	-11857
▁motorcycle	-11858
▁organizers	-11859
▁proclaimed	-11860
▁provisions	-11861
▁rabbinical	-11862
▁remembered	-11863
▁suggesting	-11864
▁supportive	-11865
▁taikonauts	-11866
▁techniques	-11867
▁understand	-11868
▁vegetation	-11869
▁Environment	-11870
▁Sandinistas	-11871
▁accommodate	-11872
▁approaching	-11873
▁assignments	-11874
▁circulation	-11875
▁constituted	-11876
▁demonstrate	-11877
▁distinguish	-11878
▁electricity	-11879
▁experiments	-11880
▁extensively	-11881
▁generations	-11882
▁highlighted	-11883
▁illustrated	-11884
▁institution	-11885
▁interesting	-11886
▁recruitment	-11887
▁regulations	-11888
▁requirement	-11889
▁shareholder	-11890
▁territories	-11891
▁tournaments	-11892
▁Contemporary	-11893
▁Diamondbacks	-11894
▁Historically	-11895
▁Subsequently	-11896
▁associations	-11897
▁continuously	-11898
▁difficulties	-11899
▁installation	-11900
▁negotiations	-11901
▁neighbouring	-11902
▁northwestern	-11903
▁photographer	-11904
▁southwestern	-11905
▁unemployment	-11906
▁Investigation	-11907
▁championships	-11908
▁corresponding	-11909
▁distinguished	-11910
▁relationships	-11911
▁classification	-11912
▁decommissioned	-11913
▁representation	-11914
▁unincorporated	-11915
▁internationally	-11916
')	-11917
4-	-11918
8%	-11919
AD	-11920
AY	-11921
Bl	-11922
Br	-11923
IS	-11924
KF	-11925
MO	-11926
No	-11927
RE	-11928
RS	-11929
To	-11930
gi	-11931
gu	-11932
ān	-11933
ος	-11934
ск	-11935
ين	-11936
พร	-11937
▁^	-11938
,[6	-11939
-14	-11940
-23	-11941
-41	-11942
2).	-11943
2.1	-11944
3.0	-11945
5.1	-11946
67;	-11947
8.6	-11948
8.9	-11949
9),	-11950
AFS	-11951
Atl	-11952
CAF	-11953
Dec	-11954
Hip	-11955
Hop	-11956
Kam	-11957
Mar	-11958
One	-11959
PAC	-11960
Sen	-11961
She	-11962
UTC	-11963
WIT	-11964
ahl	-11965
ahu	-11966
aji	-11967
aos	-11968
aru	-11969
asa	-11970
aso	-11971
atu	-11972
azi	-11973
bid	-11974
bot	-11975
cal	-11976
cor	-11977
dam	-11978
din	-11979
edo	-11980
elb	-11981
eli	-11982
eut	-11983
fon	-11984
fts	-11985
ftw	-11986
hop	-11987
hur	-11988
iji	-11989
ikh	-11990
iqu	-11991
irt	-11992
kon	-11993
lan	-11994
lon	-11995
mat	-11996
new	-11997
obi	-11998
oid	-11999
oko	-12000
oln	-12001
ref	-12002
zed	-12003
zig	-12004
ône	-12005
–12	-12006
–13	-12007
–17	-12008
▁$4	-12009
▁($	-12010
▁-8	-12011
▁66	-12012
▁6–	-12013
▁7-	-12014
▁8/	-12015
▁9.	-12016
▁9:	-12017
▁DI	-12018
▁FI	-12019
▁HA	-12020
▁LS	-12021
▁Lt	-12022
▁Mé	-12023
▁OS	-12024
▁Ob	-12025
▁Pt	-12026
▁Ra	-12027
▁Sv	-12028
▁Sz	-12029
▁ke	-12030
▁ow	-12031
▁ru	-12032
.[16	-12033
.[23	-12034
.[27	-12035
.[35	-12036
4][4	-12037
Fore	-12038
Free	-12039
Ital	-12040
June	-12041
[11]	-12042
[14]	-12043
][1]	-12044
][21	-12045
abil	-12046
achi	-12047
addy	-12048
anat	-12049
anti	-12050
aran	-12051
arse	-12052
asco	-12053
atha	-12054
auer	-12055
auna	-12056
bara	-12057
best	-12058
bles	-12059
egue	-12060
endo	-12061
enos	-12062
erez	-12063
eria	-12064
ethe	-12065
fare	-12066
feld	-12067
foot	-12068
frew	-12069
gary	-12070
grad	-12071
gren	-12072
hari	-12073
held	-12074
hous	-12075
idad	-12076
ieth	-12077
ilda	-12078
ilyn	-12079
imus	-12080
ingo	-12081
iors	-12082
isch	-12083
ishi	-12084
issy	-12085
itsu	-12086
ixed	-12087
last	-12088
lean	-12089
lesh	-12090
leut	-12091
made	-12092
mail	-12093
math	-12094
mina	-12095
olin	-12096
olly	-12097
orph	-12098
ossa	-12099
oval	-12100
page	-12101
qing	-12102
quet	-12103
rele	-12104
rieg	-12105
rien	-12106
ront	-12107
rost	-12108
seau	-12109
stic	-12110
stop	-12111
taza	-12112
thys	-12113
ucks	-12114
udah	-12115
urgy	-12116
urne	-12117
zyme	-12118
▁(8,	-12119
▁1.5	-12120
▁10-	-12121
▁109	-12122
▁149	-12123
▁157	-12124
▁16.	-12125
▁168	-12126
▁35.	-12127
▁3–0	-12128
▁3–1	-12129
▁600	-12130
▁900	-12131
▁ABC	-12132
▁ACC	-12133
▁AMC	-12134
▁Amb	-12135
▁Aub	-12136
▁Bed	-12137
▁Cus	-12138
▁Din	-12139
▁Eug	-12140
▁FAA	-12141
▁Fam	-12142
▁Fla	-12143
▁Gem	-12144
▁HTC	-12145
▁Hav	-12146
▁Hom	-12147
▁Imp	-12148
▁Jas	-12149
▁Joy	-12150
▁Kad	-12151
▁Kas	-12152
▁Led	-12153
▁MVP	-12154
▁NUI	-12155
▁Nam	-12156
▁Nav	-12157
▁Nde	-12158
▁Neg	-12159
▁OVC	-12160
▁Oak	-12161
▁Ped	-12162
▁Pic	-12163
▁RAF	-12164
▁Rac	-12165
▁Rhe	-12166
▁Sak	-12167
▁Sap	-12168
▁Sav	-12169
▁Sie	-12170
▁Sig	-12171
▁Sri	-12172
▁Sum	-12173
▁Syn	-12174
▁Tar	-12175
▁Tob	-12176
▁Udo	-12177
▁Ult	-12178
▁Waj	-12179
▁Wyn	-12180
▁ace	-12181
▁aqu	-12182
▁ast	-12183
▁bra	-12184
▁dim	-12185
▁dog	-12186
▁els	-12187
▁fee	-12188
▁fra	-12189
▁gar	-12190
▁hub	-12191
▁ibn	-12192
▁isn	-12193
▁jap	-12194
▁lev	-12195
▁mit	-12196
▁san	-12197
▁spy	-12198
▁tab	-12199
▁tow	-12200
▁tra	-12201
▁tub	-12202
▁vel	-12203
▁vin	-12204
).[7]	-12205
,[14]	-12206
,[16]	-12207
.[59]	-12208
.[69]	-12209
.[75]	-12210
.[78]	-12211
.[80]	-12212
.[81]	-12213
.[83]	-12214
39–0.	-12215
7,000	-12216
April	-12217
CACAF	-12218
Chief	-12219
Europ	-12220
Forum	-12221
Greek	-12222
IMPAC	-12223
Saint	-12224
South	-12225
][26]	-12226
][29]	-12227
][40]	-12228
][43]	-12229
aball	-12230
ación	-12231
acket	-12232
acles	-12233
acruz	-12234
anamo	-12235
andom	-12236
anges	-12237
anmar	-12238
arves	-12239
asive	-12240
atism	-12241
azing	-12242
being	-12243
borne	-12244
cover	-12245
eburg	-12246
elCom	-12247
ellan	-12248
ellar	-12249
erian	-12250
erner	-12251
esque	-12252
ettes	-12253
eyond	-12254
fleet	-12255
frame	-12256
grave	-12257
hagen	-12258
hardt	-12259
iders	-12260
igion	-12261
iming	-12262
imore	-12263
inite	-12264
inyin	-12265
isive	-12266
kelon	-12267
kenny	-12268
lando	-12269
ocarp	-12270
odaux	-12271
olake	-12272
onday	-12273
oodoo	-12274
orrow	-12275
pling	-12276
quake	-12277
raska	-12278
reams	-12279
recht	-12280
scale	-12281
state	-12282
ucing	-12283
ullah	-12284
ulted	-12285
▁(130	-12286
▁(198	-12287
▁100,	-12288
▁1864	-12289
▁1866	-12290
▁1888	-12291
▁1906	-12292
▁1923	-12293
▁1924	-12294
▁1932	-12295
▁1933	-12296
▁1955	-12297
▁Agre	-12298
▁Andy	-12299
▁Away	-12300
▁Back	-12301
▁Ball	-12302
▁Berm	-12303
▁Biro	-12304
▁Bord	-12305
▁Brug	-12306
▁Carr	-12307
▁Cere	-12308
▁Chak	-12309
▁Chen	-12310
▁Corn	-12311
▁Ctes	-12312
▁Cups	-12313
▁Curt	-12314
▁Cypr	-12315
▁Daly	-12316
▁Dave	-12317
▁Dura	-12318
▁Eust	-12319
▁Farm	-12320
▁Fear	-12321
▁Gate	-12322
▁Haun	-12323
▁Help	-12324
▁Horn	-12325
▁Jama	-12326
▁Joan	-12327
▁Kate	-12328
▁Liga	-12329
▁Linc	-12330
▁Lisa	-12331
▁Loth	-12332
▁Mali	-12333
▁Marx	-12334
▁Meth	-12335
▁Mora	-12336
▁Must	-12337
▁Nath	-12338
▁Norm	-12339
▁Opus	-12340
▁Ostr	-12341
▁Path	-12342
▁Patt	-12343
▁Perc	-12344
▁Peru	-12345
▁Pess	-12346
▁Poll	-12347
▁Punk	-12348
▁Quli	-12349
▁Reed	-12350
▁Rhin	-12351
▁Rice	-12352
▁Rick	-12353
▁Roth	-12354
▁Rust	-12355
▁Saar	-12356
▁Sacr	-12357
▁Same	-12358
▁Sart	-12359
▁Sign	-12360
▁Thal	-12361
▁Trav	-12362
▁Tren	-12363
▁Vimp	-12364
▁Viol	-12365
▁Voiv	-12366
▁Wend	-12367
▁Whig	-12368
▁beet	-12369
▁bond	-12370
▁bull	-12371
▁butt	-12372
▁canc	-12373
▁cars	-12374
▁chim	-12375
▁conj	-12376
▁copy	-12377
▁cosm	-12378
▁earn	-12379
▁empt	-12380
▁flat	-12381
▁flav	-12382
▁fold	-12383
▁hook	-12384
▁hunt	-12385
▁jail	-12386
▁jobs	-12387
▁jury	-12388
▁leaf	-12389
▁lily	-12390
▁mort	-12391
▁nose	-12392
▁penn	-12393
▁pert	-12394
▁poly	-12395
▁rook	-12396
▁scor	-12397
▁seed	-12398
▁shop	-12399
▁soph	-12400
▁sort	-12401
▁stew	-12402
▁stip	-12403
▁sunk	-12404
▁symp	-12405
▁tack	-12406
▁tiss	-12407
▁user	-12408
▁vess	-12409
▁whit	-12410
▁worn	-12411
."[13]	-12412
_{1},\	-12413
actory	-12414
akeshi	-12415
apping	-12416
arries	-12417
atinum	-12418
avalry	-12419
binger	-12420
ecrest	-12421
ellers	-12422
ffield	-12423
flight	-12424
iginal	-12425
iliary	-12426
ishers	-12427
itable	-12428
lement	-12429
liatti	-12430
lights	-12431
mother	-12432
normal	-12433
ologne	-12434
onemal	-12435
opotam	-12436
passes	-12437
resses	-12438
rician	-12439
ronics	-12440
square	-12441
ularis	-12442
umbent	-12443
}}'}{\	-12444
▁1885,	-12445
▁1936,	-12446
▁1947,	-12447
▁1948,	-12448
▁1959.	-12449
▁1961,	-12450
▁1969,	-12451
▁1971,	-12452
▁1982)	-12453
▁1984)	-12454
▁1984,	-12455
▁1991.	-12456
▁1995.	-12457
▁2024)	-12458
▁2025,	-12459
▁5,000	-12460
▁Again	-12461
▁Babar	-12462
▁Bible	-12463
▁Blues	-12464
▁Champ	-12465
▁Clara	-12466
▁Clive	-12467
▁Ducks	-12468
▁Faith	-12469
▁Flyin	-12470
▁Ghats	-12471
▁Globe	-12472
▁Grade	-12473
▁Gregg	-12474
▁Hasan	-12475
▁Janet	-12476
▁Johan	-12477
▁Karat	-12478
▁Kepco	-12479
▁Klaus	-12480
▁Kunst	-12481
▁Kyoto	-12482
▁Labor	-12483
▁Luftw	-12484
▁Metro	-12485
▁Moody	-12486
▁Opera	-12487
▁Pavel	-12488
▁Ports	-12489
▁Rajas	-12490
▁Ranch	-12491
▁Rhine	-12492
▁Rhode	-12493
▁Roger	-12494
▁Schol	-12495
▁Shake	-12496
▁Snuka	-12497
▁Soria	-12498
▁Speed	-12499
▁Still	-12500
▁Sunni	-12501
▁Tales	-12502
▁Terry	-12503
▁Thane	-12504
▁Tiang	-12505
▁Upper	-12506
▁Zorin	-12507
▁accum	-12508
▁advoc	-12509
▁amalg	-12510
▁ammun	-12511
▁anger	-12512
▁argue	-12513
▁autom	-12514
▁bipod	-12515
▁burst	-12516
▁catch	-12517
▁cells	-12518
▁choke	-12519
▁cloud	-12520
▁costs	-12521
▁crest	-12522
▁crews	-12523
▁cults	-12524
▁drain	-12525
▁drawn	-12526
▁elong	-12527
▁encom	-12528
▁evalu	-12529
▁excav	-12530
▁feels	-12531
▁fever	-12532
▁fleet	-12533
▁fract	-12534
▁gates	-12535
▁gover	-12536
▁hydro	-12537
▁index	-12538
▁inhab	-12539
▁inner	-12540
▁morph	-12541
▁newsc	-12542
▁orbit	-12543
▁piece	-12544
▁prize	-12545
▁proof	-12546
▁racer	-12547
▁remix	-12548
▁revue	-12549
▁rifle	-12550
▁rocky	-12551
▁scale	-12552
▁scope	-12553
▁sidew	-12554
▁stere	-12555
▁thick	-12556
▁toler	-12557
▁tones	-12558
▁waste	-12559
▁waves	-12560
▁wheel	-12561
▁wider	-12562
▁witch	-12563
▁wrist	-12564
.[1][4]	-12565
Chinese	-12566
October	-12567
][8][9]	-12568
andalam	-12569
arently	-12570
arewell	-12571
balogan	-12572
bidzhan	-12573
changed	-12574
egueiro	-12575
enstein	-12576
ichthys	-12577
idarity	-12578
iership	-12579
iliated	-12580
leyball	-12581
odeship	-12582
onation	-12583
osystem	-12584
ounters	-12585
ousseau	-12586
raction	-12587
reating	-12588
ruption	-12589
tingham	-12590
viously	-12591
winning	-12592
▁Agouti	-12593
▁Andrea	-12594
▁Artist	-12595
▁Associ	-12596
▁Aurang	-12597
▁Batman	-12598
▁Butler	-12599
▁Carlos	-12600
▁Cusden	-12601
▁Desire	-12602
▁Easter	-12603
▁Edmund	-12604
▁Energy	-12605
▁Gothic	-12606
▁Gruppe	-12607
▁Guards	-12608
▁Harold	-12609
▁Hubert	-12610
▁Hunter	-12611
▁Jordan	-12612
▁Kazakh	-12613
▁Khalid	-12614
▁Kidner	-12615
▁Lester	-12616
▁Luther	-12617
▁Magdal	-12618
▁Mahmud	-12619
▁Mandal	-12620
▁Manila	-12621
▁Monday	-12622
▁Mosque	-12623
▁Pavese	-12624
▁Prabhu	-12625
▁Pánuco	-12626
▁Rattus	-12627
▁Rights	-12628
▁Ronald	-12629
▁Shield	-12630
▁Steven	-12631
▁Susini	-12632
▁Switch	-12633
▁Trophy	-12634
▁Ursula	-12635
▁Voodoo	-12636
▁Warsaw	-12637
▁Woolos	-12638
▁Yaakov	-12639
▁advice	-12640
▁arrang	-12641
▁beaten	-12642
▁beauty	-12643
▁behalf	-12644
▁blacks	-12645
▁canton	-12646
▁casual	-12647
▁client	-12648
▁constr	-12649
▁culmin	-12650
▁darker	-12651
▁darter	-12652
▁desert	-12653
▁diving	-12654
▁eating	-12655
▁engage	-12656
▁enzyme	-12657
▁exclud	-12658
▁fabric	-12659
▁facade	-12660
▁grants	-12661
▁guards	-12662
▁guided	-12663
▁housed	-12664
▁incarn	-12665
▁intent	-12666
▁judges	-12667
▁jurisd	-12668
▁kilome	-12669
▁labour	-12670
▁listen	-12671
▁locals	-12672
▁locked	-12673
▁meters	-12674
▁naming	-12675
▁notice	-12676
▁panels	-12677
▁patrol	-12678
▁penetr	-12679
▁perpet	-12680
▁phases	-12681
▁prelim	-12682
▁prince	-12683
▁profit	-12684
▁promin	-12685
▁random	-12686
▁recall	-12687
▁regime	-12688
▁rejoin	-12689
▁rental	-12690
▁slalom	-12691
▁slowly	-12692
▁summit	-12693
▁supple	-12694
▁tennis	-12695
▁tested	-12696
▁tribes	-12697
▁varied	-12698
▁vocals	-12699
▁voters	-12700
▁weapon	-12701
▁worker	-12702
December	-12703
atchewan	-12704
cellence	-12705
distance	-12706
ecessary	-12707
inations	-12708
leutnant	-12709
missions	-12710
ospitals	-12711
produced	-12712
restrial	-12713
▁100,000	-12714
▁2007–08	-12715
▁Admiral	-12716
▁Arsenal	-12717
▁Artists	-12718
▁Balista	-12719
▁Bolivia	-12720
▁Borough	-12721
▁Calgary	-12722
▁Carrier	-12723
▁Cologne	-12724
▁Domingo	-12725
▁Duchamp	-12726
▁Express	-12727
▁Germans	-12728
▁Hayward	-12729
▁Hogarth	-12730
▁Holcomb	-12731
▁Holland	-12732
▁Housing	-12733
▁Hunting	-12734
▁Hussain	-12735
▁Jacques	-12736
▁Leopold	-12737
▁Lincoln	-12738
▁Managua	-12739
▁Marines	-12740
▁Matthew	-12741
▁Menefee	-12742
▁Morning	-12743
▁Murtaza	-12744
▁Muslims	-12745
▁Myanmar	-12746
▁Natural	-12747
▁Orlando	-12748
▁Paediat	-12749
▁Picture	-12750
▁Private	-12751
▁Raymond	-12752
▁Renfrew	-12753
▁Saffron	-12754
▁Speaker	-12755
▁Springs	-12756
▁Takeshi	-12757
▁Trieste	-12758
▁Trotsky	-12759
▁Vijayan	-12760
▁Vincent	-12761
▁Windows	-12762
▁Xiaoyao	-12763
▁Yehudah	-12764
▁academy	-12765
▁affects	-12766
▁airline	-12767
▁alcohol	-12768
▁apprent	-12769
▁arguing	-12770
▁bravery	-12771
▁cabinet	-12772
▁caliber	-12773
▁clients	-12774
▁deities	-12775
▁delight	-12776
▁desired	-12777
▁discont	-12778
▁drivers	-12779
▁enabled	-12780
▁equally	-12781
▁erected	-12782
▁evolved	-12783
▁explore	-12784
▁faction	-12785
▁factors	-12786
▁failing	-12787
▁filling	-12788
▁funeral	-12789
▁handled	-12790
▁honored	-12791
▁hosting	-12792
▁hunting	-12793
▁induced	-12794
▁insists	-12795
▁intense	-12796
▁lateral	-12797
▁listing	-12798
▁looking	-12799
▁manages	-12800
▁martial	-12801
▁methods	-12802
▁moments	-12803
▁nominal	-12804
▁objects	-12805
▁offence	-12806
▁patient	-12807
▁prayers	-12808
▁preface	-12809
▁rainbow	-12810
▁raising	-12811
▁refuses	-12812
▁rescued	-12813
▁reverse	-12814
▁runners	-12815
▁seconds	-12816
▁shallow	-12817
▁shorter	-12818
▁shutout	-12819
▁someone	-12820
▁sublime	-12821
▁talking	-12822
▁tension	-12823
▁touring	-12824
▁transph	-12825
▁trouble	-12826
▁vessels	-12827
▁violent	-12828
▁watched	-12829
.[13][14]	-12830
.[18][19]	-12831
americana	-12832
clamation	-12833
endations	-12834
forcement	-12835
inguished	-12836
oddabetta	-12837
urrection	-12838
▁Airlines	-12839
▁Aviation	-12840
▁CONCACAF	-12841
▁Campaign	-12842
▁Chairman	-12843
▁Chandana	-12844
▁Churches	-12845
▁Colonial	-12846
▁Egyptian	-12847
▁Filipino	-12848
▁Flaherty	-12849
▁Hartford	-12850
▁Holdaway	-12851
▁Labrador	-12852
▁Limerick	-12853
▁Michelle	-12854
▁Napoleon	-12855
▁Nebraska	-12856
▁Portland	-12857
▁Robinson	-12858
▁Seamount	-12859
▁Senators	-12860
▁Tiangong	-12861
▁Veracruz	-12862
▁Vladimir	-12863
▁Whitneys	-12864
▁agencies	-12865
▁alliance	-12866
▁argument	-12867
▁athletes	-12868
▁authored	-12869
▁aviation	-12870
▁colleges	-12871
▁commemor	-12872
▁concepts	-12873
▁concrete	-12874
▁confront	-12875
▁criteria	-12876
▁deceased	-12877
▁delmonai	-12878
▁dialects	-12879
▁domestic	-12880
▁elevated	-12881
▁embarked	-12882
▁emerging	-12883
▁estimate	-12884
▁exposure	-12885
▁exterior	-12886
▁heritage	-12887
▁homeless	-12888
▁instance	-12889
▁introduc	-12890
▁invested	-12891
▁japonica	-12892
▁likeness	-12893
▁medalist	-12894
▁meetings	-12895
▁missiles	-12896
▁molecule	-12897
▁networks	-12898
▁newborns	-12899
▁normally	-12900
▁overflow	-12901
▁overturn	-12902
▁partners	-12903
▁pastoral	-12904
▁pharmacy	-12905
▁portrait	-12906
▁premiere	-12907
▁reactors	-12908
▁recalled	-12909
▁requires	-12910
▁restrict	-12911
▁sacrific	-12912
▁servants	-12913
▁suddenly	-12914
▁switched	-12915
▁thinking	-12916
▁troubled	-12917
▁trustees	-12918
▁variants	-12919
▁whatever	-12920
▁wristwat	-12921
.[3][4][5]	-12922
designated	-12923
equivalent	-12924
ifications	-12925
songwriter	-12926
▁AfriForum	-12927
▁Agreement	-12928
▁Baltimore	-12929
▁Bulgarian	-12930
▁Cardinals	-12931
▁Catherine	-12932
▁Champions	-12933
▁Charlotte	-12934
▁Chongqing	-12935
▁Companies	-12936
▁Ctesiphon	-12937
▁Fernandez	-12938
▁Lightning	-12939
▁Luftwaffe	-12940
▁Nashville	-12941
▁Nostalgia	-12942
▁Parachute	-12943
▁Sacrament	-12944
▁Sebastian	-12945
▁Sheffield	-12946
▁Territory	-12947
▁Togliatti	-12948
▁Treatment	-12949
▁VimpelCom	-12950
▁abolished	-12951
▁addressed	-12952
▁addresses	-12953
▁adventure	-12954
▁agnolotti	-12955
▁anthology	-12956
▁butterfly	-12957
▁civilians	-12958
▁commended	-12959
▁concerned	-12960
▁continent	-12961
▁customers	-12962
▁departure	-12963
▁discourse	-12964
▁disrupted	-12965
▁economics	-12966
▁efficient	-12967
▁elaborate	-12968
▁elsewhere	-12969
▁excessive	-12970
▁execution	-12971
▁expensive	-12972
▁fermented	-12973
▁fishermen	-12974
▁followers	-12975
▁governing	-12976
▁immediate	-12977
▁incidents	-12978
▁indicator	-12979
▁infection	-12980
▁inscribed	-12981
▁limestone	-12982
▁molecular	-12983
▁necessity	-12984
▁portrayed	-12985
▁precision	-12986
▁rebellion	-12987
▁rebranded	-12988
▁receiving	-12989
▁reception	-12990
▁recessive	-12991
▁rehabilit	-12992
▁reprinted	-12993
▁satellite	-12994
▁sculpture	-12995
▁simulcast	-12996
▁specimens	-12997
▁streaming	-12998
▁substance	-12999
▁supporter	-13000
▁suspected	-13001
▁sustained	-13002
▁telephone	-13003
established	-13004
▁Belarusian	-13005
▁Catbalogan	-13006
▁Collection	-13007
▁Guantanamo	-13008
▁Industrial	-13009
▁Liberation	-13010
▁Nottingham	-13011
▁Portuguese	-13012
▁Stanislaus	-13013
▁Statistics	-13014
▁accessible	-13015
▁accredited	-13016
▁agnotology	-13017
▁ammunition	-13018
▁authorized	-13019
▁chancellor	-13020
▁collegiate	-13021
▁commanding	-13022
▁competitor	-13023
▁confronted	-13024
▁convection	-13025
▁destroying	-13026
▁devolution	-13027
▁disability	-13028
▁discipline	-13029
▁documented	-13030
▁earthquake	-13031
▁encounters	-13032
▁graduation	-13033
▁landslides	-13034
▁localities	-13035
▁nineteenth	-13036
▁occupation	-13037
▁physically	-13038
▁presidency	-13039
▁redesigned	-13040
▁reinstated	-13041
▁similarity	-13042
▁spectators	-13043
▁surrounded	-13044
▁Agriculture	-13045
▁Birobidzhan	-13046
▁Directorate	-13047
▁Investments	-13048
▁Pessegueiro	-13049
▁Voivodeship	-13050
▁challenging	-13051
▁connections	-13052
▁deployments	-13053
▁destination	-13054
▁distinction	-13055
▁expressions	-13056
▁outstanding	-13057
▁personality	-13058
▁perspective	-13059
▁photographs	-13060
▁politically	-13061
▁potentially	-13062
▁resignation	-13063
▁unpublished	-13064
▁Conservation	-13065
▁Intelligence	-13066
▁Mathematical	-13067
▁Municipality	-13068
▁Saskatchewan	-13069
▁announcement	-13070
▁appointments	-13071
▁aristocratic	-13072
▁collaborated	-13073
▁inscriptions	-13074
▁intervention	-13075
▁jurisdiction	-13076
▁occupational	-13077
▁pharmacology	-13078
▁registration	-13079
▁shareholders	-13080
▁universities	-13081
▁Distinguished	-13082
▁Traditionally	-13083
▁configuration	-13084
▁granddaughter	-13085
▁independently	-13086
▁ophthalmology	-13087
▁traditionally	-13088
▁Czechoslovakia	-13089
▁identification	-13090
1;	-13091
2-	-13092
62	-13093
63	-13094
73	-13095
?'	-13096
AM	-13097
Az	-13098
CL	-13099
DA	-13100
HC	-13101
HS	-13102
La	-13103
PF	-13104
PR	-13105
Ph	-13106
RC	-13107
UM	-13108
VI	-13109
[4	-13110
[7	-13111
\,	-13112
ea	-13113
nt	-13114
oz	-13115
wu	-13116
áš	-13117
ík	-13118
ów	-13119
ús	-13120
īn	-13121
ла	-13122
ра	-13123
้า	-13124
–5	-13125
▁*	-13126
▁ˈ	-13127
▁ب	-13128
▁م	-13129
%),	-13130
)".	-13131
-1-	-13132
-10	-13133
-13	-13134
/10	-13135
0.0	-13136
15)	-13137
2.3	-13138
300	-13139
350	-13140
44′	-13141
61°	-13142
958	-13143
ASP	-13144
All	-13145
Dam	-13146
EEE	-13147
Fox	-13148
Ger	-13149
How	-13150
Lou	-13151
Nov	-13152
Res	-13153
SPN	-13154
Wil	-13155
YNO	-13156
aac	-13157
abo	-13158
add	-13159
aea	-13160
agi	-13161
apa	-13162
bes	-13163
bie	-13164
cas	-13165
cat	-13166
cep	-13167
des	-13168
don	-13169
eff	-13170
eke	-13171
eti	-13172
fan	-13173
fil	-13174
gom	-13175
hin	-13176
his	-13177
hne	-13178
hua	-13179
iaz	-13180
iba	-13181
ige	-13182
ija	-13183
iov	-13184
izo	-13185
kan	-13186
lez	-13187
oat	-13188
oku	-13189
org	-13190
pat	-13191
pow	-13192
rea	-13193
rix	-13194
rub	-13195
sim	-13196
sko	-13197
suk	-13198
ths	-13199
tol	-13200
ulu	-13201
ups	-13202
uzz	-13203
uña	-13204
var	-13205
via	-13206
vor	-13207
xis	-13208
yam	-13209
yps	-13210
zky	-13211
}(\	-13212
üss	-13213
–05	-13214
–09	-13215
–10	-13216
–14	-13217
–25	-13218
▁),	-13219
▁)\	-13220
▁-7	-13221
▁1:	-13222
▁37	-13223
▁46	-13224
▁49	-13225
▁51	-13226
▁54	-13227
▁56	-13228
▁58	-13229
▁84	-13230
▁98	-13231
▁AA	-13232
▁CF	-13233
▁Dy	-13234
▁Ef	-13235
▁FF	-13236
▁Ik	-13237
▁Il	-13238
▁LP	-13239
▁Mi	-13240
▁NL	-13241
▁PR	-13242
▁Pi	-13243
▁SA	-13244
▁ST	-13245
▁Tu	-13246
▁Zh	-13247
▁[2	-13248
▁ca	-13249
▁fu	-13250
▁ma	-13251
'}}}	-13252
-201	-13253
....	-13254
.[38	-13255
.[47	-13256
000,	-13257
1][3	-13258
6][3	-13259
Cats	-13260
Krup	-13261
Mark	-13262
[17]	-13263
][10	-13264
][13	-13265
abel	-13266
alas	-13267
anka	-13268
appy	-13269
atak	-13270
atus	-13271
auge	-13272
aula	-13273
awar	-13274
bied	-13275
both	-13276
bred	-13277
brev	-13278
chem	-13279
clop	-13280
ecil	-13281
edar	-13282
eign	-13283
elia	-13284
elta	-13285
emby	-13286
emia	-13287
eper	-13288
erts	-13289
eway	-13290
fast	-13291
free	-13292
frid	-13293
glob	-13294
hend	-13295
high	-13296
hill	-13297
hran	-13298
iago	-13299
ibet	-13300
ibre	-13301
iday	-13302
ieft	-13303
ifee	-13304
imag	-13305
imen	-13306
inae	-13307
inko	-13308
inus	-13309
isto	-13310
itic	-13311
itis	-13312
izer	-13313
juku	-13314
kina	-13315
lang	-13316
lder	-13317
leen	-13318
litz	-13319
magh	-13320
mill	-13321
near	-13322
oche	-13323
odia	-13324
okes	-13325
olar	-13326
oláš	-13327
onim	-13328
onna	-13329
opal	-13330
oric	-13331
orio	-13332
orms	-13333
oshi	-13334
osit	-13335
othy	-13336
ovia	-13337
pert	-13338
phib	-13339
quis	-13340
rand	-13341
remo	-13342
rier	-13343
rina	-13344
robe	-13345
roke	-13346
rypt	-13347
seat	-13348
shal	-13349
tery	-13350
ucre	-13351
ugar	-13352
ulch	-13353
umer	-13354
unny	-13355
upur	-13356
usan	-13357
uson	-13358
usra	-13359
usty	-13360
usuf	-13361
uted	-13362
weet	-13363
zant	-13364
–198	-13365
▁(2)	-13366
▁(22	-13367
▁11°	-13368
▁120	-13369
▁15-	-13370
▁19.	-13371
▁2–0	-13372
▁34.	-13373
▁3–2	-13374
▁40-	-13375
▁400	-13376
▁47.	-13377
▁50.	-13378
▁52.	-13379
▁550	-13380
▁Ald	-13381
▁Ana	-13382
▁Arm	-13383
▁Ath	-13384
▁Bes	-13385
▁Bod	-13386
▁CBC	-13387
▁Cer	-13388
▁Cyr	-13389
▁DOC	-13390
▁DVD	-13391
▁Deb	-13392
▁Dyn	-13393
▁Ecu	-13394
▁Ens	-13395
▁Ent	-13396
▁Euf	-13397
▁Eun	-13398
▁FBI	-13399
▁FCC	-13400
▁Fem	-13401
▁Fle	-13402
▁Gan	-13403
▁Gaw	-13404
▁Gin	-13405
▁Haz	-13406
▁Hir	-13407
▁Hud	-13408
▁Hye	-13409
▁Ink	-13410
▁Jar	-13411
▁Jür	-13412
▁Kan	-13413
▁Kob	-13414
▁Kud	-13415
▁LTE	-13416
▁Laf	-13417
▁Leo	-13418
▁Lip	-13419
▁Maj	-13420
▁NRL	-13421
▁Nak	-13422
▁Nun	-13423
▁Pam	-13424
▁Pey	-13425
▁Pod	-13426
▁REI	-13427
▁Ras	-13428
▁Raw	-13429
▁Roz	-13430
▁Sau	-13431
▁Sed	-13432
▁Sel	-13433
▁Sem	-13434
▁Sor	-13435
▁Suf	-13436
▁TVB	-13437
▁Tax	-13438
▁Tou	-13439
▁UTC	-13440
▁Und	-13441
▁WWF	-13442
▁Who	-13443
▁Yam	-13444
▁Yan	-13445
▁Yap	-13446
▁Yuc	-13447
▁Zeg	-13448
▁Zit	-13449
▁amb	-13450
▁cob	-13451
▁dil	-13452
▁dun	-13453
▁ell	-13454
▁fit	-13455
▁fur	-13456
▁god	-13457
▁hin	-13458
▁jaw	-13459
▁lip	-13460
▁liv	-13461
▁mil	-13462
▁obl	-13463
▁orn	-13464
▁pap	-13465
▁pit	-13466
▁pub	-13467
▁pup	-13468
▁que	-13469
▁ski	-13470
▁soc	-13471
▁tap	-13472
▁tip	-13473
▁tor	-13474
▁tum	-13475
▁unm	-13476
▁unt	-13477
▁wet	-13478
".[4]	-13479
".[5]	-13480
".[6]	-13481
).[6]	-13482
,[11]	-13483
,[19]	-13484
-1960	-13485
.[60]	-13486
.[71]	-13487
1,000	-13488
Foods	-13489
Gener	-13490
Japan	-13491
Krupp	-13492
Walid	-13493
][24]	-13494
][25]	-13495
][31]	-13496
][44]	-13497
acerb	-13498
aceut	-13499
actor	-13500
adden	-13501
adesh	-13502
adier	-13503
aghan	-13504
amati	-13505
angar	-13506
aniel	-13507
arded	-13508
arnat	-13509
arrie	-13510
assal	-13511
asses	-13512
brook	-13513
caena	-13514
chenk	-13515
clist	-13516
dated	-13517
ecret	-13518
encer	-13519
endra	-13520
erver	-13521
esday	-13522
ester	-13523
eting	-13524
ewing	-13525
force	-13526
haust	-13527
hears	-13528
helps	-13529
henyl	-13530
heres	-13531
heric	-13532
hythm	-13533
iatry	-13534
iatus	-13535
icent	-13536
icked	-13537
iesel	-13538
ikely	-13539
illon	-13540
imity	-13541
inghy	-13542
insky	-13543
inton	-13544
isure	-13545
itely	-13546
ithic	-13547
iyama	-13548
ladys	-13549
ldogs	-13550
lined	-13551
liter	-13552
mates	-13553
mbach	-13554
netti	-13555
nolds	-13556
north	-13557
ocide	-13558
odied	-13559
ollam	-13560
onika	-13561
orthy	-13562
ossil	-13563
ourke	-13564
overy	-13565
oving	-13566
pered	-13567
piece	-13568
power	-13569
print	-13570
quist	-13571
raits	-13572
rated	-13573
renia	-13574
rimin	-13575
rokee	-13576
rosse	-13577
rosso	-13578
roved	-13579
shore	-13580
stage	-13581
sters	-13582
stock	-13583
stown	-13584
uable	-13585
ulogy	-13586
umble	-13587
upert	-13588
uxury	-13589
works	-13590
yards	-13591
yssen	-13592
ández	-13593
▁(177	-13594
▁(188	-13595
▁(190	-13596
▁1000	-13597
▁1836	-13598
▁1838	-13599
▁1870	-13600
▁1881	-13601
▁1884	-13602
▁1887	-13603
▁1892	-13604
▁1901	-13605
▁76.7	-13606
▁AJOP	-13607
▁ALDS	-13608
▁ASWG	-13609
▁Ages	-13610
▁Balk	-13611
▁Bath	-13612
▁Bert	-13613
▁Bett	-13614
▁Bird	-13615
▁Boyd	-13616
▁Bras	-13617
▁Buck	-13618
▁Cass	-13619
▁Chel	-13620
▁Conv	-13621
▁Crow	-13622
▁Cure	-13623
▁Cycl	-13624
▁Dark	-13625
▁Deal	-13626
▁Dipl	-13627
▁ESPN	-13628
▁Earl	-13629
▁Eddy	-13630
▁Edge	-13631
▁Faso	-13632
▁Feld	-13633
▁Fest	-13634
▁Fiji	-13635
▁Fish	-13636
▁Flem	-13637
▁HAŠK	-13638
▁Haas	-13639
▁Haql	-13640
▁Hern	-13641
▁Hero	-13642
▁Home	-13643
▁Hull	-13644
▁Jain	-13645
▁KYNO	-13646
▁Kaly	-13647
▁Kata	-13648
▁Kurt	-13649
▁Leaf	-13650
▁Lily	-13651
▁Lind	-13652
▁Lost	-13653
▁Luck	-13654
▁Macy	-13655
▁Magn	-13656
▁Mail	-13657
▁Mari	-13658
▁Noah	-13659
▁None	-13660
▁Pars	-13661
▁Phot	-13662
▁Pont	-13663
▁Prec	-13664
▁Rand	-13665
▁Rank	-13666
▁Read	-13667
▁Ridg	-13668
▁Rosa	-13669
▁Samp	-13670
▁Saul	-13671
▁Save	-13672
▁Shiv	-13673
▁Stad	-13674
▁Tall	-13675
▁Tamb	-13676
▁Task	-13677
▁Teng	-13678
▁Tiss	-13679
▁Togo	-13680
▁Vand	-13681
▁Vice	-13682
▁Wada	-13683
▁Ward	-13684
▁Wilm	-13685
▁Yitz	-13686
▁acid	-13687
▁arms	-13688
▁barg	-13689
▁barn	-13690
▁belt	-13691
▁biod	-13692
▁blew	-13693
▁brig	-13694
▁buff	-13695
▁busy	-13696
▁clay	-13697
▁comr	-13698
▁cott	-13699
▁debt	-13700
▁demo	-13701
▁desk	-13702
▁dict	-13703
▁diet	-13704
▁dual	-13705
▁easy	-13706
▁else	-13707
▁embr	-13708
▁emot	-13709
▁evil	-13710
▁fate	-13711
▁fees	-13712
▁fict	-13713
▁forg	-13714
▁fram	-13715
▁gast	-13716
▁gene	-13717
▁glob	-13718
▁grid	-13719
▁guer	-13720
▁hear	-13721
▁hect	-13722
▁hell	-13723
▁idol	-13724
▁legs	-13725
▁lift	-13726
▁loos	-13727
▁lord	-13728
▁mere	-13729
▁mont	-13730
▁nerv	-13731
▁obsc	-13732
▁polo	-13733
▁proc	-13734
▁push	-13735
▁salv	-13736
▁snow	-13737
▁span	-13738
▁spin	-13739
▁sued	-13740
▁summ	-13741
▁tact	-13742
▁tier	-13743
▁tone	-13744
▁usur	-13745
▁wait	-13746
▁wasn	-13747
▁zero	-13748
▁zool	-13749
".[10]	-13750
."[11]	-13751
."[17]	-13752
9][20]	-13753
abriel	-13754
agogue	-13755
ambers	-13756
ancies	-13757
arsity	-13758
arting	-13759
commit	-13760
engine	-13761
ennett	-13762
ensson	-13763
forced	-13764
forest	-13765
gomery	-13766
iangle	-13767
inians	-13768
ionary	-13769
larged	-13770
leaved	-13771
lemens	-13772
lining	-13773
nigger	-13774
ockout	-13775
onduct	-13776
onomic	-13777
othurn	-13778
oulder	-13779
overed	-13780
passed	-13781
screen	-13782
second	-13783
uition	-13784
ulsion	-13785
urance	-13786
ushkin	-13787
ypsugo	-13788
▁1899,	-13789
▁1904,	-13790
▁1911,	-13791
▁1914,	-13792
▁1919,	-13793
▁1927.	-13794
▁1932,	-13795
▁1942.	-13796
▁1950,	-13797
▁1954.	-13798
▁1961.	-13799
▁1964,	-13800
▁1965,	-13801
▁1966,	-13802
▁1967,	-13803
▁1968,	-13804
▁1971.	-13805
▁1972.	-13806
▁1975)	-13807
▁1976.	-13808
▁1980,	-13809
▁1986.	-13810
▁2000.	-13811
▁2002.	-13812
▁2020.	-13813
▁Abbey	-13814
▁Aerop	-13815
▁Aires	-13816
▁Alger	-13817
▁Alisa	-13818
▁Allan	-13819
▁Atlas	-13820
▁Ayson	-13821
▁Azash	-13822
▁Bahri	-13823
▁Barry	-13824
▁Based	-13825
▁Basin	-13826
▁Blood	-13827
▁Boris	-13828
▁Bridg	-13829
▁Bryan	-13830
▁Cecil	-13831
▁Ciren	-13832
▁Clair	-13833
▁Clute	-13834
▁Coach	-13835
▁Craig	-13836
▁Crete	-13837
▁Crypt	-13838
▁Daily	-13839
▁Dupré	-13840
▁Ethel	-13841
▁Euson	-13842
▁Event	-13843
▁Fargo	-13844
▁Feder	-13845
▁Galer	-13846
▁Glenn	-13847
▁Gmina	-13848
▁Grupo	-13849
▁Hemby	-13850
▁Henne	-13851
▁Henri	-13852
▁Hiren	-13853
▁Islam	-13854
▁Jerry	-13855
▁Jesus	-13856
▁Joyce	-13857
▁Julie	-13858
▁Lanka	-13859
▁Latif	-13860
▁Lloyd	-13861
▁Lords	-13862
▁Losey	-13863
▁Maced	-13864
▁Mahal	-13865
▁Males	-13866
▁Mason	-13867
▁Musik	-13868
▁Nagar	-13869
▁Nazis	-13870
▁Neigh	-13871
▁Papua	-13872
▁Parad	-13873
▁Plate	-13874
▁Pride	-13875
▁Pruss	-13876
▁Races	-13877
▁Rapid	-13878
▁Reich	-13879
▁Robin	-13880
▁Samoa	-13881
▁Santo	-13882
▁Seven	-13883
▁Sixth	-13884
▁Somal	-13885
▁Susan	-13886
▁Today	-13887
▁Trade	-13888
▁Trenč	-13889
▁Wajid	-13890
▁Weird	-13891
▁Yavat	-13892
▁Yemen	-13893
▁Yusuf	-13894
▁absor	-13895
▁alien	-13896
▁alter	-13897
▁amend	-13898
▁anten	-13899
▁arose	-13900
▁aspir	-13901
▁badly	-13902
▁bears	-13903
▁boats	-13904
▁bombs	-13905
▁bonus	-13906
▁borne	-13907
▁boxes	-13908
▁cater	-13909
▁choir	-13910
▁crush	-13911
▁deals	-13912
▁dealt	-13913
▁doesn	-13914
▁drunk	-13915
▁dwell	-13916
▁enact	-13917
▁epist	-13918
▁equal	-13919
▁explo	-13920
▁fails	-13921
▁false	-13922
▁fauna	-13923
▁fires	-13924
▁forty	-13925
▁fraud	-13926
▁halls	-13927
▁hence	-13928
▁horiz	-13929
▁integ	-13930
▁notew	-13931
▁ocean	-13932
▁opted	-13933
▁parks	-13934
▁pater	-13935
▁peaks	-13936
▁photo	-13937
▁posts	-13938
▁pride	-13939
▁promo	-13940
▁prosp	-13941
▁raids	-13942
▁rains	-13943
▁rated	-13944
▁rates	-13945
▁recre	-13946
▁remin	-13947
▁reset	-13948
▁saint	-13949
▁seeks	-13950
▁sends	-13951
▁shaft	-13952
▁sharp	-13953
▁shops	-13954
▁skate	-13955
▁solid	-13956
▁spend	-13957
▁spite	-13958
▁stuff	-13959
▁sweep	-13960
▁swept	-13961
▁swing	-13962
▁telev	-13963
▁tenth	-13964
▁texts	-13965
▁tours	-13966
▁tunes	-13967
▁vicar	-13968
▁villa	-13969
▁vinyl	-13970
▁warri	-13971
▁wound	-13972
▁yards	-13973
.[47][4	-13974
.[4][7]	-13975
English	-13976
General	-13977
Spanish	-13978
akedown	-13979
arracks	-13980
charged	-13981
cinelli	-13982
country	-13983
ductive	-13984
ication	-13985
icornis	-13986
ificate	-13987
inative	-13988
itorium	-13989
largest	-13990
lecting	-13991
ogether	-13992
onomous	-13993
oticist	-13994
porters	-13995
quarium	-13996
selling	-13997
telling	-13998
through	-13999
▁80,000	-14000
▁Affair	-14001
▁Almost	-14002
▁Anglic	-14003
▁Arabic	-14004
▁Aranga	-14005
▁Armagh	-14006
▁Asante	-14007
▁Athens	-14008
▁Aubrey	-14009
▁Bergen	-14010
▁Beyond	-14011
▁Binner	-14012
▁Bourke	-14013
▁Buenos	-14014
▁Cerezo	-14015
▁Chakra	-14016
▁Change	-14017
▁Cooper	-14018
▁Deakes	-14019
▁Dennis	-14020
▁Edessa	-14021
▁Ernest	-14022
▁Financ	-14023
▁Friday	-14024
▁Gender	-14025
▁Ground	-14026
▁Harper	-14027
▁Hearst	-14028
▁Holmes	-14029
▁Hudson	-14030
▁Hurter	-14031
▁Jürgen	-14032
▁Karnat	-14033
▁Kollam	-14034
▁Ludwig	-14035
▁Madrid	-14036
▁Marina	-14037
▁McGraw	-14038
▁Medina	-14039
▁Motion	-14040
▁Motors	-14041
▁Nature	-14042
▁Occupy	-14043
▁Others	-14044
▁Passed	-14045
▁Phelps	-14046
▁Poetic	-14047
▁Poetry	-14048
▁Punjab	-14049
▁Rifles	-14050
▁Saipan	-14051
▁Sakura	-14052
▁Sangju	-14053
▁Schenk	-14054
▁Serbia	-14055
▁Sergei	-14056
▁Sierra	-14057
▁Strand	-14058
▁Tasman	-14059
▁Tehran	-14060
▁Teresa	-14061
▁Thrash	-14062
▁Trench	-14063
▁Trevor	-14064
▁Ulrich	-14065
▁Valent	-14066
▁Viacom	-14067
▁Vicuña	-14068
▁Wagner	-14069
▁Wednes	-14070
▁Weekly	-14071
▁Werner	-14072
▁absent	-14073
▁affair	-14074
▁armies	-14075
▁asking	-14076
▁bacter	-14077
▁ballot	-14078
▁cattle	-14079
▁charts	-14080
▁coasts	-14081
▁colors	-14082
▁conven	-14083
▁crosso	-14084
▁curren	-14085
▁dinghy	-14086
▁dubbed	-14087
▁endors	-14088
▁explan	-14089
▁facial	-14090
▁fertil	-14091
▁finest	-14092
▁halted	-14093
▁hammer	-14094
▁homage	-14095
▁hoping	-14096
▁inject	-14097
▁insign	-14098
▁intrig	-14099
▁lineup	-14100
▁loaded	-14101
▁margin	-14102
▁memoir	-14103
▁mentor	-14104
▁metall	-14105
▁mining	-14106
▁minute	-14107
▁moment	-14108
▁nomine	-14109
▁obsess	-14110
▁openly	-14111
▁parent	-14112
▁paying	-14113
▁pinyin	-14114
▁podium	-14115
▁postal	-14116
▁proven	-14117
▁pursue	-14118
▁rapper	-14119
▁rookie	-14120
▁saving	-14121
▁scheme	-14122
▁scorer	-14123
▁scores	-14124
▁specul	-14125
▁supern	-14126
▁tasked	-14127
▁terror	-14128
▁ticket	-14129
▁titers	-14130
▁vassal	-14131
▁violin	-14132
▁voting	-14133
▁wonder	-14134
▁yearly	-14135
agogical	-14136
breaking	-14137
ognitive	-14138
olidated	-14139
olutions	-14140
olycaena	-14141
opotamia	-14142
ordinate	-14143
oretical	-14144
ottiming	-14145
overeign	-14146
pestries	-14147
speaking	-14148
velation	-14149
▁2004–05	-14150
▁2008–09	-14151
▁Alexand	-14152
▁Article	-14153
▁Bavaria	-14154
▁Bermuda	-14155
▁Bernard	-14156
▁Bettman	-14157
▁Birming	-14158
▁Boulder	-14159
▁Bristol	-14160
▁Burkina	-14161
▁Chapter	-14162
▁Chester	-14163
▁Clayton	-14164
▁Collins	-14165
▁Digital	-14166
▁Drawsko	-14167
▁Duchess	-14168
▁Ecuador	-14169
▁Estonia	-14170
▁Eufaula	-14171
▁Factory	-14172
▁Fantasy	-14173
▁Finally	-14174
▁Flemish	-14175
▁Gretzky	-14176
▁Gunther	-14177
▁Harlien	-14178
▁Hartney	-14179
▁Letters	-14180
▁Looking	-14181
▁Malabar	-14182
▁Mansion	-14183
▁Marilyn	-14184
▁Maurice	-14185
▁Menifee	-14186
▁Mikoláš	-14187
▁Outside	-14188
▁Pradesh	-14189
▁Proctor	-14190
▁Reports	-14191
▁Sampson	-14192
▁Sandesh	-14193
▁Serbian	-14194
▁Thyssen	-14195
▁Tuesday	-14196
▁Udhagam	-14197
▁Walther	-14198
▁aquatic	-14199
▁assault	-14200
▁avoided	-14201
▁backing	-14202
▁barrier	-14203
▁battery	-14204
▁batting	-14205
▁beating	-14206
▁broadly	-14207
▁cancell	-14208
▁carries	-14209
▁chooses	-14210
▁clothes	-14211
▁collaps	-14212
▁colonel	-14213
▁colored	-14214
▁compens	-14215
▁confess	-14216
▁confirm	-14217
▁consequ	-14218
▁convert	-14219
▁crafter	-14220
▁creates	-14221
▁debated	-14222
▁decides	-14223
▁diocese	-14224
▁disagre	-14225
▁diverse	-14226
▁drawing	-14227
▁drummer	-14228
▁earning	-14229
▁editing	-14230
▁entries	-14231
▁environ	-14232
▁exacerb	-14233
▁fascist	-14234
▁forcing	-14235
▁graphic	-14236
▁haunted	-14237
▁highway	-14238
▁ignored	-14239
▁invaded	-14240
▁knocked	-14241
▁knowing	-14242
▁lineage	-14243
▁lizards	-14244
▁lobbied	-14245
▁mansion	-14246
▁mosques	-14247
▁nations	-14248
▁neglect	-14249
▁neurosc	-14250
▁offense	-14251
▁paediat	-14252
▁painter	-14253
▁passive	-14254
▁pigment	-14255
▁pitched	-14256
▁platoon	-14257
▁posthum	-14258
▁powered	-14259
▁premier	-14260
▁prolong	-14261
▁proport	-14262
▁ratings	-14263
▁readily	-14264
▁remodel	-14265
▁reveals	-14266
▁rewards	-14267
▁rounded	-14268
▁samples	-14269
▁scandal	-14270
▁sharing	-14271
▁slavery	-14272
▁spirits	-14273
▁staying	-14274
▁strikes	-14275
▁studios	-14276
▁sustain	-14277
▁telling	-14278
▁trading	-14279
▁trumpet	-14280
▁upgrade	-14281
▁varying	-14282
▁weights	-14283
.[16][17]	-14284
][11][12]	-14285
aceutical	-14286
consensus	-14287
ominantly	-14288
▁2021.[1]	-14289
▁Alliance	-14290
▁Augustan	-14291
▁Bulldogs	-14292
▁Cambodia	-14293
▁Cemetery	-14294
▁Chandler	-14295
▁Chaudoir	-14296
▁Cherokee	-14297
▁Colombia	-14298
▁Connelly	-14299
▁Crayfish	-14300
▁Domesday	-14301
▁Emirates	-14302
▁Exchange	-14303
▁Genetics	-14304
▁Harriman	-14305
▁Holdings	-14306
▁Imperial	-14307
▁Infinity	-14308
▁Internet	-14309
▁Invasion	-14310
▁Kalmbach	-14311
▁Kilkenny	-14312
▁Malaysia	-14313
▁Nigerian	-14314
▁Numerous	-14315
▁Oriental	-14316
▁Percival	-14317
▁Peterson	-14318
▁Phoenice	-14319
▁Pleasant	-14320
▁Resident	-14321
▁Reynolds	-14322
▁Rousseau	-14323
▁Santiago	-14324
▁Shinjuku	-14325
▁Superman	-14326
▁Valencia	-14327
▁Valerian	-14328
▁Waterloo	-14329
▁Yavatmal	-14330
▁abnormal	-14331
▁accurate	-14332
▁adoption	-14333
▁advocate	-14334
▁ancestor	-14335
▁animated	-14336
▁assisted	-14337
▁attested	-14338
▁attracts	-14339
▁benefits	-14340
▁boarding	-14341
▁breaking	-14342
▁chimneys	-14343
▁circular	-14344
▁colorful	-14345
▁congress	-14346
▁corridor	-14347
▁councill	-14348
▁counties	-14349
▁damaging	-14350
▁designer	-14351
▁educator	-14352
▁eighteen	-14353
▁enclosed	-14354
▁external	-14355
▁farmland	-14356
▁feminism	-14357
▁feminist	-14358
▁fighters	-14359
▁focusing	-14360
▁gameplay	-14361
▁globally	-14362
▁granting	-14363
▁hectares	-14364
▁holdings	-14365
▁imprison	-14366
▁indirect	-14367
▁interpre	-14368
▁invasive	-14369
▁juvenile	-14370
▁latitude	-14371
▁literacy	-14372
▁machines	-14373
▁magnetic	-14374
▁messages	-14375
▁migrated	-14376
▁millions	-14377
▁moderate	-14378
▁murdered	-14379
▁narrowly	-14380
▁navigate	-14381
▁nickname	-14382
▁occupies	-14383
▁offshore	-14384
▁operator	-14385
▁opinions	-14386
▁oriented	-14387
▁overwhel	-14388
▁pallidum	-14389
▁paternal	-14390
▁playable	-14391
▁preserve	-14392
▁printing	-14393
▁probable	-14394
▁prohibit	-14395
▁promptly	-14396
▁proteins	-14397
▁provider	-14398
▁reducing	-14399
▁relevant	-14400
▁reprints	-14401
▁requests	-14402
▁reversed	-14403
▁revision	-14404
▁sculptor	-14405
▁sentence	-14406
▁sequence	-14407
▁settings	-14408
▁spelling	-14409
▁stealing	-14410
▁sweeping	-14411
▁universe	-14412
▁unlikely	-14413
▁variable	-14414
▁waterway	-14415
▁wildtype	-14416
▁withdraw	-14417
.[4][5][6]	-14418
roboticist	-14419
treponemal	-14420
▁Alongside	-14421
▁Anthology	-14422
▁Athletics	-14423
▁Avalanche	-14424
▁Brugnetti	-14425
▁Canadians	-14426
▁Clairmont	-14427
▁Direction	-14428
▁Directive	-14429
▁Interbrew	-14430
▁Karatasos	-14431
▁Karnataka	-14432
▁Landmarks	-14433
▁Municipal	-14434
▁Northwest	-14435
▁Paramount	-14436
▁Principal	-14437
▁Secondary	-14438
▁Solothurn	-14439
▁Transport	-14440
▁admission	-14441
▁aesthetic	-14442
▁aggregate	-14443
▁allegedly	-14444
▁answering	-14445
▁ascending	-14446
▁assembled	-14447
▁attitudes	-14448
▁bluntnose	-14449
▁capturing	-14450
▁cartridge	-14451
▁colleague	-14452
▁collision	-14453
▁commanded	-14454
▁commenced	-14455
▁compelled	-14456
▁computers	-14457
▁conductor	-14458
▁contacted	-14459
▁crossover	-14460
▁dangerous	-14461
▁decorated	-14462
▁depiction	-14463
▁designers	-14464
▁designing	-14465
▁diagnosed	-14466
▁diagnosis	-14467
▁directing	-14468
▁divisions	-14469
▁ecosystem	-14470
▁elongated	-14471
▁estimates	-14472
▁exploring	-14473
▁gallantry	-14474
▁gathering	-14475
▁guitarist	-14476
▁hardcover	-14477
▁impressed	-14478
▁interface	-14479
▁investors	-14480
▁landscape	-14481
▁landslide	-14482
▁launching	-14483
▁licensing	-14484
▁materials	-14485
▁measuring	-14486
▁mechanism	-14487
▁molecules	-14488
▁mythology	-14489
▁newscasts	-14490
▁notorious	-14491
▁penalties	-14492
▁platforms	-14493
▁populated	-14494
▁preparing	-14495
▁principle	-14496
▁proceeded	-14497
▁projected	-14498
▁promising	-14499
▁recognize	-14500
▁recruited	-14501
▁reduction	-14502
▁referring	-14503
▁refresher	-14504
▁remainder	-14505
▁respected	-14506
▁reviewers	-14507
▁sensitive	-14508
▁separated	-14509
▁seriously	-14510
▁specified	-14511
▁survivors	-14512
▁technique	-14513
▁therapeut	-14514
▁traveling	-14515
▁workshops	-14516
dimensional	-14517
temperature	-14518
▁Archbishop	-14519
▁Birmingham	-14520
▁Doddabetta	-14521
▁Indigenous	-14522
▁Montgomery	-14523
▁Philippine	-14524
▁Physicians	-14525
▁Reflecting	-14526
▁Ridgecrest	-14527
▁Rosenfield	-14528
▁Sacramento	-14529
▁Trotskyist	-14530
▁Wilmington	-14531
▁affiliates	-14532
▁apparently	-14533
▁assessment	-14534
▁attempting	-14535
▁casualties	-14536
▁categories	-14537
▁companions	-14538
▁comparable	-14539
▁complaints	-14540
▁completing	-14541
▁contingent	-14542
▁corruption	-14543
▁descendant	-14544
▁difference	-14545
▁directions	-14546
▁distinctly	-14547
▁electrical	-14548
▁elevations	-14549
▁fellowship	-14550
▁guaranteed	-14551
▁highlights	-14552
▁identifies	-14553
▁informally	-14554
▁integrated	-14555
▁kilometers	-14556
▁nationwide	-14557
▁noteworthy	-14558
▁occurrence	-14559
▁perception	-14560
▁periodical	-14561
▁personally	-14562
▁pertaining	-14563
▁prefecture	-14564
▁preserving	-14565
▁principles	-14566
▁processing	-14567
▁programmes	-14568
▁pronounced	-14569
▁protecting	-14570
▁regulatory	-14571
▁repeatedly	-14572
▁resonators	-14573
▁retreating	-14574
▁statements	-14575
▁struggling	-14576
▁succeeding	-14577
▁succession	-14578
▁supervised	-14579
▁surprising	-14580
▁theatrical	-14581
▁underlying	-14582
▁vocational	-14583
intellectual	-14584
▁Christopher	-14585
▁Cirencester	-14586
▁Henneberger	-14587
▁Mathematics	-14588
▁Mesopotamia	-14589
▁Polytechnic	-14590
▁Progressive	-14591
▁Scarborough	-14592
▁anticipated	-14593
▁conjunction	-14594
▁continually	-14595
▁contributor	-14596
▁controlling	-14597
▁counterpart	-14598
▁countryside	-14599
▁descendants	-14600
▁discussions	-14601
▁encompasses	-14602
▁encountered	-14603
▁fundamental	-14604
▁identifying	-14605
▁integration	-14606
▁interaction	-14607
▁investigate	-14608
▁legislature	-14609
▁observation	-14610
▁occupations	-14611
▁permanently	-14612
▁preliminary	-14613
▁productions	-14614
▁professions	-14615
▁promotional	-14616
▁restaurants	-14617
▁spaceflight	-14618
▁surrendered	-14619
▁temporarily	-14620
.[1][2][3][4]	-14621
▁Nevertheless	-14622
▁Oberleutnant	-14623
▁Publications	-14624
▁ThyssenKrupp	-14625
▁Tissottiming	-14626
▁Vijayanagara	-14627
▁accidentally	-14628
▁accomplished	-14629
▁biodiversity	-14630
▁environments	-14631
▁governmental	-14632
▁historically	-14633
▁instrumental	-14634
▁interactions	-14635
▁interference	-14636
▁motorcyclist	-14637
▁northeastern	-14638
▁protagonists	-14639
▁redesignated	-14640
▁screenwriter	-14641
▁strengthened	-14642
▁unsuccessful	-14643
▁Authorization	-14644
▁Ophthalmology	-14645
▁Pseudolycaena	-14646
▁abnormalities	-14647
▁archaeologist	-14648
▁certification	-14649
▁installations	-14650
▁manufacturing	-14651
▁personalities	-14652
▁predominantly	-14653
▁Udhagamandalam	-14654
▁pharmaceutical	-14655
'.	-14656
)"	-14657
)(	-14658
02	-14659
4%	-14660
72	-14661
7;	-14662
9%	-14663
?"	-14664
Af	-14665
CN	-14666
DP	-14667
De	-14668
EM	-14669
EN	-14670
KO	-14671
Ku	-14672
LB	-14673
MI	-14674
NC	-14675
OO	-14676
QU	-14677
RG	-14678
RP	-14679
Ro	-14680
SM	-14681
So	-14682
Ur	-14683
cz	-14684
gf	-14685
iq	-14686
ln	-14687
mi	-14688
nb	-14689
sq	-14690
uj	-14691
vá	-14692
yu	-14693
är	-14694
öf	-14695
ăs	-14696
ال	-14697
ری	-14698
สม	-14699
▁×	-14700
).[	-14701
)}}	-14702
,[5	-14703
-12	-14704
-16	-14705
-24	-14706
-7)	-14707
.'"	-14708
0.5	-14709
139	-14710
156	-14711
2.6	-14712
25.	-14713
250	-14714
3.5	-14715
320	-14716
38′	-14717
5.7	-14718
50%	-14719
56′	-14720
57′	-14721
6.8	-14722
722	-14723
78°	-14724
9.4	-14725
900	-14726
944	-14727
99)	-14728
;[2	-14729
;[3	-14730
;[4	-14731
And	-14732
Ans	-14733
Bay	-14734
CAO	-14735
Can	-14736
DIT	-14737
ERP	-14738
For	-14739
Gri	-14740
NYC	-14741
Pro	-14742
QUB	-14743
Reg	-14744
SBN	-14745
Sch	-14746
Ser	-14747
TIs	-14748
USA	-14749
^{2	-14750
_{2	-14751
agh	-14752
aha	-14753
ahn	-14754
ahr	-14755
aic	-14756
aqu	-14757
arv	-14758
atl	-14759
auf	-14760
bac	-14761
bad	-14762
bek	-14763
bey	-14764
cod	-14765
cut	-14766
div	-14767
eef	-14768
eem	-14769
egu	-14770
enz	-14771
esb	-14772
eym	-14773
eyn	-14774
fsp	-14775
gie	-14776
god	-14777
has	-14778
hig	-14779
ibi	-14780
idt	-14781
igg	-14782
iko	-14783
iop	-14784
ivo	-14785
las	-14786
los	-14787
may	-14788
nas	-14789
oda	-14790
oop	-14791
pic	-14792
pit	-14793
six	-14794
tan	-14795
tee	-14796
uar	-14797
ubo	-14798
uje	-14799
urm	-14800
uts	-14801
vir	-14802
wen	-14803
wyn	-14804
zeb	-14805
äck	-14806
éné	-14807
–16	-14808
–22	-14809
–95	-14810
′00	-14811
▁#3	-14812
▁-3	-14813
▁2-	-14814
▁6-	-14815
▁67	-14816
▁86	-14817
▁Bf	-14818
▁Ci	-14819
▁Da	-14820
▁Eg	-14821
▁Ep	-14822
▁GA	-14823
▁HD	-14824
▁JT	-14825
▁KD	-14826
▁Ka	-14827
▁MA	-14828
▁Mv	-14829
▁NS	-14830
▁Oz	-14831
▁PO	-14832
▁SE	-14833
▁SF	-14834
▁SP	-14835
▁Sł	-14836
▁VR	-14837
▁WB	-14838
▁WO	-14839
▁WT	-14840
▁Wi	-14841
▁cu	-14842
▁ol	-14843
▁ox	-14844
▁ty	-14845
▁ve	-14846
▁zu	-14847
▁£1	-14848
-198	-14849
-200	-14850
.[25	-14851
.[30	-14852
/200	-14853
1][4	-14854
2][5	-14855
333°	-14856
68),	-14857
:[3]	-14858
;[7]	-14859
Azot	-14860
EPCO	-14861
Name	-14862
Part	-14863
Thib	-14864
West	-14865
[12]	-14866
[16]	-14867
[20]	-14868
][14	-14869
acic	-14870
acio	-14871
adar	-14872
agen	-14873
aism	-14874
akey	-14875
alah	-14876
amas	-14877
aned	-14878
anes	-14879
anin	-14880
annt	-14881
ansk	-14882
apse	-14883
aque	-14884
arta	-14885
arte	-14886
asis	-14887
atec	-14888
atem	-14889
atán	-14890
avil	-14891
ayak	-14892
bank	-14893
bins	-14894
bria	-14895
buri	-14896
burn	-14897
capt	-14898
clar	-14899
cler	-14900
cole	-14901
cond	-14902
cope	-14903
dell	-14904
deus	-14905
died	-14906
dist	-14907
duce	-14908
duty	-14909
eing	-14910
elig	-14911
emer	-14912
enco	-14913
esch	-14914
esky	-14915
esto	-14916
fled	-14917
four	-14918
ften	-14919
gate	-14920
ghan	-14921
grid	-14922
heid	-14923
hiri	-14924
hman	-14925
horn	-14926
iano	-14927
icia	-14928
ideo	-14929
ifth	-14930
ilty	-14931
imic	-14932
inde	-14933
inqu	-14934
inth	-14935
iris	-14936
irty	-14937
isle	-14938
itro	-14939
itus	-14940
kill	-14941
lend	-14942
lies	-14943
loss	-14944
mett	-14945
midt	-14946
mith	-14947
neak	-14948
neur	-14949
nort	-14950
ogen	-14951
oire	-14952
olds	-14953
olph	-14954
omon	-14955
only	-14956
osmo	-14957
othe	-14958
otto	-14959
ovsk	-14960
ppen	-14961
pron	-14962
quer	-14963
rank	-14964
rant	-14965
rawn	-14966
roac	-14967
rodo	-14968
rosy	-14969
rows	-14970
ruff	-14971
says	-14972
send	-14973
shop	-14974
shot	-14975
sung	-14976
tier	-14977
tree	-14978
ubie	-14979
ucid	-14980
ucle	-14981
ucus	-14982
uder	-14983
uevo	-14984
ught	-14985
ukas	-14986
ulia	-14987
ulls	-14988
ulum	-14989
ulus	-14990
umal	-14991
umba	-14992
umns	-14993
unal	-14994
urel	-14995
urse	-14996
utur	-14997
vili	-14998
wear	-14999
wort	-15000
ynes	-15001
yric	-15002
zhen	-15003
çois	-15004
írez	-15005
šice	-15006
–197	-15007
▁$25	-15008
▁(14	-15009
▁0.5	-15010
▁110	-15011
▁113	-15012
▁115	-15013
▁117	-15014
▁118	-15015
▁12.	-15016
▁125	-15017
▁130	-15018
▁148	-15019
▁159	-15020
▁160	-15021
▁163	-15022
▁169	-15023
▁173	-15024
▁176	-15025
▁179	-15026
▁18.	-15027
▁240	-15028
▁253	-15029
▁256	-15030
▁267	-15031
▁27.	-15032
▁29.	-15033
▁2–2	-15034
▁30-	-15035
▁30.	-15036
▁315	-15037
▁44,	-15038
▁45.	-15039
▁501	-15040
▁700	-15041
▁74°	-15042
▁76°	-15043
▁78.	-15044
▁7–6	-15045
▁8/1	-15046
▁AIC	-15047
▁ATP	-15048
▁Abu	-15049
▁Alc	-15050
▁Alg	-15051
▁Alt	-15052
▁Arr	-15053
▁Aug	-15054
▁Bam	-15055
▁Bek	-15056
▁Bil	-15057
▁Blo	-15058
▁Blu	-15059
▁CPV	-15060
▁CSF	-15061
▁Coy	-15062
▁Dap	-15063
▁Did	-15064
▁Dod	-15065
▁Dud	-15066
▁EBK	-15067
▁Ehr	-15068
▁Elm	-15069
▁Equ	-15070
▁Fab	-15071
▁Fad	-15072
▁Fug	-15073
▁Fuk	-15074
▁Got	-15075
▁HTS	-15076
▁Hem	-15077
▁Hik	-15078
▁Hod	-15079
▁IFA	-15080
▁IPA	-15081
▁Ian	-15082
▁Ish	-15083
▁Kay	-15084
▁Kir	-15085
▁Kor	-15086
▁Kuz	-15087
▁LSU	-15088
▁Lan	-15089
▁Lep	-15090
▁Lib	-15091
▁Log	-15092
▁Lop	-15093
▁Ltd	-15094
▁MMA	-15095
▁MPs	-15096
▁McA	-15097
▁McS	-15098
▁Mem	-15099
▁Mul	-15100
▁MyN	-15101
▁NAC	-15102
▁Nep	-15103
▁Nik	-15104
▁OMA	-15105
▁Oil	-15106
▁Ost	-15107
▁PAC	-15108
▁PBS	-15109
▁RVM	-15110
▁Raf	-15111
▁Rap	-15112
▁Rip	-15113
▁Row	-15114
▁Rub	-15115
▁Sha	-15116
▁Sit	-15117
▁Siu	-15118
▁Sme	-15119
▁Son	-15120
▁Sug	-15121
▁Tun	-15122
▁Tur	-15123
▁Typ	-15124
▁Tyr	-15125
▁USD	-15126
▁Von	-15127
▁WIT	-15128
▁Wer	-15129
▁Xin	-15130
▁Yor	-15131
▁Yuk	-15132
▁Yun	-15133
▁ZOE	-15134
▁Zer	-15135
▁agr	-15136
▁anx	-15137
▁arc	-15138
▁ath	-15139
▁bat	-15140
▁bob	-15141
▁cer	-15142
▁cig	-15143
▁cup	-15144
▁dup	-15145
▁eat	-15146
▁flu	-15147
▁für	-15148
▁gro	-15149
▁gym	-15150
▁hol	-15151
▁hur	-15152
▁jet	-15153
▁kit	-15154
▁nut	-15155
▁rag	-15156
▁rav	-15157
▁sax	-15158
▁spl	-15159
▁tag	-15160
▁ton	-15161
▁tox	-15162
▁umb	-15163
▁yen	-15164
."[8]	-15165
.[68]	-15166
.[77]	-15167
Black	-15168
Brown	-15169
Louis	-15170
Nepal	-15171
Xceed	-15172
][30]	-15173
][36]	-15174
^{0},	-15175
ablus	-15176
acock	-15177
alach	-15178
alist	-15179
amoto	-15180
andin	-15181
anoke	-15182
ansen	-15183
apest	-15184
argau	-15185
ariah	-15186
arthy	-15187
arton	-15188
arvae	-15189
aryng	-15190
ascom	-15191
assau	-15192
atius	-15193
atown	-15194
avera	-15195
avers	-15196
avier	-15197
aware	-15198
bassy	-15199
berra	-15200
birth	-15201
black	-15202
chair	-15203
chief	-15204
eches	-15205
edged	-15206
elalp	-15207
elves	-15208
encvá	-15209
enger	-15210
enium	-15211
epsie	-15212
erals	-15213
ervon	-15214
espie	-15215
essig	-15216
faced	-15217
finch	-15218
fspro	-15219
gment	-15220
great	-15221
[...]
